// DO NOT EDIT. File generated automatically, your changes will be lost when regenerated.
#pragma once

#include <stdint.h>

class ModelParameters {
public:
    //////////////////////
    //   conv1: Conv2d
    //////////////////////

    static constexpr float conv1_kernel_weight_scale = 0.00875158142;

    static constexpr uint32_t conv1_kernel_weight_data[100] = {
        0x0FE7050F, 0xED13EF19, 0xDDF9E905, 0x11FD0B0C,
        0x01F7DC03, 0xF5F50007, 0xE10307F9, 0x0EEEE9FC,
        0xC6FAE6F1, 0xFC02040A, 0xE30E14DC, 0x0AF40DFA,
        0x81DC03F6, 0x15FEFDDE, 0xEA101600, 0x0AE92408,
        0xDDCF24DC, 0xF1071F09, 0xF0110023, 0xEF1F17FF,
        0xFC1505F3, 0x13330B04, 0xD70B1F1C, 0xDBFE1003,
        0x1115EA0A, 0x060CF0EF, 0xF6E21305, 0xF1FF0BF0,
        0xF0030006, 0xF1E9F612, 0xFEE91414, 0x1510F4D2,
        0xE402140F, 0xF7E9F2DF, 0x17011AE8, 0xEDFC0407,
        0x19E7F5F0, 0x2DE5040C, 0xE6FFE8F6, 0x271BFADE,
        0xF8050915, 0xE30E0D14, 0xECFFF718, 0x0E06F1FF,
        0xFB0FEDF2, 0x21F51E24, 0x0DE401E6, 0x030FEA15,
        0x04FD1100, 0xED06FD05, 0x14191207, 0x071709F0,
        0x1716E5EC, 0xF401C9FA, 0x0F0BF31F, 0xDD110000,
        0x07F00AF8, 0x17EC040C, 0x07F7F30B, 0x16E601F6,
        0x080AF211, 0x0202FADE, 0x09DC0302, 0x090306E8,
        0xFEED111F, 0x04FE07FF, 0x080311E9, 0x10F709FD,
        0x0504FDDF, 0xF7F8EF15, 0xEF1F000A, 0x0A03000E,
        0xFCF90FE8, 0x060CAB03, 0x01E903E5, 0xF9F6EC11,
        0x040B181A, 0x16FBD701, 0x09FDEB08, 0xE6D3F011,
        0x00121818, 0x08FFF4E7, 0xEEF4F615, 0xFC0C1E03,
        0x05FB0315, 0x0A0D06DA, 0x0E06E4E6, 0x02FD0713,
        0x060E13EE, 0x01040E01, 0x1923EBFC, 0xF9E9FB0B,
        0xF318DAF1, 0x1609EE08, 0xF5F405EC, 0xEA09D421,
        0xF712E821, 0xDBDEE3FB, 0x0FE6F2F8, 0x0ADEC00D
    };

    static constexpr float conv1_bias_data[16] = {
        0.0848178193f, -0.035078831f, -0.135749534f, -0.13105303f,
        0.0231756009f, 0.120551005f, -0.152622446f, -0.0821089521f,
        0.0140741495f, 0.106394283f, -0.0637923479f, 0.000814591302f,
        0.058182992f, -0.0866971985f, -0.211189568f, -0.0204985347f
    };

    //////////////////////
    //   batchnorm1: BatchNorm2d
    //////////////////////

    static constexpr float batchnorm1_scale_data[16] = {
        0.698054075f, 1.44862819f, 1.90725791f, 1.03950489f,
        1.77684367f, 1.30107462f, 0.606398702f, 2.03260326f,
        0.834899724f, 1.83398008f, 1.38804603f, 1.32321f,
        2.30176711f, 1.67324662f, 1.20643663f, 1.29179716f
    };

    static constexpr float batchnorm1_shift_data[16] = {
        -0.525609851f, 0.0713817924f, 0.609125137f, 0.290967405f,
        -0.66299957f, -0.0815975443f, -0.293789297f, 0.559829593f,
        -0.0904657766f, -0.284752488f, 0.18710506f, 0.207847506f,
        -0.145044327f, -0.0880336463f, 0.162282646f, -0.00112300366f
    };

    //////////////////////
    //   conv2: Conv2d
    //////////////////////

    static constexpr float conv2_kernel_weight_scale = 0.00570000801;

    static constexpr uint32_t conv2_kernel_weight_data[864] = {
        0x17DD12D7, 0xCDDAF808, 0x0506FD7B, 0xF927CB30, 0x0105EC1C, 0x3AF80AFF,
        0x07F318D9, 0xE5BC1C36, 0xF71CDE30, 0xDD29250D, 0x13EDD3FC, 0x32412311,
        0x0DEE170F, 0x0DFAFE13, 0x0928CEFA, 0xB737FCDC, 0xC4F0DD16, 0x284E2FCF,
        0x23091CE4, 0xE202F615, 0xF9DCF348, 0x0D26E20D, 0x27FFF51F, 0x3E170BF1,
        0xF0FBEAE1, 0x0DCD1704, 0xEFEFF64E, 0xF31D1416, 0x21DDEDD8, 0x2C161FFF,
        0x14FB0302, 0x27D423EB, 0xF533F32E, 0xE1FA07F8, 0xE5E1C6EA, 0x2111FFF5,
        0xF9111B16, 0xEAFF05FC, 0xFEF0F210, 0x04D2EC09, 0x1BF33611, 0x0EF3FC07,
        0xE7130AF2, 0xF2FA03F7, 0xFDF10126, 0xF8D80326, 0x2D0B11FF, 0x1FE6F027,
        0x31FC04DF, 0x36DD11F3, 0xE708217F, 0xE7F82546, 0x1A070402, 0x05D0061A,
        0xF3C311E0, 0x15C42000, 0xFAF30E10, 0xDF11FCE5, 0x0000F6C6, 0x1A361F1C,
        0xFBE006E5, 0x2007E6FA, 0x1A28DCF0, 0xCB1701DD, 0xEBECFAEC, 0x0A28FAEE,
        0xF305FE01, 0x0A30F802, 0x010C10E8, 0x1106F6F5, 0xCAF9031F, 0xF5F3FCCC,
        0xE9F3DD0C, 0xECD91AE1, 0xDBE4EF03, 0xCDF9FCF5, 0xE50AE1FC, 0x16021F08,
        0xF209E4E7, 0xD2FFEFF8, 0xF417FD0E, 0xD9F81FED, 0xE20ECBF6, 0xE801EDF7,
        0xEB0D0AEC, 0xF128E1FB, 0xF5010E08, 0x16DB0E06, 0xEA00C8E7, 0xE9F701F7,
        0xDAFA1210, 0x3AE8FEEB, 0xBDDAF5FD, 0x01EEF8FA, 0x02EDF710, 0xD8F7F203,
        0xDF1CF002, 0x05ECF5FB, 0xD1030714, 0xF80FFE13, 0x072CE8F3, 0xEDF4FDFD,
        0xF00FEAEE, 0x1AEDE9FF, 0xCDF3D815, 0x00F00E05, 0x0304F5DF, 0xF3160706,
        0x240AF9EE, 0x11FE00E3, 0x16F6FF08, 0x08130407, 0xED07E3FD, 0xFBEAF6E2,
        0x03F3BDDE, 0xF603DB0C, 0xF915F100, 0x1AF5E90F, 0x0513F006, 0xE4E4F404,
        0x1D0F17F0, 0xF9EC0C25, 0xFCFEFBF9, 0xFADEF7FD, 0x27E8FC04, 0x051BE62E,
        0x0110E314, 0xF61507E2, 0x080B15DF, 0x02E4EAF8, 0xD804F003, 0xDFFBEED0,
        0xE3EDFA14, 0xEB221B09, 0xEE0AE300, 0x050003FC, 0x1018110C, 0x07F9FFFA,
        0x0803F9F0, 0xFA070F11, 0xF6F3FE39, 0xE418F7E6, 0xFE0D1BDC, 0x0D07FC15,
        0xD7EF0900, 0x0DD915C9, 0x04171304, 0xE811ED0E, 0x1809D106, 0x0DD134FF,
        0xECC9F8F7, 0xE7011907, 0xEB0BEC01, 0x0811EE19, 0x1A060E17, 0x02DBA7FB,
        0xCCFFF5FE, 0x04FFF8FA, 0xFCF3E5D6, 0xFBE9B609, 0x05FBF9F3, 0x12D6241D,
        0xE301D903, 0x18DFF60E, 0xFB0D0405, 0x03E4EFFB, 0xF403E10E, 0xF925CAFA,
        0x030EF6F9, 0x0A13F50D, 0xE506EAD5, 0x22E6BAF3, 0xF3070201, 0x111EFE05,
        0x1EF32AEA, 0xF7111FDF, 0x08EAF5FB, 0xF5EC0403, 0x13FFF5CD, 0x18090CDC,
        0xEA0AEBFF, 0x0005F814, 0xE0FF2717, 0xFB0C0BF4, 0x03D90E10, 0x1204FE23,
        0xFF07FDFB, 0x0BFD22F9, 0x13040410, 0x0BEFFFDD, 0x01CDFAE9, 0xDBF324F8,
        0x1EF61AFD, 0x03080517, 0x0BFA0B09, 0x0C20F4FB, 0xF9E4F3E3, 0xCFF30DE6,
        0x06EF08F7, 0xF70A0F06, 0xCCD70009, 0x1712F4FF, 0xE7CCFA12, 0x091D1209,
        0xF30FF8EB, 0xEA081BF3, 0x2CE4E9F5, 0xFA0E0FF1, 0xF7E2F5EC, 0xF20CFAD7,
        0xF6CFEEEC, 0xFA03F2C5, 0x0BCFE911, 0xE0F30402, 0xF4F8FBCA, 0xEDFF06DE,
        0x03E6090D, 0xF8F10211, 0xE6EB0909, 0x2204EBFB, 0x30F0FD26, 0xF2E5D8FB,
        0x0CF3DD02, 0xF808FCF2, 0xEAF128FF, 0x0DF217F1, 0xE20FDDFB, 0x0EE117CB,
        0xE0D4CFEA, 0xE8B6E7F0, 0xF7191812, 0xD9F8F4D8, 0x1007F8EF, 0xE706E911,
        0x140CEC07, 0xDCE2FEFF, 0xF80D0DEB, 0x0D0A1811, 0x0DECF51A, 0xF9FCDA14,
        0x01FAFEF8, 0xE2130DD4, 0x13E80EFD, 0x0EE019FF, 0xCE00ED21, 0xE2FC1AEF,
        0x271A15DD, 0xE6FF0609, 0x08E40904, 0xFABA0EF0, 0x1BEF1DF4, 0xEAFD06D9,
        0xEDFD090F, 0xDDFFFAF2, 0xE4F52601, 0x03DE290F, 0xF000F9FC, 0x0C01D3F3,
        0xE6DDFFFF, 0x0DDF16C9, 0x1EE90EEF, 0xE007BB04, 0xCAF7FDFA, 0xFD07F703,
        0x18F119EB, 0xB4260D2C, 0x1D211BEE, 0xDB13EBF4, 0x0EFA0BFA, 0x08FDE4F0,
        0x02F3EDF7, 0xF61536EF, 0xEC012316, 0xF000F6EE, 0x29E2DBE3, 0x23C0DF15,
        0xFD1C16F5, 0x26161806, 0xFB28250C, 0xE511D7ED, 0x06D5E500, 0x0B02F90E,
        0x0EE331F4, 0x01F7000D, 0xFC2BE700, 0x0D0FFAF5, 0xED0CE2EB, 0x10E9C009,
        0x0C0101E5, 0xF5013CD9, 0xF2DD27F2, 0x0DFA21F2, 0xFEECEADA, 0x12FB1201,
        0x0412E1EF, 0x18D1FBE7, 0xEEFB0BF7, 0xE4010404, 0x020911EA, 0x070102F8,
        0x0A01E4FC, 0xF2DEF8BF, 0xF8060A06, 0x170B0FFC, 0x0510F7DD, 0x1DEAD312,
        0x0AFAD002, 0xFAE53102, 0x25140BEC, 0x09DAE6E9, 0xFDC30BD7, 0xD6FE10E2,
        0x0ADB0316, 0x17E1FE1C, 0xFFEEF2F3, 0xE5F6CAF4, 0xEBDBE6EE, 0xF5EC070E,
        0x00110D0A, 0xECE5F200, 0x1116EFF5, 0x0AF71A07, 0x0C11FBD8, 0x1DF70511,
        0xE013320F, 0xE00221EE, 0xEBF70816, 0xF8FDE727, 0x170D0321, 0xEEE7F219,
        0xE4020FE6, 0x180A1AF5, 0xE5F32628, 0xF402064A, 0x00F8180B, 0xD4FC0420,
        0x190EC0E3, 0x25E5FBF2, 0xFF040F45, 0xD5062265, 0x1200E3F5, 0xCAF40E0D,
        0xF613200D, 0xEC0AFDF3, 0x231DCA1C, 0x0EF0EC46, 0xF726182B, 0xD4E0ECF4,
        0xDD07F8EA, 0x113CFC1E, 0x1101E622, 0x09EEFC51, 0x09EA340C, 0xC0E4DB11,
        0x1DF8C9F4, 0x1001F6FA, 0x22FB0916, 0xC20E0669, 0x17FB1411, 0xECF0FC1D,
        0xD42809F8, 0xFD1203D9, 0x2221D50B, 0xEBEFE433, 0xEC08361E, 0xE4CED81B,
        0xC228DBE0, 0xF507150A, 0x2B08D50C, 0x17F8F835, 0x07F23601, 0xCCF8ED40,
        0x0711F016, 0x1A02F20D, 0x2F000B0C, 0xD90BFB30, 0x230014FD, 0xECEF0B39,
        0x0ECE09FF, 0xF8F6FC11, 0x1022F8FA, 0xEFFBF611, 0x03D6C9EE, 0xE5E712EC,
        0xBDE3F2FA, 0xEEDEF814, 0x07E30B01, 0x06FF1D15, 0x16E7E6E0, 0x280320FD,
        0x0D0601FA, 0xF41CE20B, 0xF103EEE6, 0x000B00D7, 0xEED30124, 0xE914D602,
        0xFE0C2325, 0x1A0E10E0, 0x1CF2E8EE, 0x080EF102, 0x0AE0F805, 0x05F8EEDD,
        0xE0ECF7FC, 0x0403F9DB, 0x281CFEFA, 0xF5050F0D, 0x0CD113E1, 0x05F5FAE9,
        0xFCEA1AF4, 0x12D806F9, 0x0AEEEBF6, 0xEE0710E4, 0xDFF71910, 0xF30DDA0B,
        0xF5081211, 0x21EF031F, 0xF2F30505, 0x2D030C10, 0xEE30E5F5, 0x1308EFFA,
        0x04DFFCCB, 0x0114FBF6, 0x1FE5F70E, 0x27DB07FB, 0x011EFFED, 0xF402F321,
        0xF9060716, 0x02D1FBE3, 0x1B2E17FD, 0xBAECEDE8, 0xEE17081F, 0x18DD27FD,
        0xF3CDB9F8, 0x09E8DEE6, 0xF0EC1101, 0x11EA0F3A, 0xC4F0FFFF, 0xFD0915D8,
        0x0412F3F2, 0xC014D708, 0x0AEF0302, 0x31FFF917, 0xD91AE7F5, 0xF4E813DE,
        0xF5EF0501, 0xE620F51B, 0xF51EF014, 0x250A0621, 0xF211D210, 0x110F1DED,
        0xFEDFE705, 0x1FEDCDEA, 0xF41022FE, 0x1801171B, 0xD912F1FC, 0xE710D807,
        0x16F50E10, 0xDB06E316, 0xFE0ACCF3, 0x012AEEFF, 0xF5F8DEFC, 0x1EF501E0,
        0x01FF2024, 0xFD01F607, 0x0DE6E6F3, 0x0F1B0A01, 0x07F8DBFD, 0x2006FA03,
        0x09F4F025, 0x1AF3EE09, 0xFA2624CF, 0x0F032B10, 0x0DEB061E, 0xFCFA0DF5,
        0x1D040701, 0x08020405, 0xE318DF0A, 0x0DE7070C, 0x16F5F100, 0xEBE3020A,
        0x1309FB1F, 0x0DFD0AFD, 0x04D3F20C, 0x15F10EEC, 0x05FDFD08, 0xEFF80819,
        0x0303FDE3, 0xFEFFD6FF, 0x2A0536FD, 0xF7FEF703, 0xF10706FF, 0x0D37141D,
        0x18F50D0A, 0xEC130703, 0x0C1D14FD, 0xFDF8ED25, 0xEC09FBF6, 0xF9EE141D,
        0x16E5FBD4, 0x08080722, 0xFBEEFCF4, 0x06C8FD02, 0x00DAE1DC, 0xE8FE1EF0,
        0xFEEEC8F8, 0x15FAEA03, 0x0701E8FA, 0xFBDE0A11, 0xF1061C18, 0x0212F7D2,
        0x0F08F311, 0xFE080DF5, 0x0409E6F2, 0xEDD30704, 0xFDE80AEF, 0xF7F02E0F,
        0xF3F3FAF8, 0x0811EA0D, 0xFBF81606, 0x02D909D5, 0xBED7FCFD, 0xF305FCD0,
        0xEF14EEDF, 0x200E30F8, 0xBE07F0D6, 0x0AE0FE23, 0xF2E8FC0C, 0x10D3DED5,
        0x180B1634, 0xF9021017, 0xD5D2E1E4, 0x00E4070F, 0xE2E0F9E8, 0x0DF6ECF2,
        0xFE0B080E, 0xD723D0F3, 0xF9D5FCDA, 0x16FF0FEC, 0xEFB32CFC, 0x1909FACD,
        0xD4D31AE8, 0x0EE2F20D, 0xED00EBDF, 0x0E1BFD08, 0x10010FB4, 0xE7FBFC1B,
        0x2AFB050A, 0xF40DC914, 0xF0EEFD1A, 0x161C0AEF, 0xF902081E, 0x00F90605,
        0x06E5C913, 0xF8F0E520, 0x1BE2010F, 0xE51D08F3, 0xFBEBF00D, 0x16100B05,
        0x06E701B8, 0xEFF4E30F, 0x1EF609F1, 0x22EE0503, 0xEBE604D9, 0xFA110A04,
        0x17031C01, 0xFA07EAD7, 0x1AFC062A, 0x0DD81A12, 0xFFD6EA16, 0xFAF711F6,
        0xFB12F602, 0xFBF82EF6, 0xFAFF1B08, 0xDBCD0BFF, 0x0DD4002C, 0x0A00E4F3,
        0x38CD0EEF, 0x0804E61C, 0xFC08DEFB, 0x25FB18ED, 0xFFF513D0, 0xE80310FB,
        0x31DCFF1D, 0x071EE7C6, 0x1804F60F, 0x0A101507, 0x240405FA, 0xF8E607FF,
        0xF726130F, 0x190800E5, 0xED2C1A11, 0xE51603EF, 0x03FBF21A, 0x01EDF516,
        0x040CDE01, 0xD905F6DF, 0x151EF2FF, 0xE60DFFF1, 0x18F602F2, 0x09ECFCFD,
        0xDBECEE0C, 0x18E50522, 0xF71B0EE2, 0x1A04EF11, 0x030F0D10, 0xF3010B0D,
        0x041D4700, 0xEAF5F802, 0x0C06F1D3, 0x08EEFE0E, 0xEBFEEFE7, 0xFC0EF525,
        0xF00B1A1B, 0xF5000AD4, 0xF3DC03E5, 0x0AE024F6, 0xE6F50D19, 0xFF1915F9,
        0xFAE2D7D4, 0xF5210BF4, 0xDC05EEEB, 0xF5DE2612, 0x03050311, 0xFEFDCAF3,
        0xE20ADFF9, 0x01DFFEF2, 0xF407E722, 0x1B0D040B, 0xE1EF02E8, 0x0CF81C08,
        0xE3090F1D, 0x0AE421DB, 0x00210603, 0x05E8DEF4, 0xDB0610F5, 0xE91D01DE,
        0xF1D41105, 0xF105F722, 0x01F51FF3, 0xE9100313, 0xDDF30C18, 0x0CE4E513,
        0xE0F8EE02, 0x04070BFE, 0xFCF6EAE3, 0xEE05F1EF, 0xE6F8F2EC, 0x03FA090B,
        0x0FF01015, 0xDC0A0908, 0x010D01F9, 0xF50ADCF4, 0xE9FA161E, 0xEEE7E2E7,
        0x0FE5FBBC, 0xF009E4EF, 0x06020EF5, 0xE9F514F4, 0xEEDF19EF, 0x08F91AEF,
        0x0AF5DF13, 0x01F5001F, 0xE8250C04, 0xF7ECFFEC, 0x23F222DE, 0xF7ECFF05,
        0xD7E6FC3F, 0xE5DEF7EF, 0x1C0BE600, 0x12E6BB02, 0xEF01F813, 0xE9E9DB1D,
        0xF309F5E2, 0xB90FE8F6, 0x0AE204FC, 0x0E07EB08, 0xF3F0FFE4, 0xFCFEFFFC,
        0x060CFF09, 0xE30E08FC, 0xF4FF06FB, 0xE71EF2FB, 0x1C12D30D, 0xB8FA17E6,
        0xFDEEE2F4, 0xE2190E13, 0x20FD380D, 0x06101B00, 0xD2EE1226, 0x05F2080E,
        0xF2F9EBCB, 0xEBFD19E6, 0x03E41010, 0x12FE05F5, 0x16F8E9E3, 0xDCF90B0E,
        0x17EA04F8, 0xFA181AEF, 0xF0F2F214, 0xF0E91100, 0x05EED609, 0xF3F4F90D,
        0x0AE1FADC, 0xCA2A28D9, 0xE9ED1BF5, 0x2601C611, 0xED2F0F15, 0xDEFAE801,
        0xFE03FCF8, 0x0BF01BE0, 0x1CF81DEE, 0x03EAEE07, 0x040F05F6, 0xC707F803,
        0x0B26F308, 0x0BEF04F1, 0x180416FF, 0xFD0602FD, 0x1BFB09FB, 0xEC3A0FD7,
        0xF50BF3EA, 0xCC1E07E9, 0x0118E422, 0x0DE21A09, 0xE4F7FB0C, 0xFC080809,
        0xE0EDEDF6, 0x0FFBE5FA, 0x14040D09, 0xCC20F204, 0xFB25E503, 0xFE0A0A0A,
        0xEB2AE0E4, 0x0CE7D2D4, 0xF1FDD401, 0xE81BEBF2, 0xFDECD3E0, 0x100101DC,
        0x060B00E1, 0xE9FA171B, 0x30E4EEF3, 0xFF19FEFC, 0xF8ED3001, 0x17DBD81F,
        0xC815DDFB, 0x05E00D0E, 0xFBEC140A, 0xF004E1E6, 0xE9FF07F6, 0x0FFDF731,
        0xF82DF40E, 0x21FED712, 0xD10626DD, 0xF305F4FB, 0xFDE3F904, 0x1DDBF0EB,
        0xFC1412F5, 0xE51CF102, 0xF10DFBF9, 0x1707ED16, 0xE61FFB0F, 0xD5FBF306,
        0xE2F7F8FB, 0x0407D31C, 0x08D50C0C, 0x10E5C119, 0x0818F302, 0xD4DF04ED,
        0xE9EEFEFF, 0x0913CB02, 0xFBF5F515, 0xD9D4F116, 0x0706E0DE, 0xF1E81413,
        0xFB0F08FD, 0xE0F5FAE1, 0x0102FAFC, 0x08EDF81A, 0xD40A0EFD, 0xC5E3D314,
        0xEDECE9F8, 0x03F0F20E, 0x14DB2A03, 0x09D8C0FB, 0x1616020A, 0xE7F9EC0D,
        0xE307FD15, 0x11FFEDFA, 0x0A0215F1, 0xE52BD60F, 0x130DEB04, 0xFAD70F01,
        0x0032140D, 0x031402BF, 0x3A23FDF3, 0xF10BFFF2, 0xE1EA0CEE, 0xE9F3F0FA,
        0xFF0DFAF4, 0x04F9E3F3, 0x1E1020E0, 0xFAF1E8D5, 0xF8C2FCEE, 0x1011E60E,
        0xF0F1E620, 0x11FBD0F5, 0x04BDFBE6, 0x1024E9E9, 0xFEE4EDF4, 0x2DF0FC0C,
        0xEBDCF401, 0xF4F7EFF5, 0x011C00DD, 0xF8F0FF08, 0x14F0F3EF, 0xEE00E5FA,
        0x0306EA05, 0x1215F6F8, 0x09FC0102, 0x18F10707, 0xF6E8EB08, 0xED01F409,
        0xD9D003F2, 0xF3F00301, 0x0BCDF8F3, 0x00E10020, 0xEDDDE500, 0x07F8F701,
        0xE6C8D803, 0xF7FD0305, 0xFAF829FB, 0xE8060203, 0x1117E3F5, 0xF9F9E004,
        0x0F01F820, 0x0CD21B02, 0xFC0411FE, 0xF400D900, 0x1E0BF90D, 0xEE10E5FB,
        0x09EC07D5, 0x070806F8, 0x00D40204, 0x010107FF, 0x0D2008DE, 0x1DE7FDE8,
        0xE1E504F4, 0xF7FE2507, 0xE006A322, 0x071C0D04, 0x1007091C, 0x09050B28,
        0xD72BF8F3, 0xE2F308F3, 0x2938FF04, 0x2002D0F5, 0xEDEC2400, 0x002AF82A,
        0x290E1A09, 0xF8D2DF1E, 0x22FDECEF, 0xDDFCD809, 0x010B1CE0, 0x0C090B12
    };

    static constexpr float conv2_bias_data[24] = {
        -0.0162470806f, -0.0985397473f, 0.0741889179f, -0.0733508617f,
        -0.0431421027f, -0.00526549108f, -0.037885651f, -0.0220177323f,
        -0.0943515375f, 0.0377149247f, -0.048845835f, 0.0293169748f,
        0.070957467f, 0.062999405f, -0.0152040618f, -0.0132467197f,
        -0.0419382975f, 0.0555147193f, 0.0605028458f, 0.0568318367f,
        -0.106190957f, 0.0499889404f, -0.108185351f, 0.0558858588f
    };

    //////////////////////
    //   batchnorm2: BatchNorm2d
    //////////////////////

    static constexpr float batchnorm2_scale_data[24] = {
        0.899873078f, 0.927186191f, 1.13384271f, 0.789743543f,
        0.893749237f, 1.14870691f, 0.733416855f, 0.97265166f,
        0.768847823f, 1.24138117f, 0.827515543f, 1.04620838f,
        1.02837229f, 1.4328469f, 0.789308608f, 0.745668292f,
        0.935669184f, 0.799869239f, 0.781480253f, 0.626953781f,
        1.04325914f, 0.991494775f, 1.03628421f, 1.07119489f
    };

    static constexpr float batchnorm2_shift_data[24] = {
        0.596333802f, 1.06922674f, 0.430060297f, 0.607578754f,
        0.329116851f, 0.598082304f, 0.290335596f, 0.667481899f,
        -0.366220385f, -0.39826268f, -0.116811797f, -0.702848673f,
        0.337326735f, 0.578254819f, 0.463044435f, -0.986737669f,
        0.735673785f, 1.02157879f, 0.724444449f, 0.344505906f,
        0.27422595f, 0.70042634f, 0.376214683f, -0.143101156f
    };

    //////////////////////
    //   conv3: Conv2d
    //////////////////////

    static constexpr float conv3_kernel_weight_scale = 0.00371428323;

    static constexpr uint32_t conv3_kernel_weight_data[768] = {
        0xF6EACF1B, 0xD5ED0000,
        0x0CCEDFE5, 0xF31B0000,
        0xF9FE05FF, 0x2DE20000,
        0x0FF7F520, 0x33070000,
        0xE41C1509, 0xCFF60000,
        0xC905EB10, 0x0CFE0000,
        0xCCF0DB23, 0x1BEA0000,
        0x0FF4E70F, 0x44050000,
        0x2BF32511, 0x0E020000,
        0xE8151A05, 0x15F70000,
        0xF8E201F2, 0xF6DF0000,
        0x22ED1810, 0x15FD0000,
        0x00D1D4D8, 0x49040000,
        0xCB300418, 0xEA100000,
        0x39190E0B, 0xE1030000,
        0x1542FF3F, 0xB0CF0000,
        0x260CEF03, 0xF2BB0000,
        0xE9F50ABD, 0x06A50000,
        0x9BFF22C7, 0xE7ED0000,
        0xBA06F5E4, 0xD6F10000,
        0x0E0ED810, 0x1F150000,
        0xF70611F4, 0x16280000,
        0x4DFD33F7, 0xE4160000,
        0xDE0F0EE1, 0x180E0000,
        0xF9E4FFF4, 0xFD080000,
        0xDAE40DE5, 0x0D120000,
        0x12FE22F0, 0xFC140000,
        0xFA04EBC2, 0x0AFA0000,
        0xB7DF3FD9, 0xCEAD0000,
        0xDDD40D03, 0x2E290000,
        0x08FE0531, 0x56140000,
        0x2BDFF8F9, 0x15290000,
        0x52C8E707, 0xE11F0000,
        0x18E4C8E7, 0x02400000,
        0x1B181ED8, 0x35C50000,
        0x4925FECA, 0x57600000,
        0xDCE7F3DC, 0xF4EA0000,
        0xEBEFD3E1, 0x06E90000,
        0xF613FF18, 0x0C070000,
        0x0307F8EC, 0x12CF0000,
        0xC40FE0EE, 0xF6F80000,
        0xFB11BDD1, 0x01F70000,
        0xFDFD2DEE, 0xFBD20000,
        0xEF1E04F2, 0xF7F10000,
        0xE6EBD50B, 0xDFFF0000,
        0x1BFDE627, 0xECFC0000,
        0x11024B05, 0xE60A0000,
        0x391DFCE5, 0xCE0E0000,
        0xAEF7D726, 0x17E40000,
        0xE0FFCF19, 0x1DF00000,
        0xDFF0E4FA, 0xE6E80000,
        0x193FDEE8, 0xB0EF0000,
        0xDF28F606, 0x161E0000,
        0xF115ED19, 0x150F0000,
        0xFE17151E, 0xF9170000,
        0xF4150F18, 0xDC1C0000,
        0x03FCFCC7, 0x132F0000,
        0xFBFC010D, 0x32FB0000,
        0xF1162106, 0xF9190000,
        0x1A0922F1, 0xED000000,
        0xEBE50088, 0x34310000,
        0xD9E6E919, 0x26F00000,
        0x112C190B, 0xE90C0000,
        0x0C60160D, 0xD23E0000,
        0x10FE1D1C, 0xEB0F0000,
        0x93F5F631, 0x2BCB0000,
        0xDEE6DEEE, 0x0A160000,
        0xD0EF16FC, 0xDDFB0000,
        0x160BD2F7, 0xFAEF0000,
        0xBB26D909, 0x13E30000,
        0x1710F9FC, 0x33080000,
        0xE6232212, 0xEBF20000,
        0x1CEA1DE4, 0xF9F30000,
        0xC809F8ED, 0x1A010000,
        0x110F09F6, 0x0B220000,
        0xF9201E0C, 0xE9020000,
        0x161719F0, 0xC4FE0000,
        0xE54607FF, 0x43040000,
        0x1A180C05, 0xFA2D0000,
        0x030057D7, 0x13070000,
        0x4C0CD95A, 0xD5E60000,
        0x14E1DE19, 0x04EA0000,
        0x180204FB, 0x294E0000,
        0xE3D23BB8, 0xFD3A0000,
        0xE1EBD2FC, 0xFAFC0000,
        0xF80DD505, 0x29D30000,
        0xFA090508, 0x05040000,
        0x141215EE, 0xD8D90000,
        0x042CF4FB, 0xE00E0000,
        0x1508FFFD, 0xFAEC0000,
        0x0F120AFD, 0x1BEA0000,
        0xF7F8D4EF, 0xF4E30000,
        0x08D013FD, 0x15260000,
        0xE2E53DF7, 0x0A170000,
        0xF346D8EC, 0x21E70000,
        0xF246B5E9, 0xD9B20000,
        0x17E19B0A, 0xFB4B0000,
        0xE7FDC1F0, 0xFDE00000,
        0xF608D604, 0x38080000,
        0xCFE7D3D6, 0xF6FD0000,
        0xBF14D53E, 0xD3130000,
        0xE912FF00, 0xD5040000,
        0x05FD03FD, 0x0AF00000,
        0x06181104, 0x0BD20000,
        0x17F8FE3F, 0x021B0000,
        0xCFE5ED2A, 0x00F10000,
        0x0B001017, 0xFFEC0000,
        0xF213271B, 0xEE0F0000,
        0x0015141A, 0x0AEE0000,
        0xC0EE05D5, 0x41DC0000,
        0xD10DFC19, 0xFFEF0000,
        0xDA172E04, 0xEC1A0000,
        0x2BC233B3, 0xCC2A0000,
        0x34F130E2, 0xC5130000,
        0x2120D7F3, 0xE4ED0000,
        0x33F4E51C, 0x0EF20000,
        0xE9C7FC27, 0x05130000,
        0xF5333702, 0x0B090000,
        0xF2EAFEDD, 0x02170000,
        0xDEECFB05, 0xF9EB0000,
        0xFDFC07F6, 0xF0FC0000,
        0x1D2612C5, 0x030D0000,
        0x35F8E0F5, 0x010E0000,
        0xCF060008, 0x0CFE0000,
        0xE8E2E1E0, 0x03000000,
        0xB7B1F035, 0x032A0000,
        0xCFF0B944, 0xEA130000,
        0xF216D90E, 0x041C0000,
        0xE1FC3430, 0xF10B0000,
        0x25072DFF, 0xEBF90000,
        0xF50202FD, 0xF8F40000,
        0xFD0EA8DC, 0x4AE60000,
        0x01FBFD16, 0xEC2E0000,
        0x26161902, 0xF51A0000,
        0x06FE3FF9, 0xEF170000,
        0x26FC1DC0, 0xFB330000,
        0xF4F2FB2B, 0x04300000,
        0x01051FFF, 0xF80C0000,
        0x110A2006, 0xF2FE0000,
        0x24CC0CFB, 0x0C310000,
        0x2525FB21, 0xE61F0000,
        0x0912EF1B, 0xEFC70000,
        0x03FB18BA, 0xDEE20000,
        0x1DD7E4A1, 0x2AD70000,
        0x4A130AD6, 0xDCEF0000,
        0xFBFEF3E3, 0xB3F80000,
        0xF9E3D5FA, 0x08DC0000,
        0xF5DCFDED, 0x38D20000,
        0x2EEC162D, 0x08240000,
        0x0DF80806, 0x0FEE0000,
        0x19D9F0D7, 0x03060000,
        0xD7D9FCE9, 0x28F20000,
        0x00EAEC10, 0xD81B0000,
        0x210417F8, 0x0C0B0000,
        0xF4FAE3E3, 0xEBF90000,
        0xDEE4E4CB, 0x01F90000,
        0x2023CB2A, 0xC1520000,
        0x000923F2, 0xE5280000,
        0x101FF5F4, 0xF12F0000,
        0xE8CF02A3, 0x05E10000,
        0xDBD9F6BD, 0xEEEE0000,
        0xDADFE8F8, 0xFD170000,
        0x33FABEEF, 0xF4000000,
        0x1D08C50F, 0xF6030000,
        0xE302D7D6, 0xE7CD0000,
        0xECF4FE09, 0xC9EF0000,
        0x26E6FBFD, 0xFEE10000,
        0x03C7F0EE, 0x0FE00000,
        0xF1240424, 0x0D010000,
        0xF6FC14D7, 0xE1080000,
        0xF20A071F, 0xF1000000,
        0x35CDF3ED, 0xFE060000,
        0xEB132128, 0x33080000,
        0xF30C0CAD, 0x04FF0000,
        0xD80118DD, 0x19020000,
        0x1FD5FEE4, 0xFDD90000,
        0x4A25D7F9, 0xEA170000,
        0x3049E215, 0xF4010000,
        0xDD1AED13, 0xE51F0000,
        0xFEF4FCF0, 0x1E090000,
        0x3B29DB0F, 0x0E200000,
        0x1CF8E11B, 0x1E080000,
        0xF91CD001, 0x2CDC0000,
        0x020CDCDB, 0xF2220000,
        0x50FCEC32, 0x26FD0000,
        0x07E1E712, 0x1F070000,
        0xE7F8DAE7, 0x3CFC0000,
        0xDBF4CCD8, 0xDD4B0000,
        0x2ECF183D, 0x15DF0000,
        0xE21AF70E, 0x03D40000,
        0xCC081ED1, 0x1B0F0000,
        0xE1DDE2DC, 0xCE630000,
        0xBED6D00F, 0x10090000,
        0x19B5C8DC, 0x28ED0000,
        0x030FF9D5, 0x09320000,
        0x110909E1, 0xEFF90000,
        0xFDF927E5, 0x11FE0000,
        0xF9EA04FC, 0xEFD30000,
        0x06F51E25, 0xF7040000,
        0x000106E3, 0xE7CE0000,
        0x130C0CEF, 0x03F70000,
        0x11EF05FD, 0x06030000,
        0x050C2806, 0x0CEF0000,
        0xF1F6DDF1, 0xE9C20000,
        0xDA05C1D2, 0x1D220000,
        0xF827B63E, 0x11260000,
        0xC14DF32E, 0xC9030000,
        0xF6420AD3, 0xC3F60000,
        0x2001DCFC, 0x53340000,
        0x283C23F0, 0x05200000,
        0x1AE6292F, 0x045A0000,
        0x39C42528, 0x350E0000,
        0xF5F20321, 0x45010000,
        0x08FCF0DB, 0x20DA0000,
        0xFC080EEB, 0xE3F30000,
        0x23DF1FDA, 0xDFD90000,
        0x1E25F720, 0x0A060000,
        0x03EAE1F7, 0x03F60000,
        0xF3E70704, 0xEB020000,
        0x0FFB2F01, 0xEADF0000,
        0x1A1630D9, 0x34F50000,
        0x0DEEFD17, 0xD7CF0000,
        0xECE4F009, 0xE0040000,
        0xE6DB0ED8, 0xEC1A0000,
        0xD3E91A2C, 0x36BE0000,
        0x0712E124, 0x17F40000,
        0x0DDFFF2E, 0xE8BD0000,
        0x0311040A, 0xB20C0000,
        0x18350006, 0x1DD80000,
        0xDC27F01A, 0x0D040000,
        0x03EA1F22, 0x1FF00000,
        0x02042C03, 0xC4030000,
        0x34E3F1E1, 0x14010000,
        0xD011EA04, 0xE0FC0000,
        0xEC070CF8, 0x10270000,
        0xDE2B1BD4, 0xEFEF0000,
        0xDEDDE9B6, 0x01110000,
        0xCEECE922, 0xE7FF0000,
        0xE7211B03, 0xFC360000,
        0x0B2746E5, 0xD4E90000,
        0x3637E100, 0xD4D80000,
        0xF628E11E, 0xB8070000,
        0x0617CA2B, 0xCF030000,
        0x0509D024, 0xC7660000,
        0x1E2CFEFF, 0xEBBE0000,
        0x2CF4EB14, 0xD0F90000,
        0xFAFCBF21, 0xFC120000,
        0xF9EEB41D, 0xD5610000,
        0xF4FBF916, 0xF5C70000,
        0x00F41307, 0xD2F00000,
        0xDF22D7E4, 0xD9FF0000,
        0x18F1C20B, 0xE5650000,
        0xF3FAFA53, 0xD7E20000,
        0xD92D190F, 0x0AFF0000,
        0xF32C2CD5, 0x13DD0000,
        0x1106DDFD, 0x000A0000,
        0xDC2627F3, 0xB5DA0000,
        0xC1ECCE3A, 0x23C80000,
        0xE027CF2B, 0x1F150000,
        0x22292813, 0xBB280000,
        0xB131070C, 0x0BDA0000,
        0xDB38FB05, 0x211D0000,
        0xEF1AF312, 0x03F10000,
        0x0923F81A, 0x16240000,
        0xF20617C9, 0x04FD0000,
        0xF3F33FE1, 0x171C0000,
        0x25E53412, 0x131B0000,
        0xF3E5DAF3, 0xD21D0000,
        0x14042BF8, 0xEB120000,
        0x010F3407, 0xF52A0000,
        0x15DEEDF5, 0x10170000,
        0x09F0EEFA, 0xED120000,
        0x05F82503, 0x02E40000,
        0xDECBF9D2, 0xEF030000,
        0x63FB020F, 0xD7E90000,
        0x203EC5FB, 0xF5DD0000,
        0x1610D80A, 0x320C0000,
        0xF8AF0CD1, 0xE4050000,
        0x1DD923F1, 0xD7360000,
        0xF52FF9E6, 0xF1010000,
        0x2210E3FD, 0x0AF70000,
        0x23DA07F2, 0xE1FD0000,
        0x19160B10, 0xFA000000,
        0x192F0B1B, 0x1BE60000,
        0x2036DB22, 0x8FE20000,
        0x300FF635, 0xB72D0000,
        0xF0F72F2B, 0xF6090000,
        0xCD040F2C, 0x4DBA0000,
        0x48E0721A, 0x0B1A0000,
        0x26E77442, 0xFFF90000,
        0x2515F7F3, 0xFF150000,
        0x243B18F8, 0xFAFE0000,
        0x29DCE129, 0x11140000,
        0xE32B1C09, 0x04FF0000,
        0xBB2DDCFF, 0x1CF00000,
        0x010920DE, 0x1E030000,
        0xF6DCDB11, 0xFBFE0000,
        0xECFE1710, 0xF9DF0000,
        0xFB2FF2E6, 0x2ECE0000,
        0x09F70EBE, 0x070C0000,
        0x1803F124, 0xE6EA0000,
        0xE90E22EC, 0xFDD00000,
        0x1845FCFA, 0x58F00000,
        0x132B0FF3, 0x32DD0000,
        0xDD0DC626, 0xE1100000,
        0xC0F28913, 0x26EC0000,
        0x1128E90F, 0x03B00000,
        0xDF292BBB, 0xD8150000,
        0xA63703FD, 0xFFD70000,
        0xCAEDCA0A, 0x10E90000,
        0xFFEA0A02, 0x0EC70000,
        0xEB3633FD, 0xE2D20000,
        0xF71B07FF, 0xF7E90000,
        0x09C6F0D4, 0x39DD0000,
        0xF9E51204, 0x1FD40000,
        0xF222140A, 0xE4EC0000,
        0xDBE51F0F, 0x23340000,
        0xF1CDC9BA, 0x3B040000,
        0x0BFFE8F8, 0x371E0000,
        0xE26518EE, 0xEF080000,
        0x1319EEE3, 0xE9320000,
        0x180BD0FE, 0x191E0000,
        0xFB57E65B, 0x13FC0000,
        0x49FBBE0B, 0x540B0000,
        0xDBFE0BFF, 0xF0FE0000,
        0x1125EDF3, 0x20FD0000,
        0xF826F40A, 0xF71E0000,
        0x3301ED08, 0x21140000,
        0xFCF9F6D7, 0xEE310000,
        0x15FEF1ED, 0x09DE0000,
        0x15DE3913, 0x2B0A0000,
        0x3344ED43, 0x100F0000,
        0x1EF2EEA9, 0x2B130000,
        0x40190C22, 0x09EB0000,
        0x39EC2AF3, 0x12E20000,
        0x1F54CDFB, 0x0DF90000,
        0x49290123, 0xD8430000,
        0x153B0A1D, 0xA3580000,
        0xEBD3163B, 0xFA230000,
        0xF7CF0213, 0x32030000,
        0xF3EA1637, 0xCEEF0000,
        0xE81820FA, 0xFEE90000,
        0x2B0EF8DF, 0xFE0B0000,
        0xEFF1C91E, 0x2A140000,
        0x1EEF0733, 0xEAF30000,
        0xFA0A0D0B, 0xF1EF0000,
        0x08FEF5FE, 0x2AEC0000,
        0x02EFC6E1, 0x301A0000,
        0x0F080217, 0xDA1D0000,
        0xF60A0B2B, 0x04E60000,
        0xBCEEFC01, 0x12DB0000,
        0xC8F0EBFE, 0xF5050000,
        0xE843F009, 0x06390000,
        0xE917DE32, 0xD0170000,
        0x0DF11910, 0xE0F10000,
        0x0FF4ED12, 0x06EC0000,
        0x04F7262C, 0xC9420000,
        0x2904111A, 0xE0100000,
        0xFA014E11, 0xE8090000,
        0xEA0C2B15, 0x02100000,
        0xF2422DDC, 0xF34A0000,
        0xFDE703FE, 0x0C020000,
        0x29033137, 0x0CF40000,
        0xE3DB0CE4, 0x0F120000,
        0xFB0AD9FF, 0xFC7F0000,
        0xBA1CBDDC, 0xED270000,
        0xF401F0F3, 0xFD010000,
        0x1ABCFFDB, 0xE2120000,
        0xF5CD4018, 0x1B120000,
        0xC18D1A41, 0x2EFB0000,
        0x13E81D1A, 0x0F120000,
        0xFFFF24F3, 0xCD480000,
        0xCA190423, 0x13D20000,
        0xCED7FD22, 0x0FFE0000,
        0x00FEDFEB, 0x17010000,
        0x19FFF9FE, 0xEA1B0000,
        0x0B23FDF7, 0xE4EA0000,
        0xDEF1FD05, 0xF7F70000,
        0xC3010AD3, 0x04FB0000,
        0x08F0E3F3, 0xEAFE0000,
        0x0366EEEB, 0x02000000,
        0xEB300ECF, 0xE9CC0000,
        0xF9FF0BBB, 0x03F30000,
        0x1AD7EDFA, 0x12EB0000
    };

    static constexpr float conv3_bias_data[6] = {
        -0.0188635252f, -0.0209120624f, -0.0134752933f, 0.00661048386f,
        0.0114575448f, 0.0429444499f
    };

    //////////////////////
    //   batchnorm3: BatchNorm2d
    //////////////////////

    static constexpr float batchnorm3_scale_data[6] = {
        0.780962288f, 0.756485403f, 0.844501317f, 0.801392257f,
        1.00327432f, 0.79019618f
    };

    static constexpr float batchnorm3_shift_data[6] = {
        0.754948616f, -0.780219018f, 0.727943301f, 0.366361856f,
        0.131133929f, -0.471700698f
    };

    //////////////////////
    //   fc1: Linear
    //////////////////////

    static constexpr float fc1_weight_scale = 0.0102951601;

    static constexpr uint32_t fc1_weight_data[1152] = {
        0xF601040C, 0x04E205ED, 0x05F70000,
        0x150309EE, 0x06F4F0F0, 0x0DFB0000,
        0xF9F2EE00, 0xF90A01FB, 0x08F60000,
        0x04E60EF4, 0xF20A0204, 0xEAF60000,
        0x05ED0F0E, 0xCE0D09F4, 0xE1FD0000,
        0x04D40C04, 0xC41B00F5, 0xFFF70000,
        0x05C0EDF0, 0xF02C0ADB, 0x0C090000,
        0x1381F8D4, 0xFE17FCF5, 0x0D170000,
        0xF3FB0B01, 0x0DE4FC01, 0x03FF0000,
        0x0805F8F5, 0x0BFCE407, 0x05030000,
        0xFBFAF9E3, 0xF003FF0B, 0xFCFD0000,
        0x0BEA06D6, 0x02FFFE07, 0xF2010000,
        0x03F810F3, 0xF704FF05, 0xFBFF0000,
        0x08F1FFF6, 0xEE0504FA, 0xFCFE0000,
        0x01EAF9DE, 0xF70E0DF8, 0xFE070000,
        0x0EAEEDD5, 0x0309F2F8, 0x03140000,
        0xF5F8FE01, 0x0DF3F51A, 0xFBF90000,
        0xE203DD05, 0xF600E60D, 0x040E0000,
        0xFC01FCEA, 0xD808F508, 0xF9090000,
        0x10FEEDD7, 0xF8040008, 0xF5050000,
        0x05E606FC, 0x0705F508, 0xFCFC0000,
        0x08F6FDF4, 0xEC010801, 0x00FF0000,
        0xFCFBFADF, 0xF30813F9, 0xF8FF0000,
        0x11D3B7E2, 0xE90FF802, 0x09060000,
        0xF5F4F502, 0x0302FB0D, 0xF5090000,
        0xE4F4E50B, 0xE704E609, 0xEE0D0000,
        0xF8FDF904, 0xD507D90A, 0xF00B0000,
        0x0DEC04D9, 0xF405EF09, 0xEA090000,
        0x08E10AF0, 0xE802FD08, 0xEE030000,
        0x01F900EE, 0xF301020C, 0xF5FF0000,
        0x04F7E4D2, 0x050D0A02, 0xFCFD0000,
        0xF7EBF8C4, 0xE318F60C, 0xFDF30000,
        0xFDFBE000, 0xFC06F30E, 0xEA090000,
        0xF2F7E5FF, 0xE804E50B, 0xEE090000,
        0x0307D9FD, 0xDD02CB0A, 0xEC080000,
        0xF9EBFCF2, 0xED02F309, 0xFA0B0000,
        0xFDE710FB, 0xDF09EE0C, 0xF5060000,
        0x0709F9F7, 0xF80AFA0D, 0xF8F90000,
        0xF9F9FCE6, 0xFF1200FE, 0xF7FF0000,
        0xEEE2EDDE, 0xD816F305, 0x05F60000,
        0x02F9E702, 0xFEFC030C, 0xE70B0000,
        0xEBFFE2F8, 0x0900FC07, 0xE70C0000,
        0xF6FBE200, 0xCD04EE0A, 0xEE0D0000,
        0x00DFF500, 0xEB0EEE08, 0xF6080000,
        0xFFD006FA, 0xEF0FF90A, 0xFC000000,
        0xF6EBFF0F, 0xF313F20D, 0xF9EB0000,
        0xF7F7EC0D, 0x0509FD0C, 0xF6F60000,
        0xE7FBF4FA, 0xD40ED613, 0x09FE0000,
        0xFFF4FE00, 0x03F7FB0E, 0xED0F0000,
        0xF2FBDEFD, 0xEFFDED08, 0xFC0F0000,
        0xF6EEDCF4, 0xD30EDF0B, 0x05130000,
        0xF8E5F4D9, 0xF512EE08, 0xF1110000,
        0xF0BF04F7, 0xF918EC08, 0x04040000,
        0xFBE60903, 0xF80CF105, 0x0A030000,
        0xEAF400F9, 0x04080D08, 0xF6030000,
        0xE3EFE0FF, 0xEF1CF512, 0x08F70000,
        0xFDEBE805, 0x00EFFD12, 0xF40E0000,
        0xF3F5F3F7, 0xFAFDF112, 0x07130000,
        0xF0F2FBEC, 0xD80BF006, 0x031A0000,
        0x0BBFF7D5, 0xE611FE0D, 0xF9180000,
        0x00DA0300, 0xFC0DE019, 0x06080000,
        0xFEDD0EEB, 0x0900FC07, 0x140A0000,
        0xEEE9FCEF, 0x0F020902, 0x08FE0000,
        0xE9E8D8BD, 0xDC1C0808, 0x21FD0000,
        0xF605080E, 0x0AE5E4F0, 0x06F40000,
        0x0BF5FDF2, 0x08F9FFEE, 0x0FF90000,
        0xF6E2DEE1, 0x0DFA12FB, 0x16030000,
        0x0016F003, 0xCF03FEFE, 0x0E0C0000,
        0x1511F1FC, 0xD1010201, 0xF2FF0000,
        0x0FDCF004, 0xE7F20907, 0xFA040000,
        0x01E9F904, 0xF7F5F410, 0x0C000000,
        0xECD2E806, 0x10FBF601, 0x26FD0000,
        0xFEFDFF02, 0x01F5FCEE, 0x06030000,
        0xFBF009FE, 0xED000AF3, 0x11060000,
        0xF0EEFAF7, 0x00080A06, 0xFD000000,
        0xF813F102, 0xDD0CFC04, 0x09050000,
        0x0F02F808, 0xDD05FE07, 0x03000000,
        0x02EAFFFA, 0xF106FE05, 0xF9FC0000,
        0x08EC0BF8, 0xF60003FF, 0xFEEC0000,
        0xF202F811, 0xF1F1EF06, 0x13FA0000,
        0xFC07FC02, 0x0200F702, 0xFDFB0000,
        0xEEF2FCFC, 0xFF06020D, 0xFE020000,
        0xDBFBF4EB, 0xF8110A02, 0xFC0F0000,
        0xE00AF5EF, 0xFD0BF502, 0x050D0000,
        0x030AF4FF, 0xED04EF05, 0xFC090000,
        0xF906FE10, 0xF50EFE04, 0x04EE0000,
        0x0EED0ED8, 0xFB06FFF5, 0xFFEF0000,
        0xEB08EEFA, 0x1002EF0A, 0x08F60000,
        0xFE00F8FF, 0x0207F801, 0x04FC0000,
        0xE8F4F301, 0xFB0EFEFD, 0x00060000,
        0xFE01E8E9, 0xFF13FFFF, 0xED060000,
        0xF210FFE9, 0xF90BF409, 0x00040000,
        0xFB0803FD, 0xF4040101, 0x00060000,
        0xFE10FCF9, 0x05040203, 0xECDE0000,
        0x00E00BE5, 0x03FA020F, 0xF7F20000,
        0xE1F9F001, 0x1700D412, 0x0A0B0000,
        0xFA050503, 0x03FD0302, 0xF5090000,
        0xEEFAFD08, 0xF109FCFE, 0xF80A0000,
        0xF4FFE7F3, 0x0D07FC06, 0xFB010000,
        0xF915FCE8, 0x0102F50A, 0x08FD0000,
        0xF012FEF0, 0x000D0305, 0x06E80000,
        0xF808FEF6, 0x0B080AE4, 0xEEFA0000,
        0xF1F309F1, 0x0404FBF9, 0xF9080000,
        0xDEF3FCFF, 0xFC14E5F8, 0x140D0000,
        0xFE04F909, 0x08F8FEF9, 0x00FD0000,
        0xFB0BEA15, 0xFB07F805, 0xFDFE0000,
        0xF211E9FB, 0x080CFAFE, 0x0DF60000,
        0x0211F9F8, 0x030BF9F2, 0xFDEE0000,
        0xFC16FCDF, 0x110E04F0, 0x0BDF0000,
        0xEA0706F2, 0x0608FFE8, 0xFB0A0000,
        0xEAEC04DE, 0x061302DF, 0x01050000,
        0xF4F4FC07, 0xF70FF5ED, 0x0D0A0000,
        0x0304FC05, 0x01F106F6, 0x01000000,
        0xF802F80C, 0x04FBFEF8, 0x04030000,
        0xF018EB01, 0x0A0DFA03, 0x0DEB0000,
        0xFE1901F0, 0xFDF9FC05, 0xF9D50000,
        0xFB02FDF7, 0x110F04DA, 0x03F90000,
        0xF50206E5, 0x080FFFD4, 0xFE170000,
        0xDCF705D2, 0x051104DB, 0xF3060000,
        0xF103FAF4, 0xFD1301DB, 0x0E160000,
        0xFA0BFF07, 0xFAE20D01, 0xF6010000,
        0xEE0FECF6, 0x05F515EF, 0xF90A0000,
        0xF51EE9F8, 0x04E212F8, 0xFBF50000,
        0xF122FEF9, 0x0BE40608, 0xEBC60000,
        0xF0090805, 0x1106FED2, 0xFC010000,
        0xF4FA0CDC, 0x0909FECE, 0xFB1D0000,
        0xE6E10ACC, 0x05090AE2, 0xE90C0000,
        0xEFEB0CD2, 0x0A1800CA, 0xF20D0000,
        0x14E9E3FF, 0xDCEC12B2, 0xCCF20000,
        0x0AFFF505, 0xE6EC13EA, 0x08FE0000,
        0xEF0DFE00, 0xD5CB12EF, 0x26120000,
        0x07261B27, 0xD4E3ECC3, 0xF8F20000,
        0x06101518, 0xF1DAE0BB, 0xF2EF0000,
        0x0C090C15, 0xDFF6FCBF, 0xF3F90000,
        0x1410040B, 0xCFF400E3, 0x08080000,
        0x0F09F8F4, 0xC820F9E1, 0x0DF70000,
        0x0FF807F5, 0xF6CD09BD, 0xEAFE0000,
        0xF8FB0A06, 0x06C9F5D9, 0x1E0C0000,
        0x022008F2, 0xE9CE0BEA, 0x1A0F0000,
        0x05120D04, 0xE1E10BE6, 0x02E80000,
        0x07F7100E, 0xF4E3F6EE, 0x01FA0000,
        0x04FA0802, 0xFBEE05C1, 0x020D0000,
        0x09FC08FF, 0xF90202D6, 0xEC050000,
        0x0FEF07C0, 0xF81DFDD2, 0xF1070000,
        0x0A0908F9, 0xFED3FFDF, 0xFFDA0000,
        0xF50C0D0D, 0x00EAEDF3, 0x08F20000,
        0xF913F7EE, 0x02F503D6, 0x0B050000,
        0x051203FB, 0xFDED0BE7, 0x01E10000,
        0x0CFA0D05, 0xFAECFCE2, 0x0BF50000,
        0x04F202FC, 0x0BF803D8, 0xFDF20000,
        0xFFEA0AFC, 0x08F203E4, 0xF9FA0000,
        0x08E20BC4, 0x0B0A01D8, 0xF00B0000,
        0x0D1908F5, 0xEBE1FCF5, 0x14E30000,
        0xF914FE04, 0xFAF2E9F8, 0x11050000,
        0xF713EBFD, 0x0AE50803, 0x05F10000,
        0xFF16000A, 0xFCE4050E, 0x01D90000,
        0x0D070B0C, 0xFBE5F7FB, 0x06E40000,
        0x02F20505, 0x0EE7FEE0, 0x01F90000,
        0xFFEB070B, 0x06F201D4, 0xFD040000,
        0x02E405F4, 0x0805FAE3, 0xF40E0000,
        0x0C06FEF1, 0x02FD02FA, 0x15D20000,
        0x0207FBEC, 0x01E805F8, 0x1BDF0000,
        0xFD0BF702, 0x06E4070C, 0x00E00000,
        0xFE120109, 0x00F3010A, 0xFDCF0000,
        0x090B140E, 0xF2ECF600, 0x0AE60000,
        0x05FC02FE, 0x0DE902F5, 0x06FD0000,
        0xF7E20009, 0x04EC0A01, 0xFF020000,
        0xF7E00305, 0xFDFB05FD, 0x00080000,
        0x0FF9F704, 0x01FFFEE6, 0xFDFC0000,
        0xFB15F504, 0x0BF7FCF0, 0x06F40000,
        0xFB01F8E8, 0x10DD04FD, 0x0DEF0000,
        0xFFF9F5FF, 0xFEF30E04, 0x07E40000,
        0x02030D06, 0xFAE9FAF8, 0x06070000,
        0xFA0604FC, 0x0CEF00F8, 0x04060000,
        0xFBE306FD, 0x07F004FF, 0xF9090000,
        0xFEEE04E8, 0xFDF1FFFA, 0xFE140000,
        0xFE05F414, 0x0ADFF303, 0xF9050000,
        0x0119F1FC, 0x08DF01FF, 0x0CFC0000,
        0xFB0EFAE1, 0x11F0FF00, 0x10E70000,
        0xFE07FBFE, 0xFDE605F9, 0x0AF80000,
        0x04F80803, 0xFCF0FBF0, 0x03FE0000,
        0xF9FF01FB, 0x0001FFF6, 0xFC060000,
        0xFBFA0403, 0x000301FE, 0xF0090000,
        0xFAE6FF02, 0xFBF4020E, 0xFB080000,
        0xE6050308, 0x1AEDF1FE, 0xF0080000,
        0x0111F4EF, 0x0DF705F3, 0xFCFC0000,
        0x0E0CFFEA, 0x08EEFAFA, 0x05080000,
        0xF40E09FE, 0x03F3EFFD, 0x03000000,
        0x03FD11FE, 0xF7F3FC03, 0x08FF0000,
        0xFFDC09F8, 0x01F204FB, 0xFE090000,
        0xF2F402FB, 0x07000104, 0xF0080000,
        0xE5E4FFF5, 0xFF050811, 0xE6040000,
        0xF405ECFB, 0x05030EFD, 0x1AEF0000,
        0xF605E20E, 0x0CF4FDFE, 0x15FE0000,
        0x06F8FF05, 0xF4FC0AFC, 0x06F50000,
        0x01E304F6, 0xF4EF0800, 0x07010000,
        0x02E9FAEE, 0xF1F80BFE, 0x10090000,
        0xFFF3EADB, 0xFD0006FB, 0x20FF0000,
        0xF0F4FFE5, 0xFDFEFC01, 0x19030000,
        0xEEFF0E02, 0x07F4E702, 0x08040000,
        0xF70D05FF, 0xF8F7FBFC, 0x19FE0000,
        0xFEF7F514, 0xDCF202FB, 0x00030000,
        0x030BEB18, 0x04F4FA01, 0xFBFF0000,
        0xFD0803EF, 0x0DF2FCFF, 0xF7FF0000,
        0xFCEBFAF8, 0x05F606FD, 0x02080000,
        0x09F6FFED, 0xFBFFF100, 0x0B0A0000,
        0xE8FFF502, 0xFAFCE90A, 0x0B100000,
        0xCCFC0108, 0x0B02EA04, 0x0C070000,
        0x07FBF4F3, 0xFEEB080E, 0x00020000,
        0x00050000, 0xF5F1FFFC, 0x1F010000,
        0x01F2FE1A, 0x06F8F400, 0x01030000,
        0xF90C00F0, 0x15EBFA02, 0xFEF90000,
        0x0400FFEF, 0x08F4FFFB, 0x04FD0000,
        0xFBF508F5, 0xFFFCEDFF, 0x070C0000,
        0xF3FDF405, 0xEC07E10A, 0x0C0C0000,
        0xEF03FA14, 0x05F7E6FE, 0x090B0000,
        0x06F6ECF3, 0xF2EB0501, 0x04080000,
        0xFFFAFAF8, 0x00ED0200, 0x09060000,
        0xF407FDFD, 0x05F402FB, 0x0F040000,
        0xFE10FEFB, 0x13F1F8FF, 0x06FD0000,
        0x06FA0706, 0xF9F9F201, 0x0CF20000,
        0xFC0A0AE3, 0xF707E2EB, 0x120F0000,
        0xFB00F50B, 0xE809E6FF, 0x110A0000,
        0x0B12EC11, 0xF402F003, 0x02FC0000,
        0x08FBEDEE, 0xE5F00A07, 0x040E0000,
        0x08F70302, 0xF5EAF903, 0x000D0000,
        0xFAE90808, 0x04E7FBFA, 0x130B0000,
        0xF30D01F3, 0x070104FD, 0x04FF0000,
        0xF9FB07F3, 0xFE0B03EF, 0x0AF30000,
        0x030C06F4, 0xFB03EEF8, 0x0FFF0000,
        0x01F3010D, 0xF40BE804, 0x04060000,
        0xFDFF04FE, 0xF417FFF6, 0x00F70000,
        0x0BFFEFFF, 0xD7E40907, 0xF3100000,
        0x0502FD06, 0x07EDF6EF, 0xFC090000,
        0xF6E7060B, 0x08EDFCF3, 0xFDF90000,
        0x040605FE, 0x00F1FEEC, 0xFFE80000,
        0xF30B01FC, 0xFB1302D0, 0x06F90000,
        0x011502E6, 0xF513EEE4, 0x1B010000,
        0x070302EC, 0xFA09F1F1, 0x11FC0000,
        0xFDFD04F8, 0x0F14FBF1, 0x16ED0000,
        0x0A05F60E, 0xE9EA0AF1, 0xED1B0000,
        0xF30EFF0C, 0x14EBEAF1, 0xFB190000,
        0xFDEE050D, 0x05E602F6, 0xFFF80000,
        0x07FBFA0D, 0xF5E70B00, 0x09FB0000,
        0xFA0B0301, 0x0208F5E0, 0x14FD0000,
        0x001CFFEC, 0xF406E5FE, 0x16FD0000,
        0x0B0309D7, 0xFB0CF5FB, 0x14FA0000,
        0xF1F809F0, 0x1112F500, 0x01F30000,
        0x020DF40F, 0x0203F1F1, 0xFB290000,
        0xF009F001, 0x2506E1EE, 0x04250000,
        0x0FB80406, 0xF5FC12F8, 0x01FF0000,
        0x15F8FBF6, 0xE8030CFE, 0x02D70000,
        0x060114FE, 0x01F9F009, 0x0BE40000,
        0x1225F0F4, 0xF0F8E7FC, 0x071B0000,
        0x070913E5, 0xF512EE04, 0xF8FD0000,
        0x02F007F4, 0x160EF7FA, 0xDEF00000,
        0x14EDF005, 0xF9E311EC, 0xE0F90000,
        0x14F9F609, 0xD3F711F3, 0xCBEF0000,
        0x0A0FFF0E, 0xE6FE14F0, 0xBDE10000,
        0x01E9F106, 0x0BFC13E8, 0xC9EF0000,
        0x03EB02FC, 0x0BFE0CD7, 0xC8FC0000,
        0x10CC0E09, 0x0ADBFCB3, 0xC8E70000,
        0x0CFC1009, 0xECDA04CE, 0xD7E80000,
        0x0A1206FE, 0xFFE6FCDA, 0xE6F80000,
        0x0CFD060D, 0xF00804CD, 0xE8DC0000,
        0x0208010F, 0xECF90AD7, 0xE2E40000,
        0xFD0C0812, 0xFBE30010, 0xF0E70000,
        0xFFF2F6FE, 0x0FF507F2, 0xEEFE0000,
        0xFB0C0AEF, 0x0CF901FE, 0xDEF90000,
        0x00EF0BFD, 0x0BDC00E7, 0xECF50000,
        0x03FEFB06, 0x04F5FDEB, 0xF5EE0000,
        0x0AFEF602, 0x11FCFCE5, 0xE1FD0000,
        0x01050A09, 0xF2DE0EF0, 0x06DD0000,
        0x0EF6040C, 0x08E604ED, 0xEFD70000,
        0x01080909, 0xFEF8FFF2, 0x00E90000,
        0x050BEFFD, 0x10FAF702, 0xFC020000,
        0xFE18E009, 0x19FEF6E7, 0xF1050000,
        0x08070101, 0x0DE7F106, 0x05EC0000,
        0x0209FE04, 0x06F8FEF9, 0xECFE0000,
        0x0A05F6F8, 0x09040307, 0xF1F70000,
        0x0CED0CFF, 0x00D406E4, 0x0AE50000,
        0x06F105FD, 0x09E604DE, 0xF5D90000,
        0x0DF90A04, 0xED0800E8, 0x04EC0000,
        0x021BFFFC, 0x04F4F202, 0xFFFB0000,
        0x0912F4EE, 0x0EF8FAF8, 0xF5090000,
        0x0E0BFF06, 0xF8FEFB0E, 0xE9F00000,
        0x0904F204, 0xF9FE0909, 0xF6F60000,
        0x050200FD, 0xF7020405, 0xEBEC0000,
        0xFD030507, 0x0CD704FD, 0xF7E80000,
        0x0AE905FB, 0x04D30809, 0xF4EC0000,
        0x0CF20D07, 0xE4E80209, 0xFBF70000,
        0xF424F1FB, 0xFD03F9F6, 0xFAF60000,
        0xF50702EB, 0x110D0203, 0x01E50000,
        0xF90803FD, 0x01060100, 0xFFED0000,
        0x0401FE08, 0xF6060402, 0xF9EE0000,
        0x03060506, 0x091107FF, 0xE9DC0000,
        0xFF030A05, 0x0ED9FAF6, 0xE8E80000,
        0x07FF08F6, 0x04E60800, 0xF7EF0000,
        0x03FD0EFA, 0xEDF80301, 0x02F80000,
        0xF51BE3F3, 0x04040300, 0xF5F50000,
        0xF1110405, 0x0AFEF00D, 0xECEC0000,
        0xFD13F401, 0xFC0FF507, 0xEFEC0000,
        0x040B0202, 0xF6FE0201, 0xF3FE0000,
        0x00020305, 0x050803EB, 0xF8E60000,
        0xFDEA0CEF, 0x0FF0FD06, 0xE4EE0000,
        0x07030EED, 0x03FC070B, 0xF9EA0000,
        0x07F417F3, 0xE5FE090D, 0xFC000000,
        0xF413EEFB, 0xF9FCFC12, 0xF8FA0000,
        0x0119FB06, 0x02FCE510, 0xEBF60000,
        0xFC1AEB05, 0xF70DF30B, 0xF1E70000,
        0xFC00FD02, 0xFCFB03FF, 0xEB090000,
        0x01FA0704, 0xFC0008ED, 0xF7F10000,
        0xFCD613EA, 0x10EF0107, 0xD2F80000,
        0x04E013ED, 0x0CF8FC0C, 0xE2000000,
        0x0A040F03, 0xFDFDD706, 0x13000000,
        0xE626ECFD, 0x08F9F308, 0xFCF40000,
        0xFC2BDAEA, 0x0B05F810, 0xFAEB0000,
        0xF313DD04, 0xF70FE709, 0x09010000,
        0xEC10E701, 0xFF10F900, 0x06050000,
        0x09F6FF01, 0xEE0B0EE6, 0xF3F50000,
        0x0CDE08E8, 0x07B30DCA, 0x16BE0000,
        0x04B9FD0E, 0x00AE0CEB, 0x11BE0000,
        0xFBE4FA04, 0x02E510F3, 0x19D90000,
        0x00E60407, 0xEBED09F5, 0x0F010000,
        0x09F8120A, 0xD6F90AF8, 0xF7FA0000,
        0xFFF506FC, 0x06FA0700, 0xF6FD0000,
        0xFBEA0206, 0x08F90603, 0xFEFD0000,
        0x04EB05FF, 0x04EC06F7, 0xEFF40000,
        0x02E007F2, 0x0EDC0BC5, 0x0ECF0000,
        0xF9E106F0, 0x09F604D4, 0x18D10000,
        0xFBE8FFF9, 0x04FEFFE5, 0x13140000,
        0xFEFEF909, 0x0400F5FE, 0x03020000,
        0x0503FA0B, 0xE805F408, 0x02FD0000,
        0xFCF6F601, 0x0704F80A, 0x01FF0000,
        0xFBF00903, 0x03FCFE03, 0x02020000,
        0xFFF403FD, 0x060107ED, 0xF5F00000,
        0xF8DA06E8, 0x20090AC3, 0x0EB20000,
        0x0C0604E6, 0x120AF2D3, 0x0DCC0000,
        0xFF08FEFA, 0xF403FDFA, 0x0DF20000,
        0x08000104, 0x09FFF9F5, 0xFC030000,
        0x03FF0706, 0xF4FFF102, 0xFBFF0000,
        0x06F6F501, 0xF2FE0A09, 0x00F60000,
        0x04FA01FF, 0x0904F7FA, 0x09F40000,
        0xFC020806, 0x0D0E0ADC, 0xF9EB0000,
        0xF5C4ECFD, 0x072111D4, 0x11D50000,
        0x00ECFFF3, 0x050B05FD, 0x08D30000,
        0xFDF9FB09, 0x0906FDEE, 0x06FD0000,
        0x04F404FE, 0x0805F5F5, 0x06FE0000,
        0x0606000E, 0xFC04F6F4, 0xF4F80000,
        0x0C02F608, 0xEBFB0604, 0xFBEB0000,
        0x0A09F001, 0x021003EC, 0xFAF30000,
        0x04030005, 0x070C09CB, 0xF6E40000,
        0x05CFF00D, 0xEB20FCFA, 0x18EF0000,
        0xFCFD13FB, 0xEF07FAFD, 0x04E60000,
        0xFCF00604, 0xFE0DFF0A, 0x06DD0000,
        0xFDE90EF4, 0xFCFB000E, 0x03F30000,
        0x050F0409, 0xFEFBF6F6, 0x08E60000,
        0x08FAF205, 0xF4F502F7, 0x09E60000,
        0x0C03F6FF, 0xFB0F08EF, 0xFED90000,
        0x02F30000, 0x0BF708E8, 0xF8E80000,
        0xED13E714, 0xDF18FF05, 0x13020000,
        0x0408FD06, 0xF102ED01, 0x0AF90000,
        0x01F1FE0B, 0xFE0CFEF8, 0xF9F00000,
        0x00DB0202, 0xF50C00F9, 0x16EF0000,
        0x0B020108, 0xFAF8060D, 0x04C80000,
        0x0902FF06, 0xFFEF04F5, 0x0AD80000,
        0x0802EB00, 0xF1F412F5, 0xFDF00000,
        0xFDF80903, 0x04EA0AEF, 0xEEE80000,
        0xE402E9FD, 0xE311FB0A, 0x100C0000,
        0x0315F80A, 0xF81CEAF4, 0x11020000,
        0x0C00FE0D, 0xEC07ECF0, 0xFFFD0000,
        0xFBE90013, 0xF60C03F1, 0x11F50000,
        0xF3F90C06, 0x0EFD09F7, 0xFFD00000,
        0x05010906, 0x0AF904EE, 0x00E00000,
        0x06F9EE02, 0xF2FD0BE1, 0x08E60000,
        0x04FBFD0F, 0xFDF307E5, 0xF9F20000,
        0xD00EE21F, 0xDC0EF011, 0x25010000,
        0xEC1A050F, 0xE410F6FA, 0x05FC0000,
        0x0BFEF8F5, 0xFE060DE6, 0xF5080000,
        0x00DEEE07, 0xED0522E0, 0xFE100000,
        0xFA00EB17, 0xF90C0ADA, 0x02F80000,
        0xFD24F612, 0x04FFF8E1, 0xFCEF0000,
        0x09FFE516, 0x02FA0CE6, 0xF3D30000,
        0x00F10016, 0x02E50606, 0xEFD00000
    };

    static constexpr float fc1_bias_data[10] = {
        -0.249347046f, -0.187482789f, -0.0378342718f, 0.184776679f,
        0.0460926257f, -0.388172209f, 0.205172107f, 0.0838422626f,
        0.0758607313f, -0.145189419f
    };
};