// DO NOT EDIT. File generated automatically, your changes will be lost when regenerated.
#pragma once

#include <stdint.h>

class ModelParameters {
public:
    //////////////////////
    //   fc0: Linear
    //////////////////////

    static constexpr float fc0_weight_scale = 0.00371744228;

    static constexpr uint32_t fc0_weight_data[720] = {
        0x08EDE217, 0xEFFAF40C, 0xEFEBFFEF, 0xDEE40CDD, 0x02E0F207,
        0x02E7FB14, 0xE50CE100, 0xFCF0E5FC, 0xF8F7FDF1, 0x0CD7F4F0,
        0xFEF5DF13, 0xF3F7F610, 0xF315D3E9, 0xE6E9F3F1, 0x0DF7D4FB,
        0x03DADB11, 0xF2E90306, 0xEE1DF1E3, 0x1105F40F, 0x0536E106,
        0x16B8A5FF, 0xC2301436, 0xE9F3F6D6, 0xFAF8E0D8, 0x005F0A03,
        0x0C15F63C, 0x154C08EB, 0xEC2302CA, 0xEBF8F0D0, 0xF8F236F2,
        0x2A28F424, 0x10431CF0, 0xFD20F9C3, 0xDD0ED4DA, 0xF9EC36EA,
        0xFDC9A6F6, 0xA1310BFF, 0xE7C71BF2, 0xF4E6ECB0, 0xFD7F29F6,
        0xF8B7D508, 0xF3F61216, 0xF8F6EAFC, 0x281A01FF, 0x1231F510,
        0xF8F3F900, 0x0FDBFD02, 0xEEF2FF01, 0xF411F5E5, 0xF804D4EF,
        0x0204EAF3, 0xE2ED0105, 0xF8D6D70A, 0xFF0BEA01, 0x07D9E4F6,
        0x070AED15, 0xE5F8FBF9, 0x1200ECFB, 0xD9E9ECE7, 0xEEF10B00,
        0xF00FF113, 0xEB03EB0F, 0xFDE003EE, 0xFD0704DF, 0x07DAE5F3,
        0x0607D616, 0xEDE2FB02, 0xFBF0EBFF, 0x00F0E4EE, 0xE5E50401,
        0x01FBCDEB, 0x03E52003, 0xEA300AF3, 0x260D01F1, 0x1815D40A,
        0x1AFB00F9, 0x3DF9D62E, 0x093401E2, 0xD31FEA07, 0x2401D808,
        0x03F2F201, 0x0C29ED0E, 0x060A0FDB, 0xE8E6E9E0, 0x2518F004,
        0x2415FF1C, 0x1F10F7E5, 0xDB2C0FEE, 0xFCFCEBDD, 0x28E41FEE,
        0x12070310, 0x072103F6, 0xE344F8ED, 0xDA12E3F1, 0x22D523F4,
        0x03FD1B09, 0xF908FB04, 0xEF0804F6, 0xEC05F9F6, 0x1DFAF6FF,
        0xF2DC1316, 0x45E6F725, 0xE2FC1A0A, 0xF707F617, 0x1CFCC6FF,
        0xD0CE12F5, 0xFEB51BFB, 0xEFFA0E1A, 0x402D021E, 0x1036ED12,
        0x09E8F308, 0xEEE10EE2, 0x06D8FB02, 0x04080511, 0xF1ED0DF8,
        0x0FEEFF0B, 0xF004E8EB, 0xF1E9E3FE, 0xEBED02EC, 0xEAEAFA12,
        0x0AFEE5F1, 0xE3F6FFF9, 0xEEDCE305, 0xDDEC0AE9, 0xE8F7E2EE,
        0x0D12DF08, 0x0F0116DC, 0xFDDE18DE, 0x090BF1F0, 0xEEFEE906,
        0xE10CE2EE, 0x24E20AF5, 0xEE312DE1, 0x1929F7FF, 0x1D20ECF0,
        0x110EE0EE, 0x2C24F922, 0xF91B19D8, 0xDCF4ED00, 0x0B1EE716,
        0x26EADAF8, 0xEE401108, 0xFB0506D2, 0xEADDEDFF, 0x06FD13FA,
        0x0DF3010E, 0xD252060F, 0xEF0EF5D1, 0xD6F5ECE6, 0xFD032017,
        0x28EC0C3D, 0xE43F17FC, 0xE5FAE304, 0xF3F2E9BD, 0x06DC09FE,
        0x0E06EF13, 0xE80C14FB, 0x0F090CEC, 0xEF1001D5, 0x0402E6FC,
        0x0DFFFFE6, 0x1D07FA09, 0x08F603E8, 0xFDF80A02, 0x0213F7EB,
        0xE5D62AEB, 0x23CC0CF9, 0xFE081115, 0x103316F8, 0x2205FE03,
        0x02CFEF0B, 0xFBE938EA, 0xDFBB092C, 0x28041F14, 0xEF0009F6,
        0x05F9F40D, 0x02E7EDEC, 0xFEDAF7FD, 0xE0EAFC06, 0xDAEBEAF2,
        0xEB00DF0A, 0xFF0810E5, 0xF6EBEAFA, 0xFC0500ED, 0xE8F2FEEE,
        0xE328DCEB, 0x01ED0ED3, 0xF2DC1FF5, 0xF505ED10, 0x0D11F610,
        0xFF33DED6, 0x3CED0FEF, 0xF71F31B8, 0x1441D9F2, 0x141109F9,
        0xF933B2D5, 0x250F1EF3, 0xCF412FC7, 0x111CEC05, 0x28230706,
        0x1211D008, 0xF93624DB, 0xD10003C9, 0x0DEBED0B, 0x041E38EB,
        0x21E30EFD, 0x1223081C, 0xEA0DF7CF, 0xEEEDF317, 0x32FA0712,
        0x10B1FC24, 0xF73405EE, 0xD011DD0F, 0xFEF306EE, 0x0F150AFE,
        0x0F24FF16, 0xF3FF3203, 0x20F7FE0A, 0xF7FED8BA, 0xFA05D004,
        0xEC150305, 0x01F52113, 0x1D1317F9, 0x001703D7, 0x1003E811,
        0xDDEBF911, 0x1B0013F8, 0xDF10050E, 0x20211605, 0x0A09050C,
        0xDC10D920, 0xF5EB34CC, 0xCBD91846, 0x2E3410FA, 0xF7F806F9,
        0xEB06D4FD, 0xE5E915E5, 0xF1D1F116, 0xFDEF0A06, 0xDFDE0D03,
        0xE823E508, 0xF5F5ECF5, 0xEBE3D9FA, 0xDF0FE621, 0xE8DAEF13,
        0xF736D7FB, 0x15FF1CE0, 0xF6EC0DDD, 0xEBFCF427, 0xFA0FF312,
        0x0C3CE6E9, 0x0F1E0DFD, 0xD30D2FB9, 0xFB18F82D, 0x231F1013,
        0x022DC5E4, 0x08F600F6, 0xE53B34C7, 0x0F1BF71B, 0x2AFD2711,
        0x1E02F4F4, 0xF21C26E3, 0xD10309C9, 0x0D09F00B, 0xFC242E14,
        0x2BE4FD03, 0x0924F90A, 0xE6FA0AFE, 0x11110029, 0x1A0EEE02,
        0x24DDFE2C, 0xFA13F518, 0x0A21F20D, 0xFCEDF8E4, 0x2B07F4EC,
        0x1420F741, 0xF0DF28D8, 0x300EFC1B, 0x30FFE2C3, 0xFE16DFEB,
        0xF61B042B, 0x1EF504D7, 0xE7151315, 0x381402EA, 0x160519FF,
        0xDFFC0722, 0x15F41107, 0xE3E01726, 0x160F0408, 0xF92921EF,
        0x0421F421, 0x01FE20DA, 0xE6F30344, 0x08FE0EFA, 0xFEF60813,
        0xFE291504, 0xF4EE1EE8, 0x19CDE91A, 0xF5F8F208, 0xD2E4FAFA,
        0xFC2AD8E7, 0x120AF9FD, 0xF6CBDBFB, 0xFC0C0317, 0xE8F7F4FE,
        0x060FD0EB, 0x070C0C0D, 0xE9EF09E8, 0xE4F5E126, 0x060D0D10,
        0xFD0BF1E9, 0xFA2DEB29, 0xE21111D3, 0xF9D40C3C, 0x11FC3608,
        0x0D311FDB, 0xF90E00F5, 0xEA3D19CA, 0x05D71C13, 0x17E73CED,
        0x213405EC, 0xF60E20EB, 0x210305E4, 0x0F13F001, 0xFB0521FA,
        0x1A29FA19, 0x0808FA13, 0x09000523, 0x0C11F3F4, 0x1A11FFEA,
        0x131DEE23, 0x0E03FC1D, 0x190CF525, 0xEC0ADCEB, 0x230700F6,
        0x2124FD28, 0xFCE71700, 0x0E19F220, 0x101BF3DC, 0x2111020C,
        0xEB472617, 0xFCE4E3D6, 0x131A0F1C, 0x14F3FEDC, 0xE4D50707,
        0xF412231D, 0xDB09E52C, 0x00170827, 0xDACFFBF0, 0xE228FAFC,
        0xF7381EF8, 0xFDE0F7E7, 0x3006EB10, 0xF7F4FBD7, 0xEBE6F1FD,
        0x17461BE1, 0xF3FD1D04, 0x21DFD2EE, 0xEAF3FBEB, 0xD8F5E9EF,
        0x0717EEF3, 0xF2ED0E0C, 0x0CEBEFF9, 0xDEEDFC18, 0x0C08EAF2,
        0x0D18F5E6, 0xE41008E7, 0x160A0505, 0xF30BDCF6, 0xF70F07F5,
        0xECCC29DB, 0xE30CD91B, 0xDAFFFDF4, 0x0AE9362C, 0xFE1136F0,
        0xF8013DE9, 0xEF24F3F0, 0x1C1819DF, 0x12F21C32, 0xF9E92E09,
        0x181511FB, 0x081D21FD, 0x29F906E6, 0x14F0E922, 0x162AFBFE,
        0xF923FBFB, 0x041EDD2E, 0x21E61706, 0xF0F7DF03, 0x0C09ECFB,
        0x033A081C, 0xFA0DDC09, 0x21EE1016, 0xF716D816, 0x2708FD06,
        0x00031636, 0xE6FC0F03, 0x2501EC37, 0x2E17F3F6, 0x1911F008,
        0x0B243B07, 0xF30CDDF2, 0x160A123C, 0x02E12404, 0xEBD81DEE,
        0xF028300B, 0xF900D71A, 0x1503F030, 0x00CC06F0, 0xFE17EFEF,
        0x12353FFE, 0xEF0209F5, 0x440BD628, 0xF1F40FE2, 0xFDFED2EC,
        0x143206F0, 0x01E50600, 0x1CF2EF0C, 0xE00A06DB, 0xFAF2D8FF,
        0x141EE612, 0xF0EFE7F8, 0xFCFCEBFF, 0xF400E6DE, 0xF9FEFF15,
        0x0419001B, 0xFFF705FB, 0xFE140328, 0xF5E7D9EA, 0xF7EDFEEA,
        0xFCCB46E6, 0xEBFDDF04, 0xF50AF5F5, 0x20DD3324, 0xEC1527F9,
        0x0A0430E0, 0xF813F0E3, 0x00050FEE, 0xFEEC2115, 0x01DF3102,
        0xFD0EFAF5, 0xF425191C, 0x04E61621, 0x220BED37, 0x0205F809,
        0x053800FD, 0x0808FE1C, 0x11FF2917, 0x0307F526, 0x051C05F4,
        0xE53C16EB, 0x1D0EE725, 0x040E2436, 0x0FFFE12E, 0x110601FC,
        0xFC012211, 0x0520010A, 0x1EFFE83F, 0x2BF2EE04, 0x09181209,
        0x06402124, 0x00FB00FD, 0xF8D81A26, 0x0AF50C2B, 0xECC514F3,
        0xFBFF2106, 0xDA1CD52B, 0x16080635, 0xEDDF1503, 0xED0C0AF2,
        0xF2E94918, 0xF7F61BEB, 0xFCFCE142, 0x2BFD1710, 0xF3E4EE0C,
        0xF3EC1C0D, 0x01E91402, 0x0BF1E53E, 0xFBE8F9F9, 0x06FF09FE,
        0x06F7F012, 0xF7F2E509, 0xFCE7EE1B, 0xF8E8E303, 0xF7F7EBFC,
        0x0705011D, 0xFFE2E50C, 0xF2EEED0C, 0x0803060B, 0xEFEA0E09,
        0x0CFC380F, 0xD819F911, 0xF21DE217, 0x19F00A0C, 0xF4F80AE9,
        0xF8112102, 0x130C05EE, 0xEF02F8F3, 0x0802180B, 0xECCC3AF1,
        0x02FFDE1F, 0xF12402FB, 0xD8F4F21F, 0x06F30F13, 0xF70B2012,
        0x0D19E4F3, 0xF8F8D122, 0xEAEE1036, 0xFF11E91F, 0xFA1220ED,
        0xE13AF3E1, 0x0BFAE513, 0xF5F42A04, 0x0119EB22, 0x0902FB13,
        0x262C0E11, 0xE50B0C12, 0x0FF1F120, 0x07030111, 0x0C1FE50F,
        0x174FE202, 0x1B1409FC, 0x22FBF815, 0xDE0DF010, 0xF7DA0102,
        0x0923FB26, 0xDC19F308, 0xE614E926, 0xE901E90D, 0xF0082714,
        0x02E02A0D, 0xF8F5F5E8, 0xF4FAE820, 0x0FED1EFC, 0xEFE521F0,
        0xEC0EEE07, 0x05FCF809, 0x0D02E335, 0x16FFEADD, 0xE2FB0A10,
        0xF2EDEE08, 0xE2F9E903, 0xF3E4F9F6, 0xFAF1FBEB, 0x04F10807,
        0x07132417, 0xC9FFE3F8, 0xF4F4D809, 0xF9F209FD, 0xFEF8F9F4,
        0xEB172FFF, 0xEEF6FAF8, 0xFA24DAEF, 0x14FC0AFE, 0x04F00607,
        0x0EF411F3, 0x080520E7, 0x03040D06, 0x2A1F0009, 0x11D51EEB,
        0xF6DFF21B, 0xFC0D0B0D, 0xFEDEF902, 0x1EFB131C, 0xF707F8FD,
        0x0421ECF2, 0x0301DAF8, 0xDD161023, 0xFB12E73B, 0x0310200B,
        0xD83B02BE, 0xF504E52A, 0x0F0F3510, 0xED1AE741, 0xEAF3E00D,
        0x1722DEF3, 0xE3351E24, 0x1C07DFF0, 0x00EFD60F, 0xF220D4F2,
        0x1442E3FA, 0x32E90BDE, 0xFDFC01E1, 0xEE28F405, 0x23EFFAFF,
        0xDD14FF0E, 0xDDE6DFEC, 0xE03CEC11, 0xF6E4FFF3, 0xEEF81BF1,
        0xF0F91227, 0xE5F91405, 0xD607FB26, 0xFAFE0FEE, 0xFFFA0F0D,
        0x0603F318, 0xDB05F7EF, 0xEFF1E905, 0x17FA0E05, 0x08F8E5F9,
        0xEED905FC, 0xFFF20815, 0xE5FDFCF0, 0x0DEA08E3, 0x0DF5E906,
        0xEF0D2719, 0xD8FE06F5, 0xF1ECEF19, 0xE9F9FA01, 0xEAEF14FD,
        0xE3F3FD16, 0xE8DBF4E5, 0xE139F1FD, 0x04FF0718, 0xF0E9F907,
        0xF9E018F6, 0x30DC32DB, 0xF0FA1A02, 0x272B1819, 0x00EDE4EE,
        0x16E10B06, 0xF518FB04, 0xDFECE915, 0x12F10209, 0xF711070B,
        0xE813F012, 0x0910E820, 0xF8F70223, 0x17F1E72C, 0x0F1010FF,
        0xF93F11D4, 0x1813DB10, 0xF70E2BEF, 0x00030D3C, 0xFD160D08,
        0x210BE300, 0xF725FE1F, 0x00FED1D4, 0xFEEBED17, 0x0E1209F2,
        0xEA29CFF2, 0x1407FFF2, 0x07050CE1, 0x1128031F, 0x1CEED612,
        0xE805DE00, 0x05FADEF0, 0xFA4D08F6, 0x1DFAFB05, 0x02F3ECF8,
        0xF6FC1705, 0xD2F9F508, 0xDA0CF113, 0xEEF113FC, 0xE9E413FF,
        0xF1E40000, 0xFBF6EC14, 0xEE06F7F6, 0xFD060EF3, 0xEA040A18,
        0xF7EBFE12, 0x04F90F0E, 0xF8EA04E3, 0x0AEFE9DB, 0xF8E9F0F1,
        0xF4102609, 0xEE0803E4, 0x0AFBEFEB, 0xF0E003D7, 0xFEF2FA09,
        0xD91004E8, 0xE9F5FE07, 0xED00FDED, 0x01081205, 0xEB1225F3,
        0xF8DCEC04, 0xFD053BF4, 0xE6CFFD26, 0x210B0027, 0xD8250FFA,
        0x1EEFF414, 0xF80F1705, 0xE8CAEF25, 0xF202F829, 0xF6FBEEF0,
        0x1B10FCF6, 0x29F5E1FB, 0xEE00EF11, 0x031CF93F, 0x25CFD4F7,
        0xEC2CF4F3, 0x42F4EE0A, 0x010B07E6, 0xE1240139, 0x1FF2C3ED,
        0x23F8F534, 0x05341108, 0xFEF2E7ED, 0xE6FFD7FC, 0x1701D004,
        0x05EEC2F9, 0xFF02190E, 0xF7D110FF, 0xF82103F6, 0xEA2E1216,
        0xF6E8E109, 0xED04E4F1, 0xF11410F3, 0x1304F5E3, 0x07331F16,
        0x080C141C, 0xE0FCEA12, 0x051DE9F0, 0x04F4FEE2, 0xE1EB1EFD,
        0xEEDCF111, 0xF6F5EA07, 0x09F202F3, 0xEAECECEB, 0x0507EEFB
    };

    static constexpr float fc0_bias_data[20] = {
        -0.065911144f, -0.00403570523f, 0.0749894679f, -0.128637671f,
        0.0454974286f, -0.0994477198f, 0.149771139f, 0.0339665785f,
        -0.0206606891f, 0.189237222f, 0.0683218762f, 0.19066672f,
        0.210228696f, 0.0654180795f, 0.0549681261f, 0.326307178f,
        0.130920991f, 0.118602216f, 0.0216097981f, -0.093835704f
    };

    //////////////////////
    //   fc1: Linear
    //////////////////////

    static constexpr float fc1_weight_scale = 0.00753259147;

    static constexpr uint32_t fc1_weight_data[60] = {
        0x083CD20B, 0x09D0F106, 0xEDE90000,
        0xF8AA0EE4, 0x36812434, 0x60030000,
        0xDEBFAFDA, 0xF871182F, 0xE7D90000,
        0xE73ED4DC, 0x00F8FDEF, 0xDC5B0000,
        0x34CDC421, 0xECF15610, 0xE6EF0000,
        0xFC4E0333, 0x40D1DACA, 0xF7D30000,
        0x421BE6C4, 0xC824F3FA, 0x0BE10000,
        0xD50B0C59, 0xE30DF611, 0xE5DF0000,
        0xE5FCEF0B, 0xD9FBD16C, 0xEEE20000,
        0xCC0838D4, 0x11DF64EE, 0xD6CD0000,
        0x40BC2B0C, 0x12040EC8, 0xE5D80000,
        0xF8EFE4ED, 0xAA42C01D, 0x06770000,
        0x221231BF, 0xD3400EF5, 0x00090000,
        0x47C5E5F1, 0xCCFF120D, 0xFE030000,
        0xEE081510, 0x0B4DE5DA, 0xE2DB0000,
        0x1CB6FD39, 0xE22B24C5, 0x56BA0000,
        0x3124FB24, 0xFB0240D5, 0xDAF30000,
        0x221E5122, 0xB3E6D6DA, 0xD3E90000,
        0x040130DF, 0x4A16DC9F, 0x13F40000,
        0xE6FCE9FC, 0x18F4FC1B, 0x00010000
    };

    static constexpr float fc1_bias_data[10] = {
        -0.141752288f, 0.0321007371f, 0.151063144f, 0.0306546092f,
        -0.0361729935f, 0.224847093f, 0.00830200221f, 0.0137107139f,
        0.0227216985f, -0.1701518f
    };
};