// DO NOT EDIT. File generated automatically, your changes will be lost when regenerated.
#pragma once

#include <stdint.h>

class ModelParameters {
public:
    //////////////////////
    //   conv1: Conv2d
    //////////////////////

    static constexpr float conv1_kernel_weight_scale = 0.00541423261;

    static constexpr uint32_t conv1_kernel_weight_data[64] = {
        0x2413BCF9, 0xE9F1E9C8, 0x19D3E790, 0xCB292628,
        0x28551E10, 0x1A01FCBF, 0xEABC2CD3, 0x2218F2B0,
        0xF0ED2728, 0xDEEA1714, 0x0D430104, 0x0E9D81B6,
        0x4317C127, 0x20DE2DCB, 0x2A4A09E6, 0x09DBF8FB,
        0xFC280DBB, 0xD3EDFDE1, 0xE8F023FE, 0x17FF0C3B,
        0xAE45C10C, 0x0BEC2424, 0xC9DEE3F1, 0x1DF815EB,
        0xC51421FC, 0x18E8DADF, 0xB9D230F5, 0xEBEA2BD7,
        0x32000518, 0x24CD2D0E, 0x192BDC42, 0xEDEAEFD3,
        0xD10E1FF8, 0xFCDC050A, 0x06331BE3, 0xE92B2120,
        0xBFF30E31, 0xDD25FA1C, 0x12BEE14F, 0xE0FE0228,
        0xF6C1FF0B, 0x1D1FF3E8, 0xECC1D537, 0x262621A4,
        0x1917F0F6, 0x23260726, 0xE9F23AF1, 0x191B0DF7,
        0xCFCAB904, 0x9E2A1C13, 0x2A2D1016, 0xA302D1E8,
        0x12A8F6DA, 0xF2042016, 0x2CFA972B, 0xF321E4FA,
        0x27AA49E5, 0x2F20F32A, 0x0C0C83F7, 0x242ADD01,
        0xFD24129B, 0x2A32EA14, 0x1D2AB6F9, 0x2EF049C6
    };

    static constexpr float conv1_bias_data[16] = {
        0.203173772f, 0.127322853f, 0.423799902f, 0.140555486f,
        0.133218586f, 0.00504679931f, -0.0661091954f, 0.137554228f,
        0.198427901f, -0.00603566272f, -0.176710188f, 0.0566393659f,
        0.115017004f, -0.422997415f, 0.189295083f, -0.527148068f
    };

    //////////////////////
    //   conv2: Conv2d
    //////////////////////

    static constexpr float conv2_kernel_weight_scale = 0.00690484745;

    static constexpr uint32_t conv2_kernel_weight_data[512] = {
        0x171AE80F, 0x061A24F6,
        0xF714ED03, 0xDF0C1FEE,
        0x131416F8, 0xE73B230D,
        0x1CF32210, 0x081B270C,
        0x05FCED09, 0xFC0A0DF3,
        0xD70CD900, 0xE5F712EB,
        0x0E180D00, 0xF211F2F8,
        0x16031618, 0x11DA0411,
        0x12F3ED01, 0x03F90DF5,
        0xD401E9FC, 0xF1EA05F8,
        0xFE091401, 0x0EF8F1ED,
        0x0E1B0924, 0x0BD801F0,
        0x0AECD50F, 0xECF60C1D,
        0xE3E1E0F0, 0x01FCFC18,
        0xF0F20D0E, 0x17FBF7F2,
        0x0212FC16, 0x10ED2104,
        0x03F32A39, 0xD5E706B8,
        0xEAF9FAFF, 0xF6EE47C8,
        0xF62EFA10, 0x1AFFFCEB,
        0xF22713DD, 0x10FEF8F6,
        0x07F9181B, 0xFE0BD2B0,
        0xEEFAEEEB, 0x121910AF,
        0xED14F707, 0x1206E4C7,
        0x101B00E4, 0x0A15FDC2,
        0x18D50D0D, 0x0AF1C8D0,
        0xEDD6F5FA, 0x0A0D16B7,
        0xF4FCD909, 0x00FFF8CB,
        0x150E09DF, 0xF1FDFFAD,
        0xF7D61505, 0x07F1C2DF,
        0xE9F5000A, 0x0B1034B8,
        0x0D23ED12, 0x100E0ECA,
        0x0E260FF5, 0xF806FBAD,
        0x01EB0311, 0x1211080C,
        0xF708EC1C, 0x060FEF12,
        0xF11B1308, 0xE7ED110E,
        0xFA1039D9, 0xF6260A15,
        0x13F3EF10, 0xFA070B0E,
        0x0312090B, 0x04FCF10E,
        0x02FAFF11, 0x00F81501,
        0xF7FDFE18, 0x04080A19,
        0x0EF5F704, 0xF603180C,
        0xFBF30F02, 0x010EFF19,
        0xF8FF0D05, 0x00051C06,
        0xF7FEEA1B, 0x00FEFB10,
        0x0EF1D7FA, 0xE5E70618,
        0xEDDA0304, 0x08FFED14,
        0xF0F219FD, 0x12121F14,
        0xEE08E021, 0x160C0507,
        0x0DEFECF3, 0xE1FA3000,
        0xF0171AFD, 0xF1FA05E5,
        0x0C0817F8, 0xE23C1FEE,
        0x29F2DB1F, 0xD60A0BEE,
        0xFFF806DD, 0x1901F000,
        0xEF10EFFA, 0x08EAF9D1,
        0x0A081CFE, 0xE81812E4,
        0x05FEFE09, 0xE70E09FC,
        0x04F101F2, 0x10001801,
        0x06F3E700, 0x02EDFDDF,
        0x09F124F4, 0xF71E0EF5,
        0xFEF20DF8, 0xEA1814F4,
        0x130EFEF4, 0x171123EC,
        0x08FDF114, 0x010B04EC,
        0x0F122CF8, 0x0017FBEE,
        0xF30805EF, 0xEB121108,
        0x0F0BE40F, 0xFC1113FC,
        0xE311EAF8, 0xFFFCFDF7,
        0xEFFF05FB, 0xFE0D02F0,
        0x08FCF0EA, 0x07F1FE25,
        0x120AD70F, 0x04FE0F0C,
        0xE304DDFF, 0xF6E708FB,
        0xEDFA08EB, 0x05FAF808,
        0x0AE9F8E2, 0xFEF106F7,
        0x0B020107, 0x00FC1004,
        0xF3F7EA0C, 0xFEF10901,
        0xE1F106F3, 0xFEF5F60E,
        0x11E803F4, 0xECF708ED,
        0x04F6F90B, 0xE9E61218,
        0xD7E0F506, 0x0DF10508,
        0xCF071B21, 0x1812F502,
        0x0BF70609, 0xFC1915DC,
        0x12FF0AFD, 0x07F9E415,
        0x000A02F6, 0x14F4E70E,
        0xF907FAFA, 0x0DF7F7FE,
        0xE4EB10E0, 0x0112EB0E,
        0x1502010C, 0xF4FAF70A,
        0x1AFD02F6, 0x0EEDF003,
        0xFEDDF3FC, 0x04FBEBFB,
        0xF8DEEDFC, 0x001AF4F3,
        0x110F04F5, 0x1F12F8EC,
        0x130907F5, 0x1B0100FE,
        0x0DFE0B09, 0x120B050C,
        0x00E2F20F, 0x1128E4F0,
        0x1D2E07F2, 0x2BEDEBE4,
        0x011B0FE8, 0x0DCB0602,
        0xFE180714, 0xF7F20110,
        0x010DE33B, 0xF5F9FFFE,
        0x06EA010F, 0xF80B0909,
        0x0508FFE3, 0xEBFA0AFD,
        0xFA010ED7, 0x0119FAF7,
        0xE4F8F5EB, 0x0903E5F5,
        0xF0FD09FF, 0xF60F0B03,
        0xFF08F7F4, 0xF7FE0EF8,
        0xFDFBFCE6, 0xF7100607,
        0xF802FDF0, 0x0B02F909,
        0xFE0F07F5, 0xF3080102,
        0x0CFDFAEE, 0xF20509F4,
        0xF7FC04E3, 0xFD010503,
        0xE7F707EB, 0x0E06FB01,
        0x030F0B04, 0xF802F9F8,
        0x050EF8F1, 0xFBF101FE,
        0xF9F4F6FE, 0xECE9F606,
        0xEDF50FE1, 0x00FCF914,
        0xFE05EA2B, 0x1023E21F,
        0xEF19F81B, 0x18FBE303,
        0xF91123EA, 0x110BE014,
        0xEAE519E4, 0x2509EC11,
        0x150C0311, 0xEC0E1910,
        0x01FBF904, 0xF01A0E01,
        0xF8F4F6FE, 0xFFFE0C06,
        0xF4E406DB, 0x0B02FCFC,
        0x180E0301, 0xFF150106,
        0x11FEFFF1, 0x0E0205F9,
        0xFB010802, 0x15140104,
        0xF9E3F402, 0x0D2E05FE,
        0x221A0AEE, 0x0BEFF7EE,
        0xFD07FAF7, 0x05CEFB08,
        0xF201020D, 0x14F5E00B,
        0xF8FCED1B, 0x1A15EA12,
        0xF2100502, 0xFDFD0606,
        0x000CFEFC, 0xEEF41301,
        0x070202EC, 0xFC05000D,
        0x0004EEF7, 0x05F4EDF9,
        0xEB010E00, 0xF606F9FB,
        0x02FB0909, 0xF9011200,
        0xFEFAF7FA, 0x0908FD0E,
        0x10EF0E04, 0x1905DF0A,
        0xF701FE00, 0x0404FE01,
        0x050610EE, 0x08F70EFD,
        0xFE0CF0F8, 0x0B040BFD,
        0xF8F810FA, 0x100BE711,
        0x0E111009, 0xF6EDF203,
        0x130406F8, 0x05DA1A0E,
        0x07F4F306, 0x03E31019,
        0x06E911FF, 0x0CFDFC18,
        0xD916050B, 0x19FDCEDF,
        0x263D27D7, 0xEB1B14D2,
        0x420A0BFB, 0xF6351CF6,
        0x1FD2E315, 0x15E90313,
        0xC9FF3BF4, 0xFCF7EEDF,
        0xF9171ADA, 0xF411D6C4,
        0x2A0BEAFF, 0x0104DB1A,
        0x18EAE90A, 0x13E5F91E,
        0xCFEA2606, 0x0B0CDFF4,
        0xCE0F11E7, 0x08EDFFC4,
        0x071DE20F, 0xF1E2ECB6,
        0x2213E9F9, 0x11B9D8C4,
        0xD0ED2B12, 0xFE0BEA05,
        0xCE02180B, 0x04E906FC,
        0x070ADE00, 0xE2CAD6E8,
        0x2611EDE3, 0x0681E2E3,
        0xE90718F0, 0xF3F9E2E0,
        0x0CF813E0, 0x1C19FEE9,
        0x13FFEDFD, 0x1416F3FE,
        0x0603EA00, 0xF200F413,
        0xFB0D0D00, 0x17F0E7DC,
        0x111602DD, 0x1BEF0BF6,
        0x1A03E7F0, 0x09EFF608,
        0x11FCFBF9, 0xE50806F1,
        0x120EFAFA, 0x1CF0FEF7,
        0x11020600, 0x19F61615,
        0x1B0FEE11, 0x06F10817,
        0x1F051221, 0xF21103EE,
        0x020EEB09, 0x1AF7FDE3,
        0x13121601, 0x16121E06,
        0x15140221, 0x05081309,
        0x26171626, 0xD72104ED,
        0x0317E434, 0x0C22E717,
        0xF62BDD18, 0x15FBD403,
        0xE5222CF4, 0xFFEBE6FD,
        0xEEE336D0, 0x2618D317,
        0x160A0016, 0xF1111213,
        0xFF0CF8F4, 0x01FB06FA,
        0x0002F0FA, 0xF10804FB,
        0x09E6FCDB, 0xFBF5E706,
        0x18FBFA00, 0x071911F8,
        0xFFF6F0FD, 0xFFF8FAEC,
        0xF5FC10F7, 0x0404FDEF,
        0x18E619E3, 0x19191206,
        0x1A191206, 0x0BFC11EF,
        0x09F102F3, 0xF7EF0201,
        0xEDED1DF1, 0x07F7F309,
        0x02070604, 0x080BF3FD,
        0x10EFDA04, 0xFA021908,
        0xEE0DD20A, 0xF5F916ED,
        0xF11912E5, 0xF60A0BEB,
        0x12F806D3, 0x050804F9,
        0x0BF9F50E, 0xF90005FE,
        0xEFFDF210, 0xFBEF03F9,
        0xE50A0702, 0x05F2F804,
        0x01FBFCF9, 0x01ED06FB,
        0x070C0701, 0xF1080715,
        0xFDF5FD0F, 0xFFFBF704,
        0xE8F81408, 0x0EF7F807,
        0x0EE1FFFF, 0xEB0FF1DC,
        0x05F3F3F9, 0xF3DD041E,
        0xE9D8F407, 0x04F5FB1A,
        0xC7061615, 0x1A1602FE,
        0xFA000A02, 0x002011E6,
        0xD70308C8, 0xD6EFF0D9,
        0x08E209E9, 0xFC18FEF5,
        0x16F5DE15, 0xFC190909,
        0xF801FE21, 0xE10317F5,
        0xE504F5E8, 0xDEE5E1F9,
        0x060BFB06, 0xF9FFE8FF,
        0x030DFCF5, 0xF0EDF005,
        0xF80A0306, 0xF8EA0BF5,
        0xD718F1E7, 0xF3F4C8ED,
        0xF80EF9F5, 0x1213DEFC,
        0xF6F3FB01, 0x070AF306,
        0xFBF1FF19, 0xFBF1F8FB,
        0xE520CDDA, 0xFFF00C05,
        0xFF17EFFF, 0x0F160608,
        0xEFEF0DFA, 0xF8020619,
        0x12E2F617, 0xF2F70B03,
        0xFC1E2AE6, 0x01DFF0F2,
        0x11DA12D5, 0x0A04FF0C,
        0xF1E7E538, 0x150FF004,
        0xF01F002A, 0xE4E6070C,
        0xFC10FE0C, 0x0407FAFF,
        0x0FF7F001, 0x03DB111F,
        0x160D11E9, 0xFD0DE708,
        0xED0EEFF1, 0xFCFFFEF1,
        0x010717F6, 0xFF01FA08,
        0x10FD0D0F, 0x02091E09,
        0x14EDE71B, 0x1407E20C,
        0xF6F2FA09, 0xF7E2F603,
        0xDEE3FEFD, 0x05EAE211,
        0xF6051102, 0x06152607,
        0xFB16F817, 0x232507FD,
        0x08FB000E, 0x161000F9,
        0xFA0529DC, 0x17ECCCDE,
        0x19EC24BE, 0x4015C1E7,
        0x28DFDAC6, 0x2E0CAC1C,
        0x0D05DFFA, 0xFAD6EAFF,
        0xFE011AD8, 0xF7DDE8CB,
        0x1105FADE, 0x22FAEEF1,
        0x1BEFCBF6, 0x0BF8E206,
        0x23F8E8E7, 0xD7D4FB10,
        0xF4020FF0, 0xFDD803F7,
        0x0719EDFA, 0x18E8ED22,
        0x02F9DA28, 0xFDF3F706,
        0x09FAFDF3, 0xD9E8010C,
        0xD3120C0B, 0xFDE91B16,
        0xF428FF0A, 0x07F9FD2A,
        0x1304F12C, 0xE50BFCF5,
        0x15F71CF7, 0xCB17040A
    };

    static constexpr float conv2_bias_data[8] = {
        0.024598686f, -0.0319880173f, 0.0781659484f, 0.186263636f,
        0.033602789f, 0.116532087f, 0.141329199f, 0.178352982f
    };

    //////////////////////
    //   fc1: Linear
    //////////////////////

    static constexpr float fc1_weight_scale = 0.0062106261;

    static constexpr uint32_t fc1_weight_data[1536] = {
        0x02D5F914, 0xE8FF110E, 0x02FD0000,
        0x05FFF5D4, 0x0903150C, 0xE5040000,
        0xF2F6F512, 0xF5060A18, 0x0DFA0000,
        0xF612BF0C, 0x03FFFD17, 0x1CF40000,
        0xE81002F8, 0xD2FCFD14, 0x0BFA0000,
        0xFCFF25FD, 0xF5FEF409, 0x15F30000,
        0xE3051C0C, 0x14FDE30F, 0x08EC0000,
        0xE6FD1311, 0xFCF30B04, 0xECD70000,
        0x05DFFD10, 0xFBFAE7FF, 0xF60A0000,
        0xFEE301E6, 0x000812F8, 0xE2110000,
        0xFAD903F5, 0xFD041415, 0xF4F20000,
        0xF1EBE101, 0x03FE0611, 0x200F0000,
        0xF009070D, 0xF8F9E508, 0x0D0F0000,
        0x120110F8, 0xF4FDF500, 0xF7050000,
        0xF40D0A02, 0x07F6F513, 0xF8FB0000,
        0xF7FB0F0E, 0x02F50705, 0xF1CD0000,
        0x10FF13FB, 0xE6F7F700, 0xDA1E0000,
        0xF6E70AFD, 0x0E00FDF9, 0xEB1D0000,
        0xF4E303EE, 0x05160A01, 0x08ED0000,
        0xF2E70208, 0x061AEDF6, 0x1D050000,
        0xF3010717, 0xF107F5E0, 0x04180000,
        0x03071400, 0xFFF9FF00, 0xFFF80000,
        0x010DF903, 0xFCEB0518, 0x04010000,
        0x08FD0706, 0xFAF207EC, 0x01DC0000,
        0x10071DE1, 0xFCF3FCDE, 0xE6240000,
        0xFDF20A05, 0x0113FDDE, 0xF8030000,
        0xFD02140B, 0xFD10F7F1, 0xFFE30000,
        0xF30207F9, 0x0E1005E6, 0x07F30000,
        0x0406FC0A, 0x030DFBD1, 0xF3EB0000,
        0x0000120D, 0x04F608E7, 0x03E80000,
        0x07FEEA05, 0xFDEA1204, 0x0CEB0000,
        0x0B0105FF, 0xFEEF08D8, 0x03EA0000,
        0x150803E2, 0x00F50FD6, 0xFB1B0000,
        0xF5EB0909, 0xFA1E11E3, 0xF8EC0000,
        0x0C18F4FD, 0x0C0BFB01, 0x02D60000,
        0x0DFF02EE, 0xFE0D09F0, 0x10EA0000,
        0x0706FF09, 0xFA0707DC, 0x0AD40000,
        0x03FD0A07, 0x0C0606F1, 0x08C50000,
        0x0AFEE202, 0x010C0AE5, 0x0FDE0000,
        0x0BF5FE06, 0xFDEF0CC7, 0xFBEB0000,
        0x0B1104F5, 0x01D108EB, 0xFC480000,
        0xFFFBFDF5, 0x081815EB, 0xFED70000,
        0x0F08ECE9, 0x23030500, 0x03F00000,
        0x0EF8FCFC, 0xDC0608F4, 0xFEFE0000,
        0x02F9FC09, 0x030A02DC, 0x02F50000,
        0x0904FD0D, 0x040609ED, 0x05D70000,
        0x0A06D5FC, 0x0605FEFD, 0x04EE0000,
        0x10FFF70A, 0xF4D80D03, 0xF9D80000,
        0xF018E9EE, 0xFFCB1501, 0x02290000,
        0xFA13F6F9, 0x2313FEF7, 0x08C70000,
        0x0212E0E2, 0x04080FFD, 0xF8F00000,
        0x1200F6F9, 0xD4030AEB, 0xF31B0000,
        0xF2F80501, 0x0E10FEE0, 0xFD1A0000,
        0x0D0AF807, 0x070A0102, 0xF3F30000,
        0x1110E6F7, 0x0E03EEFF, 0x01EA0000,
        0x1907F000, 0xFFD9FB13, 0xF0D80000,
        0xE81CE7E5, 0x1ECD1711, 0x0DF80000,
        0x0123FDE9, 0x260FE911, 0xFDB10000,
        0xFE27F4E1, 0xDB101306, 0xFDE40000,
        0x17190BFE, 0xE110D3F4, 0x05150000,
        0xF1F21201, 0x0B10F1D6, 0xF9260000,
        0xFF01E905, 0x030908ED, 0xFC120000,
        0x0A18DCF3, 0x0EFEF70C, 0xF6F80000,
        0x1A06DDFA, 0x07D2FD2D, 0xFADF0000,
        0xE4EFFE26, 0x1811FDFE, 0xF0FC0000,
        0x091231E8, 0x03F3CBF3, 0xC5F80000,
        0x0D0511D7, 0x1BCFF2EF, 0xD0D00000,
        0xEA03F5E9, 0x21E10CB8, 0x16B60000,
        0x0C06F6FF, 0x10F2F3D9, 0x250A0000,
        0x0F1608F5, 0xA1121DF6, 0xE1FB0000,
        0xF6050EF9, 0xCC1921F8, 0xD8EE0000,
        0xFAE8A619, 0x171CFFF8, 0x3DDC0000,
        0xEEE80119, 0x080EEEE2, 0x11F80000,
        0xF50DF2F7, 0x29EEFAE7, 0xE5F40000,
        0x0A1A03EC, 0x15EFF1DC, 0xF3D40000,
        0xFD0303F1, 0x04FCFBE6, 0x16D30000,
        0x06FF040B, 0x01E6F0EE, 0xF9200000,
        0xFAFBF11A, 0x2B07F2F7, 0xEE040000,
        0xFCFC100B, 0x211DFEE5, 0xE7F50000,
        0x0EEFCF08, 0xCF1A10C8, 0x050F0000,
        0xF0FFF511, 0x000001F4, 0x18EE0000,
        0x00F9EBE7, 0x17E00414, 0x05CF0000,
        0x0D100302, 0x06F1E70E, 0xFDED0000,
        0x0710F4FD, 0x11ECDFFE, 0x11190000,
        0x010412ED, 0xF5F4F709, 0x02060000,
        0xFBDE120D, 0xF510FCED, 0x05020000,
        0x05FB070D, 0x110BF9E9, 0xF8000000,
        0x00F6F903, 0xE2F810FA, 0xEF090000,
        0x000304FB, 0xFCFA0906, 0x14F20000,
        0x10E9E203, 0xEF012313, 0x06C50000,
        0x06F8E821, 0xE8E50C23, 0xF3060000,
        0xF005FC18, 0x04F5EF16, 0xF2070000,
        0x1DF4F3EF, 0xF9F80612, 0xF0F40000,
        0x0CDB06EF, 0xFEF2FA05, 0xFC080000,
        0x01DC0914, 0xF9E4F808, 0xF0100000,
        0x02F4FD09, 0xE5FB0E04, 0xEBF70000,
        0x00F6F5F6, 0xE3FA181A, 0x100D0000,
        0x09E6E90D, 0xEA01141A, 0x02FE0000,
        0x02F60A28, 0xE801D910, 0xFC090000,
        0xE4F8072C, 0xF50ADE05, 0x03FC0000,
        0x04E2F806, 0xEE0B0BFE, 0x00060000,
        0x09E010F5, 0xF5FBF106, 0xFE060000,
        0xF6D71316, 0xED04F105, 0x02090000,
        0xFD10070E, 0xE600FE12, 0xF6F20000,
        0xEDF4FD11, 0xF617F001, 0xF4050000,
        0x12EBE4FB, 0xFB0A0005, 0xFB140000,
        0x0E02FE0C, 0xE70CF002, 0xFFFC0000,
        0xEAF2F90A, 0xFA050508, 0xF8060000,
        0x00EBEB00, 0x0605FE02, 0x060F0000,
        0xFEF108F2, 0xEE02F407, 0x04070000,
        0xF5D80714, 0xFD01E405, 0xFC040000,
        0x0318F915, 0xEDFBEF1B, 0xEBE90000,
        0xF0F6FA13, 0x0405DF07, 0xFA000000,
        0x18F7ECF6, 0xF707FC0E, 0x0AFC0000,
        0x170208FE, 0xE504F7FE, 0x07FB0000,
        0xF30202EB, 0xE5060B07, 0x08060000,
        0x03FAFAEB, 0xEF070103, 0x06150000,
        0x05F705F9, 0xDE07FE01, 0xF40E0000,
        0x04DD0010, 0xFE07E20D, 0xEB000000,
        0xFF180308, 0xF808E108, 0xF3FE0000,
        0x06E9EEF1, 0x13F90208, 0xF7020000,
        0xFFDFF0D6, 0x18F41208, 0xEDFF0000,
        0xFBEE13F8, 0x00FDF40E, 0xF9FF0000,
        0xF6040CE2, 0xFF0DE609, 0x03020000,
        0xF107FFEC, 0xFB16E9FA, 0x07120000,
        0x08D705DC, 0xE9120DF7, 0x0D0F0000,
        0xF5CBEBFB, 0xFB0112FD, 0x020E0000,
        0xE812E808, 0x11FEF5FD, 0x170D0000,
        0xFF0510FF, 0x08DDEDC0, 0xFF0B0000,
        0xFB06FAFD, 0x01EEF1F1, 0x13F30000,
        0x01F4CC10, 0xF6011B07, 0x27F70000,
        0x0E16FCDE, 0xCEFA1D11, 0x06F90000,
        0xFEE7211E, 0xDFEFF816, 0xEE020000,
        0x08DAFA0D, 0xFE0B061B, 0x05E90000,
        0x1BE581BA, 0x03273ADD, 0x08FA0000,
        0x1FDEB9F1, 0xFE1EF3E2, 0x18180000,
        0xF317FB00, 0x0BFFECF3, 0xFB080000,
        0xF21206F5, 0xEF05F0F1, 0x0BF70000,
        0xE5FA100F, 0xF4FC1009, 0xF6F50000,
        0x0DFFEF0A, 0x19F50606, 0xCF070000,
        0xF0D7F817, 0x12F80807, 0xFC060000,
        0xFBDAF90D, 0x130208F6, 0x14F10000,
        0x160600B4, 0x0702FFEF, 0xF50E0000,
        0x00EEF219, 0xE61CEEE4, 0x08040000,
        0xFC050701, 0x00F90209, 0xEA0A0000,
        0x000DF5F7, 0xF1F20C0A, 0x04050000,
        0xF91014F7, 0x0AFCFD04, 0xE6FB0000,
        0xF9F7EEFB, 0x080610FE, 0xE3050000,
        0x07D703F9, 0xEFFF0D05, 0x05FD0000,
        0xFD0EFBF3, 0x1509FBDB, 0x25FB0000,
        0x061CE1CF, 0x25101DE0, 0xFA050000,
        0xF401E60B, 0xCB070DFC, 0xFEF30000,
        0xF9F9FA04, 0xFDF90809, 0xF4110000,
        0x05FB06FC, 0xF2FA0203, 0x00130000,
        0xFD0B1400, 0xFFFCEEFF, 0xF5050000,
        0xF20E15FC, 0xF101ED01, 0x0CFC0000,
        0x08FFF707, 0xFA02FEF7, 0x05F50000,
        0x0B16F6FF, 0x160AF7F9, 0x04F30000,
        0xFB1CE3FD, 0x2F0F0305, 0xF6F70000,
        0xE80F09EF, 0xE6F90817, 0xEBF90000,
        0x07F6EB05, 0xF4E8081A, 0x050A0000,
        0x030213F9, 0xEAFB03FD, 0x04170000,
        0x0E07FA00, 0xFE09EFFD, 0xFDFD0000,
        0xE2130D02, 0xF20900FB, 0x0BFF0000,
        0xF90102FB, 0xF80504F6, 0x16000000,
        0xF41CF8FC, 0xFF1CF8F1, 0x0BD90000,
        0x0216EF11, 0x0E16FDF6, 0xF5DC0000,
        0xF42100E1, 0xFAF2EF22, 0x02FB0000,
        0x0CF7F703, 0xF1E20C0A, 0x080F0000,
        0x02FC0FFB, 0xF6EC0305, 0x090F0000,
        0xF914F501, 0xF80300F4, 0x090A0000,
        0xF20C01F9, 0xFC0B01E9, 0x0F010000,
        0xF11E0B02, 0xF911ECF8, 0x0AEB0000,
        0xE938F80D, 0x1419F3FF, 0xFCC30000,
        0xFD14DE1D, 0xFE0E15EF, 0xFBF00000,
        0xEB28EFE8, 0xF0FEFB13, 0xF5FA0000,
        0x07EDF3F7, 0xE9E50819, 0x12060000,
        0xFD0412F2, 0x0BF4F6F4, 0x160D0000,
        0xDC11FCFC, 0x0A0BF5FA, 0x18F60000,
        0xEF07FC04, 0x010CF2FE, 0x0A010000,
        0xDD350111, 0xFC18E7FE, 0xF7ED0000,
        0xE14EFB10, 0x0D03E602, 0xF1E10000,
        0xFA16ED28, 0xFB04FFFF, 0x0CF90000,
        0xE118FEF4, 0xD1FA0301, 0x02150000,
        0x0FEDE001, 0xEEDE0712, 0x0E130000,
        0xDB0A09FF, 0x28E1E6FA, 0x12210000,
        0xE214F8F1, 0x06FF08F3, 0xFE030000,
        0xF60A0A0F, 0x050FE1F8, 0x0D030000,
        0xC95B01FD, 0x0A06DEF5, 0x03060000,
        0xB858FEFA, 0x1505EFFE, 0x12030000,
        0xF510E60B, 0x1018F3F4, 0x24050000,
        0xCF09D7FD, 0xC70C23FA, 0x270A0000,
        0x080A0B04, 0xF5AE0AF5, 0xF8E70000,
        0x00F7090D, 0xF0B913EA, 0x08E90000,
        0xF3091117, 0xF1C6FBDA, 0xECEF0000,
        0xEFFC1B0B, 0x02D506CC, 0xF60B0000,
        0xDDF7EEE1, 0x17E941DB, 0xC6F50000,
        0xFBF31415, 0x1700F1EE, 0xC7010000,
        0x231B210C, 0xC1FC0516, 0x9CF30000,
        0x1232EADE, 0xBB3421F1, 0xC6E10000,
        0x030605EE, 0xF1900FF4, 0x02C30000,
        0x03E804FF, 0xFACC0ED9, 0xF5E10000,
        0xEE08F910, 0xFE01FFC3, 0x00FD0000,
        0xF4FE1512, 0xF30DF0CF, 0x05090000,
        0xF709FDFA, 0x101F00E1, 0xE9EE0000,
        0xFAF11507, 0xF8200CF7, 0xD1F00000,
        0x020DF2E7, 0x25121208, 0xC4ED0000,
        0x13090DE7, 0xEF140510, 0xCBE50000,
        0x00060F08, 0xF0820EE6, 0x10C00000,
        0xFCF6F905, 0xFFCC08AB, 0x060D0000,
        0xFEF7020B, 0xF615FEDE, 0xEB080000,
        0x03F50B0C, 0xF00CF8F0, 0xF1160000,
        0xF604E7FE, 0x1A0709FB, 0xDDF90000,
        0x1406F211, 0x000AEC04, 0xF2F50000,
        0x08FF02F6, 0xFC05FD09, 0xE9F40000,
        0x0306EE0F, 0x0CFB0DED, 0xF9130000,
        0x04F80DFB, 0xFEAC04BD, 0x0FE10000,
        0x0C0102FD, 0x00DBFFDB, 0xFE040000,
        0x0005EF09, 0x0517FDF6, 0xEF0C0000,
        0xFDFB0017, 0xF303FE0E, 0xEE010000,
        0xF000FB07, 0x09FB010B, 0xF6FF0000,
        0x0E06F4FF, 0xF70FF5FF, 0x01010000,
        0x170DDEFB, 0xFD080C05, 0xE9F80000,
        0x00FE0208, 0x00F80000, 0xE9FB0000,
        0x0FF50EFD, 0x08EF03D8, 0xFACD0000,
        0x0CFC0CFE, 0xFFEF05F7, 0xF8F40000,
        0x0304FCF6, 0xF9E80114, 0x02060000,
        0xFCFA1B0C, 0xF305F2FD, 0xF6F20000,
        0xFEF3F418, 0xF204FDEF, 0x04130000,
        0xEC04FA05, 0xF201EB08, 0xF9080000,
        0xFB10F20A, 0xFF0AFFFF, 0xFA030000,
        0x05F7010C, 0xF21E0DE7, 0xF6F90000,
        0x14EF0A0A, 0xFBF806ED, 0xE4D30000,
        0x03FB05FF, 0x0CFE01FB, 0xEDDA0000,
        0xF8110605, 0x07FEFD13, 0x03EA0000,
        0x07FD0102, 0x05FDFC04, 0xFBF50000,
        0xFDF4E90C, 0x05FC00FD, 0x01000000,
        0xEC0EFC08, 0xE80E0800, 0xFA050000,
        0xF622ED07, 0xFB10EE0D, 0x0FFC0000,
        0xFB12F11A, 0xF40DF3F6, 0x0AFE0000,
        0x07FD0312, 0xFEF40DF3, 0xF1E60000,
        0x05FB0307, 0x0D01FCFD, 0xEFE70000,
        0xFF040905, 0x06FEF603, 0x05020000,
        0x0709FCFC, 0x02F9F701, 0x0AFA0000,
        0x04F4FAF7, 0x11FFFA07, 0x18ED0000,
        0xEC18FAE5, 0xF01605F9, 0x08FD0000,
        0xFC28EF02, 0xF815F106, 0x06F70000,
        0xF821E30E, 0x06FAFAF6, 0x111F0000,
        0xFEFE0708, 0x06FB09E7, 0xF3EC0000,
        0x0BF20009, 0x00FD0AF5, 0xE7EC0000,
        0x05FB0904, 0xFAF801FA, 0xF3020000,
        0x00070CFD, 0x12EFEDFC, 0xF9FF0000,
        0xFAF21300, 0x1506E50D, 0x13E40000,
        0xE92B0DE5, 0xFA20FD02, 0x01E80000,
        0xE71A02F9, 0x0F13E90B, 0xF00B0000,
        0xF421DFF7, 0x0F1E02E0, 0x09130000,
        0xFBF704FC, 0x0107ED07, 0xFF030000,
        0xFDDB07F3, 0x0BFF02FE, 0x0DFD0000,
        0xF6E70508, 0xF905F40B, 0xFC030000,
        0x14F1FFE6, 0xEE03F60E, 0xFB020000,
        0x1CD6EFEC, 0xED03140B, 0x06FB0000,
        0x19D6DBC8, 0xF21426FB, 0xFB030000,
        0xFFCCE0FC, 0xF7FD06FA, 0x050E0000,
        0xDEDFE824, 0xDBE2E911, 0x2F140000,
        0xF90203FC, 0x0808EE00, 0xF7040000,
        0x07FC0CFD, 0x0201DE0A, 0xF3090000,
        0x0001090E, 0x0B03CF00, 0xF4080000,
        0xFE0D05F9, 0xF60AE30E, 0x0DF90000,
        0x12F9FC0D, 0xFE0CDE03, 0x0BF20000,
        0x19E20FDA, 0x0F11F8F7, 0xEE080000,
        0x0AF4E9EF, 0x0AF8E603, 0xFF0B0000,
        0xF002CD06, 0xA0EC0210, 0x37FE0000,
        0xFB00EC07, 0xFE00000E, 0xEA0A0000,
        0xF5F1F901, 0x010CFE04, 0xFB0C0000,
        0xFFE1FCED, 0xFD10EFFC, 0x06080000,
        0xFBE20FE5, 0xE500EA0F, 0x10FF0000,
        0x11F315E5, 0xE212EE01, 0x01FE0000,
        0x0FD20FB1, 0x02140F03, 0xF3FA0000,
        0x02F30ACC, 0xE2060008, 0x06FA0000,
        0x0D0DDCDA, 0xE7EDFB14, 0x27FC0000,
        0xEDF8DA00, 0xFD000B03, 0xF0030000,
        0xF4EDEC0B, 0xF90FF702, 0x06040000,
        0xF2EDF5F4, 0xF60DFB07, 0xFD090000,
        0x04DD00FE, 0xEF09E103, 0x01020000,
        0x01D909EA, 0xF508FC0C, 0xF8FD0000,
        0xFCEA1FD5, 0x0C06FD02, 0xF1FB0000,
        0xF2FF15D9, 0xFDFAF10E, 0x03F80000,
        0x0017ECE8, 0xE4EAE217, 0x11F60000,
        0xFBFCED0B, 0xF6030707, 0xF40F0000,
        0xE1FCE110, 0xFB0AF505, 0x0F130000,
        0xE6DBF411, 0xEA0BFC08, 0x0A000000,
        0xF4C5F80E, 0xE60BF512, 0x0FFD0000,
        0x00E6FAEF, 0xEC08FB00, 0x0A080000,
        0x11090CF0, 0x1509F1F4, 0xE7040000,
        0xF40220EB, 0x0109E902, 0xF2FB0000,
        0xF608E4FB, 0xE504E207, 0x03F90000,
        0x1101E8FC, 0xE8050605, 0xE6170000,
        0xE105E5F5, 0xFA0C02FD, 0x09140000,
        0xE5E3FDFB, 0xF60FF201, 0x110B0000,
        0x06D604F5, 0xD801FC11, 0x14F60000,
        0xFCFF02F0, 0xF3FD0F00, 0x12010000,
        0x0420FDF8, 0x1C1101E3, 0xED0A0000,
        0x070806F1, 0xF708E9EA, 0xEC130000,
        0xF101DF0A, 0xF310E402, 0xF00A0000,
        0x0A03E305, 0xF60AF8FA, 0xE1140000,
        0xED00F5FE, 0x09FEEF00, 0x09130000,
        0xFCDFFCF5, 0xF9030307, 0x13060000,
        0x00E500F6, 0xDCFA1A19, 0x0EF10000,
        0xEF0A00EB, 0xFCF30808, 0x0EF60000,
        0xF60CFEF1, 0x15FBFAEB, 0xED080000,
        0xE7080007, 0xFF0B09DA, 0xE91B0000,
        0xEA13CF0C, 0xF81CF3F7, 0xED0D0000,
        0xF807C8FD, 0x1417F4F4, 0x0B100000,
        0xE6EFE103, 0x10100AFA, 0x190B0000,
        0xFDD1FEE3, 0xE0FE3D0D, 0xFB020000,
        0x05E8190B, 0xE8EFF511, 0x06F00000,
        0xEAFF2CF2, 0xFDFACFFA, 0x1BF70000,
        0xFCF619D3, 0x25FFD4EB, 0xFA030000,
        0xE0F10BE5, 0x290BEAED, 0xEA030000,
        0xDE1ED0F2, 0x060DFC01, 0x02080000,
        0x2605FAEB, 0xD8A500CC, 0x0DDA0000,
        0x13EC1800, 0xF2A4F9B9, 0x10DD0000,
        0x00EB090F, 0xFFBB03CA, 0xFFBF0000,
        0x02011406, 0x03FCE8CA, 0xFAD80000,
        0x0104FD03, 0x0B13EBE2, 0x08F70000,
        0x0C0FEBFD, 0xE8101AE2, 0x11F80000,
        0x02F61B0D, 0xD717F5E4, 0x0B090000,
        0x1BCFCA0C, 0xB1170DF6, 0x19070000,
        0x0F0BE304, 0xEEB41C95, 0x06F90000,
        0x0BFF07FC, 0x05E1059A, 0x02F70000,
        0xF8DA0A01, 0x11E902C8, 0xEDD50000,
        0xFCFAFED9, 0x21F5FB0B, 0xFECC0000,
        0x000606F9, 0x1AF9DA0B, 0x1BF00000,
        0x06070DFF, 0x0921F2DA, 0x05000000,
        0xFEFC21E3, 0xED1C07EE, 0xFC020000,
        0x10EDEFE1, 0xDB1909F7, 0x030E0000,
        0xE9150827, 0xF3BC01F5, 0x07E30000,
        0xFD090715, 0x06E208F8, 0x09CA0000,
        0xF7EC0200, 0x10F4FA07, 0x06B90000,
        0xFBF203ED, 0x13F4F915, 0x08ED0000,
        0xF4050704, 0x0008E4FE, 0x1E020000,
        0xE9FFEF01, 0x080F14ED, 0x05010000,
        0x14FC02DA, 0xFCFB0108, 0xFFF30000,
        0x08F6E1CE, 0xF4F00910, 0x0F110000,
        0xE90C0F0A, 0x09E5000B, 0xF4120000,
        0x00FB0AE8, 0xFD0708F2, 0x09F80000,
        0x0AF101FC, 0xF80CFBF7, 0x00000000,
        0xF2F9FA01, 0x00FC040A, 0x04F70000,
        0x0508F9F8, 0xFB01EC0A, 0x11FA0000,
        0xEFE10319, 0xF4020D0C, 0x09020000,
        0x0CF2FBDA, 0x09FF0C0E, 0xE4FA0000,
        0x09D7CFDB, 0x06FF0D1F, 0xEAFF0000,
        0xE7F91A0E, 0x03EEF706, 0xE2180000,
        0x0B0706F5, 0xEC1009F9, 0xFBFA0000,
        0x02F20C13, 0xEF05F309, 0x08EE0000,
        0xF9F202FB, 0x0002F102, 0xF4F90000,
        0x0BF5F507, 0xFE01EC00, 0x11050000,
        0xF8E9F625, 0xEF010B00, 0x0A070000,
        0x05EBEBDE, 0xFC081600, 0xF9000000,
        0xF6D7DC15, 0xF20AFE16, 0xEDFC0000,
        0xF5E0FF11, 0x0BF20205, 0xCC130000,
        0x0D0D0AFE, 0xF70BFD08, 0xF7000000,
        0xF3EA10F6, 0x0603F70B, 0x06F90000,
        0x07F202F0, 0x0102FD0B, 0xFB010000,
        0xFDEEF408, 0xFB0B0103, 0x0C040000,
        0xEAEAF418, 0xFB0208F9, 0x02110000,
        0x06E8F2EA, 0xF8FF1012, 0xFB0A0000,
        0xD7E7F408, 0xFBF30C21, 0xF7030000,
        0x19F704F4, 0x0D02E9FB, 0xE2110000,
        0xEA130AF6, 0x021402FF, 0xE6000000,
        0x03E6FFE8, 0x07F90303, 0x08050000,
        0x0CE506F0, 0xF904FCFD, 0x06080000,
        0xFEF107F0, 0xF4FB0F0B, 0x13050000,
        0xF2EF050D, 0x01FB060C, 0x050A0000,
        0x0EECF5E0, 0xF5F81006, 0xFDFD0000,
        0x020800F9, 0xEDF9DB0F, 0x06030000,
        0xEBEFF4E5, 0x05030DEF, 0x09110000,
        0xECD807EE, 0x080D11F3, 0xE00A0000,
        0x0AC100E5, 0xFD031BF6, 0xE80B0000,
        0x040011FA, 0xF70AF9F0, 0xF80E0000,
        0x000D0600, 0x0005E904, 0x04040000,
        0xFDCC0406, 0x01F6F603, 0x14FF0000,
        0xF7CCEBF7, 0x03FB1517, 0x09F70000,
        0xDFE0E1FD, 0xD9EB1624, 0x31FF0000,
        0x1439EEEC, 0xDDCD1EE9, 0x02E70000,
        0xE52B191D, 0xE6C7FED4, 0x00FD0000,
        0xF92BFA08, 0x09A0FAE0, 0xD6140000,
        0xF81223FA, 0x04C2F4C5, 0xD5140000,
        0x121F3CE5, 0xD3F6DDB8, 0x0B050000,
        0x073C0407, 0x0B01DBCC, 0xD9270000,
        0x23220F40, 0xC0FCD0DD, 0xF8250000,
        0x0B05E102, 0xB90613DC, 0xED240000,
        0x10F9FCFA, 0xF0E415D2, 0xFEC20000,
        0xF9EC020E, 0x01DF11CB, 0x0DFA0000,
        0xF5F4FFFF, 0xF4FB22EB, 0xDDE60000,
        0x11FFF206, 0x04F80ED1, 0xCB100000,
        0x0CF5E507, 0x030B17DF, 0xFF000000,
        0x0006F3FE, 0xFD061CF1, 0xE30E0000,
        0x0E1702FE, 0xE0FC10D6, 0xE51A0000,
        0x2DF63CB8, 0xD214C4D4, 0x09230000,
        0x090DFA04, 0x07CBFBF3, 0xEDC00000,
        0xF3040C16, 0x05D6F9F4, 0x0FEE0000,
        0xEE0C0017, 0xF8E809F6, 0x14E20000,
        0x0416FAFC, 0x0605FEEE, 0xF4F00000,
        0x0301EB08, 0x0416FEE9, 0x03ED0000,
        0x0007FBF2, 0x03FB0504, 0x030B0000,
        0x070B0910, 0xEEEB0DF1, 0xF20F0000,
        0x27F60ABB, 0xF2FFF8E2, 0xFA160000,
        0x110603F4, 0xFCC301E1, 0xEDD80000,
        0xFE020F07, 0x05D9FABF, 0x19FA0000,
        0xFF130913, 0xFDC0F9E6, 0x0E140000,
        0x0A0FED01, 0x0FE7FBE9, 0xF3130000,
        0x0904F408, 0x0D0CFAF8, 0x01EA0000,
        0xF60BECF7, 0x10F00C14, 0x1D030000,
        0x03F40109, 0x00EA0804, 0xFB0A0000,
        0x12E6FBC4, 0xFF04FA10, 0xF90B0000,
        0x09FB04FA, 0xFBED12C4, 0xF7D10000,
        0x00050AF8, 0x08F904CD, 0x04D10000,
        0x07080809, 0xFDDDFCFF, 0xFFF30000,
        0x0B06FFFF, 0x05EEF801, 0x01F80000,
        0x070202FD, 0xFB06FBFF, 0x02ED0000,
        0xF9FFFBE7, 0xFBF00B18, 0x18FE0000,
        0x03F60802, 0xFEED0915, 0x08070000,
        0xFDFBF3CA, 0xFBFD0E17, 0xFF080000,
        0xFFEFFE17, 0x0C0905D1, 0xF3D70000,
        0xFF0A080A, 0x0AFA00E5, 0x03CF0000,
        0x00FC0106, 0x0BD9FD1D, 0x01E80000,
        0x05FC05FB, 0x03FD0204, 0xF5F80000,
        0xFD051201, 0xFF0AFAFC, 0xFAFA0000,
        0xF3F907E7, 0xFF0602FD, 0x14010000,
        0xF80507FF, 0xFFFFF601, 0x080E0000,
        0xF9F506E6, 0xF7090207, 0xFB0C0000,
        0x03EF0614, 0x0B04EEF3, 0xF9D80000,
        0x050B08F6, 0x0A01F6F8, 0xFDD60000,
        0x0902FDFA, 0x06EBFB04, 0xFFFF0000,
        0x07F101FD, 0x0BFA01F3, 0xF4050000,
        0x040E0804, 0xFCFAF7FE, 0xFF0F0000,
        0x02F1FDFF, 0xEF060E09, 0x07FB0000,
        0xFF070104, 0xFDE9EB08, 0xFD0D0000,
        0xEF00F9FC, 0xF2E50820, 0xFD010000,
        0xF6EB0D04, 0x14FA01F5, 0x0BE80000,
        0x01F9FD03, 0xF5011DF0, 0xE9DF0000,
        0x0EEAFF00, 0x04F90BFD, 0xF8FC0000,
        0xFF011004, 0x15FBE9F3, 0xF2050000,
        0x041B0CFB, 0x0DF6ED08, 0xF5F90000,
        0x0AD20800, 0x0301F50C, 0x09FC0000,
        0x0213F602, 0x04FDF707, 0x03050000,
        0xE2FF02E2, 0xFD020F0A, 0x08020000,
        0x0A030AE4, 0xFDDE13CD, 0xF6E00000,
        0xFF170DFD, 0xE9EA0DDF, 0x09050000,
        0x03040E06, 0xF8EB0BF6, 0x00FC0000,
        0xFD110111, 0xF5E50FF0, 0xFC040000,
        0xFCFE0801, 0xF5F904FB, 0x12F90000,
        0xF901FE05, 0xFCF7FEF7, 0x21040000,
        0x07FF0D01, 0xFCD8F608, 0x06030000,
        0xF5E4EFF9, 0xFCB40917, 0x0E0D0000,
        0xF708FDF7, 0x22CCF4DA, 0x0EBE0000,
        0xF4130F01, 0xFDDCF6EC, 0x0EDF0000,
        0xFD09FCEE, 0x0AE309E4, 0x04FF0000,
        0x020CF802, 0x09F410EF, 0x01020000,
        0xFEFEFFFF, 0xFA03FEF7, 0xFEFC0000,
        0xEF1809FF, 0x03F4F7F6, 0x04070000,
        0x090F01FC, 0x02E70208, 0xFC0D0000,
        0xFABEE9F7, 0x0CDC1700, 0x04110000,
        0x0100FFE7, 0x18D9FDD1, 0x1AC70000,
        0x04F604FB, 0x02F806D9, 0x0FE10000,
        0x0DF50DE2, 0x08E40CF2, 0x04EE0000,
        0x09F602F8, 0x06F10DF6, 0xFAFB0000,
        0x10EEF907, 0x06FB02F5, 0xF9FF0000,
        0xE9190A0F, 0x07F0F911, 0xF6FA0000,
        0xE31BFAFF, 0x10F9F903, 0xFCFF0000,
        0x05D900F7, 0xFADE1406, 0x01110000,
        0x071F1207, 0x09F6F2CF, 0x1FD10000,
        0x09020005, 0x100BF3DA, 0x1ACD0000,
        0x0D000FFF, 0x0603F1F3, 0x0FDB0000,
        0x03F301FB, 0x04F60DF8, 0x05F30000,
        0xFDE5FA09, 0x09F712F8, 0x04FC0000,
        0xF1030916, 0xFFFFF702, 0x0EF50000,
        0xFA05E912, 0x1305EBF2, 0x18040000,
        0x07FBF518, 0xF7F714FE, 0x08060000,
        0xFB190702, 0x00FC01DE, 0x26D50000,
        0x0E03EC0B, 0x0312EDE8, 0x32E30000,
        0x05030209, 0xF920FBF6, 0x12D90000,
        0x01EE030C, 0xFA150BF1, 0x07EC0000,
        0x02E80B06, 0xFEFB09E4, 0x0EF90000,
        0xF4F8FC10, 0x05DB01F7, 0x15050000,
        0x17F9F005, 0x04DFF9F3, 0x180D0000,
        0x0D0AF202, 0xFDF20BFC, 0x08060000,
        0xFE13EFE9, 0x08F510D9, 0x18010000,
        0x14FBEDFF, 0x0BF408F4, 0x1CED0000,
        0x01F606FB, 0x03FC08F2, 0x11E40000,
        0x07F10A11, 0xFA06F7E8, 0x0BEE0000,
        0x04E70A04, 0xFFE1FFED, 0xFB050000,
        0x06F401FD, 0x0FF40105, 0x01EC0000,
        0x15EFF806, 0xFDF807F8, 0x05030000,
        0x1D0AF5FA, 0xF2E20601, 0x12100000,
        0xFA07FF0F, 0x22F6D5E7, 0x18FE0000,
        0x15EAFD09, 0x0DE9F5EA, 0x05F40000,
        0x06E610FE, 0x1505F3EC, 0x01E20000,
        0xFDFA1D08, 0xF305EFE6, 0x0DF40000,
        0xFDD9160F, 0xEFDDFCF2, 0x09F10000,
        0xF6E01B09, 0x08E7F718, 0x02E70000,
        0xFFF7E00D, 0x0FE70A12, 0xF2000000,
        0xF6EED31F, 0xFBE51205, 0x06180000,
        0xFF13DA13, 0x221CB9DF, 0x38070000,
        0x10E2FCFE, 0x040A06F9, 0x16F90000,
        0x14C40DE4, 0x00FCF6F8, 0x17F80000,
        0x12E423F3, 0xDDEEF9EF, 0x20F50000,
        0x0AC10D04, 0xE3D21A06, 0x17ED0000,
        0x0BE2FA00, 0xFAD60614, 0x22ED0000,
        0x0614EE0B, 0xE8010006, 0x22E50000,
        0xF6ECD02E, 0xED1D05FC, 0x1AEE0000
    };

    static constexpr float fc1_bias_data[10] = {
        -0.0289619118f, -0.0917533934f, 0.0750336051f, 0.0289934538f,
        -0.117703266f, -0.037671905f, 0.123447679f, 0.0077501717f,
        0.13179332f, -0.0355596021f
    };
};