#pragma once

#include <stdint.h>

class ModelParameters {
public:
    //////////////////////
    //   fc0: Linear
    //////////////////////

    static constexpr float fc0_weight_scale = 0.00557260448;

    static constexpr uint32_t fc0_weight_data[432] = {
        0x09FE0B0D, 0x0A00F8F9, 0xFDFB0000,
        0xFDF70708, 0x010407F2, 0xFAF50000,
        0xF5F6F5FB, 0xFB04FB0A, 0xF9120000,
        0x100FF106, 0x0DF0FCF6, 0xFF060000,
        0x03040A0B, 0xFB020FFF, 0x0FF90000,
        0xF509F6FC, 0xF5ED00F2, 0xF7110000,
        0x0A0C0A03, 0xFEEC1809, 0x02030000,
        0x080CEFF0, 0x09F30901, 0xFF0C0000,
        0x09F9010D, 0xFBEB0DF4, 0xF7F90000,
        0xF3FBFCFB, 0x0AEB10EE, 0x140A0000,
        0xF8F603F2, 0x01FF0507, 0xFCF80000,
        0xF4FCF6F3, 0xF7EC06EF, 0xF8F70000,
        0x030101FE, 0x03FC09F6, 0x020A0000,
        0xF8FD07F5, 0xFAF70FF3, 0x0CFD0000,
        0xFD01F907, 0xFDF50407, 0x11050000,
        0x06FD0005, 0x08F604F2, 0x0A030000,
        0x0AF20F14, 0xF9F914EF, 0xF6EF0000,
        0xF903240F, 0xE9F119FE, 0x04000000,
        0x060726FB, 0xF3F71CEC, 0xFBF80000,
        0xFF05020D, 0xFCEC43F2, 0xFAF30000,
        0xF10CEFF1, 0xF4EC29FC, 0xF5FB0000,
        0xF0FEE9F0, 0x06F80F01, 0x0C0B0000,
        0xFF0FF0F7, 0x03020702, 0x0CFC0000,
        0xFAFF060C, 0x09FAF306, 0x08080000,
        0xFB000AFA, 0x0EF20209, 0x0E0B0000,
        0xF3FF0911, 0x07F60AF8, 0x11080000,
        0xFBF50F1A, 0xF8F0080A, 0xF7F60000,
        0xFC002F29, 0x05FD02F1, 0xF4E30000,
        0xFBE93B31, 0xF2F4F6F8, 0xFDD90000,
        0x05053B2D, 0xD303E8CA, 0x2AE60000,
        0x1EF63A22, 0xC9E7E7AB, 0x35010000,
        0x21F32402, 0xEB0306C8, 0x31ED0000,
        0x090A04F5, 0x0C1100E2, 0x02E50000,
        0x0806FDE7, 0x1A31FBF0, 0x07D60000,
        0xFAFC02FC, 0x05260CF5, 0x0DF50000,
        0x00FEF904, 0x0EFC0A04, 0xF8050000,
        0x09FC040B, 0xF7F50AFF, 0x06020000,
        0xF902FDFB, 0x00E5060D, 0x0DFD0000,
        0xF7FD0A2B, 0xFEF4EB20, 0xFAF40000,
        0xE6EC1B10, 0xFFFFEA36, 0x19DE0000,
        0xF9C91506, 0xEC20E123, 0x16F30000,
        0x19E10CF7, 0xC711D72A, 0x09490000,
        0x2CEE0527, 0x81EAE322, 0xE2600000,
        0x35EC0C22, 0xD3F6AA29, 0xF4330000,
        0x22FBF91C, 0xEF15B50F, 0x0DFB0000,
        0x0CE4F100, 0x0337CE05, 0x19D20000,
        0xF8EBE3EC, 0x0753EAF1, 0x1CE50000,
        0x02F5F303, 0xF700FAED, 0xFB070000,
        0x09F704F9, 0x0DFEF303, 0x07F50000,
        0xFAFAFBF7, 0xF8EC0007, 0x0EED0000,
        0x070602FC, 0x06000624, 0x1B040000,
        0xF8DCDDCD, 0xF72A0C28, 0x281C0000,
        0x0CC1CEA3, 0x1B30F425, 0x35340000,
        0x0EEECED3, 0xFD300D24, 0x21F40000,
        0x0054EB3F, 0xC1F1CA41, 0xE3DE0000,
        0x07E70230, 0x10CDA86A, 0xE4040000,
        0x23D9FD1E, 0x00D2B238, 0x1B290000,
        0x2CD2FAFA, 0xEDF4E703, 0x30080000,
        0x13EB02FA, 0xE513F803, 0x1AE90000,
        0x04FAF7FF, 0xFA09FEF5, 0xFC0A0000,
        0x0A07F308, 0x0405F3FA, 0x0F060000,
        0xF008F3F7, 0x0AED02FF, 0x03080000,
        0x0A01CAF7, 0xFF00FFFF, 0xFE1B0000,
        0x13EEB7C8, 0x352C1305, 0x0A3D0000,
        0x1FA8A3D9, 0x545320D2, 0x04130000,
        0xE9F2AA2E, 0x0D5A0C9C, 0x45E90000,
        0xA175C73C, 0xE7E8E0D1, 0x1B180000,
        0xB6D4EE1F, 0x32BFE91D, 0x15530000,
        0x0ED5FB01, 0xF3C1071E, 0x073A0000,
        0x33EFE3E3, 0xFAC11A02, 0x19120000,
        0x27FAF8F8, 0xF3F114EE, 0x10020000,
        0xFD04F900, 0x0AED09FF, 0xFEFF0000,
        0x04FCFAFE, 0x10F6F7FF, 0x03050000,
        0x07F9F9FB, 0x0DEDF5F6, 0xFC070000,
        0x1906E3E8, 0x1EE201F8, 0xFB0B0000,
        0x29DBEBD7, 0x4CF00FE2, 0xD2140000,
        0x25A80CE2, 0x502137A3, 0xE20B0000,
        0xB2191317, 0x19FD118D, 0x52030000,
        0x853C0BFA, 0x29D20DE2, 0x370D0000,
        0xCBB7FB14, 0x55DF0232, 0xE1460000,
        0x09DCF10E, 0x1BFA0C1B, 0xDDF50000,
        0x2BFFE104, 0x0CF22B09, 0xE3E00000,
        0x1EF40A07, 0xF1E41BF6, 0xFE010000,
        0x10FC0AF1, 0xF5FB0CFB, 0x06050000,
        0xFC1200FC, 0xFCFEF8F8, 0x06060000,
        0x0EF61007, 0xF9F2F903, 0xFBF90000,
        0x10EE16FE, 0x1100EDF9, 0xECF90000,
        0x33D821E0, 0x19E222CE, 0xF8F80000,
        0x1FEA35B4, 0x0AAF4ECA, 0x3B050000,
        0xB8303AB6, 0x17CB1FE2, 0x35E50000,
        0xB71924D7, 0x4CD5F11B, 0x05040000,
        0xECA31220, 0x2BFBF802, 0xF0040000,
        0x0AE40B2D, 0xF9052100, 0xDEDE0000,
        0x1DE91C0C, 0xECFA19F9, 0xE6DD0000,
        0xFDF8270A, 0xF7F5F702, 0x00F20000,
        0x0B03FBF1, 0x06F0F2F8, 0xFAFE0000,
        0x02F6F6F5, 0x0AF0F6FD, 0x08FD0000,
        0xEFF71411, 0x09F30102, 0xFCF60000,
        0x11E73627, 0xDD24EADF, 0xFAF80000,
        0x34E54202, 0xCF2C0CCD, 0x25C80000,
        0x20062BCA, 0xAB0C5CC9, 0x27B60000,
        0xED1931C4, 0xDAF15609, 0xE4D00000,
        0xF3010BF6, 0xFEF23607, 0xC9020000,
        0x13D51333, 0xEA004DDF, 0xF3DE0000,
        0x06E62C35, 0xD81C21D5, 0xFAF00000,
        0xF5E9371B, 0xF10D05DD, 0x09E80000,
        0xF80C33F7, 0xEFFFF8EC, 0x0D080000,
        0xF5FE0407, 0xFBF4FEFC, 0x12000000,
        0xFA0803FF, 0xFFFDF4F4, 0xF9080000,
        0x02FA0009, 0x04F900F1, 0x0B040000,
        0x0315113F, 0xEEFAF6FB, 0xF9EA0000,
        0x18121A27, 0xCE28E3E0, 0x05D80000,
        0x37F2110F, 0xD329E3EB, 0x02CF0000,
        0x2ECFEE07, 0xE8131EF2, 0x17CA0000,
        0x2008E70F, 0xEB1416EC, 0x24D20000,
        0xFF060D21, 0x031C00E7, 0x14D40000,
        0xFAF12604, 0x0E08E9D6, 0x0FFF0000,
        0x02FB2C07, 0xFF0EFAF1, 0x040D0000,
        0xF9060AF3, 0x0203EF01, 0x09000000,
        0x0E03F1FF, 0xFBFBF908, 0x07080000,
        0x09F60405, 0xFAF2FAF0, 0x14000000,
        0x0805FCFE, 0xFCF40AEE, 0xFFF70000,
        0x0D05EC13, 0x0AFFF811, 0xFF040000,
        0xFF0AE51D, 0xFC05EF15, 0xEC040000,
        0x07EEE22D, 0xF4FFE428, 0x17140000,
        0x04DBD51C, 0xE11FD616, 0x37170000,
        0xF7E8DF01, 0xF9FDCB16, 0x34F30000,
        0xF60CE9FF, 0xF2FBD6FE, 0x1F1D0000,
        0xF706F0FE, 0xFE01EEF3, 0x08180000,
        0xF1F80903, 0x05F1F3FC, 0x071C0000,
        0x0F0E04F4, 0x0D020701, 0x03FD0000,
        0xF4F70BF4, 0x00EBFF05, 0x0A0A0000,
        0x0E09FE0D, 0x02010807, 0x07F90000,
        0xF6FE0BFF, 0x03F30000, 0x0AFF0000,
        0xFE0A0408, 0xF200FE09, 0x0E0D0000,
        0x060DECFD, 0xF9FEF604, 0xFF160000,
        0xEF06FD0D, 0xFFFBF310, 0x040A0000,
        0xF8FDECF9, 0xF9FAFA2B, 0xFE130000,
        0x06EE0403, 0xF2F5FA25, 0x07180000,
        0xFDF9EFF0, 0xF8E70B06, 0x02170000,
        0xF3FF070C, 0xFEF9F9F4, 0x040B0000,
        0xF7FCFAFE, 0x0CE7FCF8, 0xFF060000,
        0x0A02070B, 0x0FFA0B05, 0x0C100000,
        0xFFF9F005, 0x0EF70402, 0x030D0000
    };

    static constexpr float fc0_bias_data[10] = {
        -0.0711622238f, -0.0198534131f, 0.0732812807f, -0.0377006419f,
        0.00147798308f, 0.16593191f, -0.0606248118f, 0.0177285559f,
        -0.157607436f, 0.0245540738f
    };
};