// DO NOT EDIT. File generated automatically, your changes will be lost when regenerated.
#pragma once

#include <stdint.h>

class ModelParameters {
public:
    //////////////////////
    //   conv1: Conv2d
    //////////////////////

    static constexpr float conv1_kernel_weight_scale = 0.00495030032;

    static constexpr uint32_t conv1_kernel_weight_data[100] = {
        0xFE3502E5, 0x0ACA3BCB, 0xF7C7EA2A, 0xECCAF3C0,
        0xD2C631B4, 0xC1D43CBE, 0xEA22069D, 0x03ECF897,
        0x0AADF517, 0xD1FA02C3, 0x262E06F3, 0x20123D06,
        0x0F459C62, 0xED29241E, 0x141EF53D, 0x56BD3835,
        0x0D2DC4D8, 0x2908F5DC, 0xEC0B5DF8, 0x3AFA1627,
        0x03FEE5D1, 0xECEEDBFB, 0xF1C1C30B, 0x22FDD6C2,
        0x26DFE4D4, 0x140426C6, 0xD70BCDA1, 0x084415AE,
        0xC21001D3, 0x2F23D2D5, 0x15FDAA2B, 0xE32BF0E7,
        0x243DFBF8, 0x4016CD0F, 0xDEEAC352, 0x01020025,
        0xE833F3EB, 0x1DB2E70A, 0xEFDC03CF, 0xF2BEF517,
        0x2E41FD17, 0xF21811FF, 0x190C0606, 0x1C14F712,
        0xCB281511, 0xD83AF6CB, 0x19F008ED, 0xD532F0FB,
        0xF6C0D61C, 0x1C1C1413, 0xEEEADBDE, 0xCEEF10D5,
        0x440E2F25, 0x35C7BD25, 0x0A0B8132, 0xB905132C,
        0xE40B0904, 0xEA0AC120, 0x1AD8D9D2, 0xAAFDE21C,
        0x102DF727, 0x291805EB, 0xDC1F2532, 0x41DFDD22,
        0xB8F40421, 0x0E1604F7, 0x15153704, 0x0AEB05E4,
        0xEC0719E3, 0x2A0CEE22, 0xFE243BFB, 0x36171328,
        0x6EF433C0, 0x1AD60938, 0xF80DE616, 0xCACA17D7,
        0xF4D9EDBB, 0xCC08DF15, 0xF013CADB, 0xADD22515,
        0xCB1BE34D, 0x20CAD51E, 0xD3331D06, 0x45DC182B,
        0x98F32511, 0xECCD1E2C, 0x33F50512, 0xB6CAAB01,
        0xEDCF10F8, 0xE70B2249, 0x07D65ED4, 0x1CB59BFB,
        0x6EEE44A8, 0x94250B01, 0xE631E732, 0xFDD99DEF,
        0x20EB20AC, 0xB1391101, 0x25BFEBF8, 0xEDAD3AD5
    };

    static constexpr float conv1_bias_data[16] = {
        0.0643996298f, 0.0373213291f, 0.0919434577f, -0.0691637397f,
        -0.0681176409f, 0.104332037f, 0.281006634f, 0.199956432f,
        0.267913699f, 0.26799491f, -0.423280746f, 0.0496190079f,
        0.138333946f, -0.342096001f, 0.112664774f, -0.262113243f
    };

    //////////////////////
    //   conv2: Conv2d
    //////////////////////

    static constexpr float conv2_kernel_weight_scale = 0.00545986416;

    static constexpr uint32_t conv2_kernel_weight_data[512] = {
        0xE5EBDE06, 0xEAF50000,
        0x0FF007FF, 0xFAFA0000,
        0x0EF32CF4, 0x0A020000,
        0xDBE90A9E, 0x07CF0000,
        0xEBF1F914, 0x00ED0000,
        0x1803E70C, 0x0BFF0000,
        0x07E3F026, 0x0AFD0000,
        0xDBD3FDD3, 0x20B40000,
        0xFDFCFB11, 0xF8F80000,
        0x1EEAE815, 0xF7070000,
        0x02E6DF11, 0x1FED0000,
        0xCBFD04DA, 0x21970000,
        0x1EF4F502, 0xEEFE0000,
        0x2DE0BFFA, 0x082A0000,
        0x0517D9C6, 0x33DE0000,
        0xFD57EAA5, 0x22810000,
        0xC4F8DCD5, 0x160C0000,
        0x2C042BDB, 0x27F80000,
        0x21172DE3, 0x0AFB0000,
        0xCFFAF407, 0xB81A0000,
        0xECFBD1ED, 0x0E010000,
        0x08F3ECF9, 0xF2F90000,
        0x1A0B0008, 0x0F190000,
        0x1E03FA20, 0xE8080000,
        0xE7F9F708, 0xFDFA0000,
        0x10E7F909, 0xFB020000,
        0x12062402, 0x0CFF0000,
        0xFAE9FD0C, 0xE2040000,
        0x0810F7F6, 0x090A0000,
        0xFD02F508, 0x10FA0000,
        0x05FC1513, 0x0AF10000,
        0x01E0F908, 0x01FB0000,
        0x2A071DE5, 0x1EFD0000,
        0xF2EAF90B, 0x09F40000,
        0xD409CA29, 0xE5160000,
        0x0822E32A, 0x13070000,
        0xEFFBF1FB, 0xFF0C0000,
        0xF7FC0300, 0x2F080000,
        0x14090509, 0x14160000,
        0x1811E214, 0x00050000,
        0xF8FDF9F8, 0x28020000,
        0xFE05E80D, 0x19080000,
        0xED0202F4, 0xEC120000,
        0x14EBE222, 0xDF0E0000,
        0xE4D609FF, 0xF5F90000,
        0xF20CF606, 0xF9EF0000,
        0x12EF05F8, 0xF7110000,
        0x32E6E723, 0x09130000,
        0xF1F7F2E9, 0x1D170000,
        0x0E04F605, 0xFDFC0000,
        0xFAFD2A14, 0x03DD0000,
        0x26D31801, 0x1FE20000,
        0xEB0617F8, 0x1E370000,
        0x1101FF0E, 0xFF150000,
        0xE3F90730, 0xF9FD0000,
        0xFBF31419, 0x0DF60000,
        0xD80A0CF7, 0xF9210000,
        0x02FEE001, 0xEB170000,
        0xFA1FDF10, 0xED090000,
        0x0520FA0C, 0xF0F90000,
        0x130FECEF, 0x040B0000,
        0x1EFCD9ED, 0xEDFC0000,
        0xFE28EE12, 0xE9E30000,
        0xDF330F0B, 0xF3E10000,
        0xD81907EE, 0x2A090000,
        0x1D1939CF, 0x24D70000,
        0x05272503, 0x03DB0000,
        0xBBFE2B00, 0xE6E30000,
        0xED0C0A07, 0x1F060000,
        0xF810E0F1, 0x0DE70000,
        0xFA1BE318, 0xFCED0000,
        0xFB061BF7, 0xF3120000,
        0xD2001CFA, 0xFC0E0000,
        0xFE17FA14, 0xFDFF0000,
        0x032EF618, 0xED030000,
        0x0E173106, 0x06F10000,
        0xEE2228FB, 0xF2F60000,
        0x1226F4EF, 0xF10F0000,
        0xF329DF14, 0xF8F70000,
        0xDF0F0D35, 0x0DDB0000,
        0x0504AF10, 0xF7EE0000,
        0x0625F71D, 0x18190000,
        0xF30E3A02, 0x0AFB0000,
        0x0BF128E0, 0x02FB0000,
        0x1710E517, 0xF1FE0000,
        0xFE20FB02, 0xF9050000,
        0x03FFEE0A, 0xFC020000,
        0xFF0310EB, 0xFCE70000,
        0x1EFFFC20, 0xFC080000,
        0x04F600F4, 0xFF120000,
        0xFA00F802, 0x05FD0000,
        0xDA151A06, 0xFCD80000,
        0x04D1EE0F, 0x0D080000,
        0xDFEAFB07, 0x06240000,
        0xFF16E2E8, 0xF91A0000,
        0x083BEDEF, 0x0CC50000,
        0xF410F824, 0x232C0000,
        0xDA06E81E, 0xFD180000,
        0x1E04CE2C, 0xDC0D0000,
        0x211EE625, 0xE4EF0000,
        0x1501F401, 0x17010000,
        0x0003F70D, 0xF2FC0000,
        0x0DF7FB09, 0xCA060000,
        0x120AFDF6, 0x11F80000,
        0x1CF8DBD9, 0x1DF70000,
        0x19FEF208, 0xF4FE0000,
        0x0204F714, 0xCC060000,
        0xE9F2050D, 0xF2080000,
        0x13FCEDF5, 0x21F50000,
        0x00EAEB14, 0x05F60000,
        0xFA04FF0D, 0xDB0A0000,
        0x090B0D1C, 0x0D220000,
        0xFFF9F4F7, 0xF5290000,
        0xE00420F5, 0x080D0000,
        0x0E0F25ED, 0x20130000,
        0x05F835F5, 0xFDFB0000,
        0xF9080905, 0xF5050000,
        0xDD0D03FD, 0x0A120000,
        0xF91F0407, 0xFC090000,
        0xED1EFFF3, 0x040E0000,
        0xD8071003, 0x06FC0000,
        0xD81D14E7, 0x0C210000,
        0x0825FEF8, 0xED180000,
        0xFA24F4E0, 0xEE060000,
        0xEC0235F2, 0x23E70000,
        0xE1FC32DB, 0x03160000,
        0xEAD11E0A, 0xE6330000,
        0xE9D702FE, 0xDB0A0000,
        0x1FF2B51E, 0xFD040000,
        0x0605EF0B, 0x00140000,
        0x1506FA19, 0x110E0000,
        0x0C0EFAFC, 0xFEF40000,
        0x0B07F801, 0x160E0000,
        0xF0FE0C02, 0xF3F60000,
        0xF4FE1607, 0xFA0D0000,
        0x0C000509, 0x10040000,
        0x0608F004, 0xFB090000,
        0xF5F80A02, 0x01080000,
        0x13FD01FB, 0xF7090000,
        0x0305F9FB, 0x0F050000,
        0xEB0AEA1C, 0x06FF0000,
        0xF5F51D0B, 0x0A040000,
        0x0EF5F2FC, 0xEA250000,
        0x040DEB0C, 0xF9000000,
        0x0302D132, 0xECF10000,
        0x0B06C229, 0x060B0000,
        0x020FFBF9, 0xF7060000,
        0x10202509, 0x07140000,
        0x23F50911, 0xFBED0000,
        0x0CF80708, 0x03090000,
        0xE805F9E7, 0x05F40000,
        0xF70E0300, 0x0F070000,
        0x2BF91701, 0x00FB0000,
        0xFFF1E20B, 0x06080000,
        0xF1E903E8, 0x09F10000,
        0x0C010C00, 0x021B0000,
        0x2CFD13EA, 0x09030000,
        0xFD14DE17, 0x0C0C0000,
        0xDF140D15, 0x110F0000,
        0xFCF2140F, 0xF5300000,
        0x151300F2, 0x57F00000,
        0x0A24F50E, 0x37F00000,
        0xFAF8210B, 0xF7F90000,
        0x28E10B12, 0xF1090000,
        0x26E518E6, 0x52F20000,
        0x0E170307, 0x37D40000,
        0xF4051520, 0xFFD50000,
        0x0FD01F17, 0xFDFD0000,
        0x2CC7EBED, 0x4AEF0000,
        0x24F604F2, 0x21FA0000,
        0x09161C00, 0xF7DC0000,
        0xF2BF1B13, 0xF1030000,
        0x32E1E8DF, 0x45F00000,
        0x3107F2DD, 0x3B070000,
        0x382EF5FE, 0x27FF0000,
        0xF8FC061C, 0xFAF30000,
        0xE0E2D4F1, 0x072E0000,
        0xF5323BDE, 0x0BFC0000,
        0x392425EC, 0x220E0000,
        0xF9DE13B2, 0x46EF0000,
        0xF70F030F, 0xD8080000,
        0xE1EFCAE0, 0xE9F40000,
        0x23D0FCE2, 0x13150000,
        0x04F6F7B3, 0x36F90000,
        0x03E01A0E, 0xF5EF0000,
        0x1EE0D5F8, 0x2DEE0000,
        0x1ACA05E5, 0xFE020000,
        0xEFD105C9, 0x1DFB0000,
        0x22E423FA, 0x06CF0000,
        0x2CFDEA0B, 0x28E50000,
        0xFBC90600, 0x0CF10000,
        0x0AC7F1D9, 0x16EB0000,
        0xA305E13D, 0x11390000,
        0xFBE7E22B, 0xE8F00000,
        0x24E9F11F, 0xD4CE0000,
        0x12F41817, 0xEFE80000,
        0xCCF3E9FC, 0x09270000,
        0x08E50103, 0xE0F80000,
        0x00E3FFFF, 0xE7E50000,
        0xFBF817F7, 0xF3EB0000,
        0xECFCE7DA, 0x25010000,
        0x0912F9FD, 0xFAF00000,
        0xF4010307, 0xD9EB0000,
        0xE0012009, 0x06120000,
        0x12F704DC, 0x2DDF0000,
        0x0D11E204, 0x19CE0000,
        0xDC48ECFE, 0xE3CA0000,
        0xBA092300, 0xFFFD0000,
        0x1BF713E8, 0x19DC0000,
        0x22D620F8, 0x15F50000,
        0x32CD17FE, 0xFAF30000,
        0x30E83AFF, 0x08080000,
        0x1CEC04E7, 0x1BED0000,
        0x15D505EE, 0x10150000,
        0x0BDF0614, 0x0A110000,
        0x02051B21, 0xFD0D0000,
        0x220CF6F1, 0x28130000,
        0x062412FC, 0xF9210000,
        0x0DF409FC, 0xED060000,
        0x0B13130F, 0xF70F0000,
        0x1532F1E2, 0x152F0000,
        0x01340C00, 0xF4260000,
        0x15110F05, 0xD6040000,
        0x0A261E05, 0xE7190000,
        0xF5F5DA23, 0xFDE20000,
        0xEEE0EDE9, 0x0DF00000,
        0xFCDFEE11, 0x08E40000,
        0xD2F1FF5C, 0xEEF10000,
        0x1AE30420, 0xEFE70000,
        0xECE603DF, 0x090F0000,
        0x01FEFBE2, 0x0D0A0000,
        0xEF09FE1C, 0x09130000,
        0x18EDFC0F, 0xEC1B0000,
        0xF1F11EDE, 0xF9140000,
        0x0C04060A, 0x090E0000,
        0xF3170F21, 0xF7120000,
        0x1A06EB05, 0xE5130000,
        0x124520D4, 0xF4F60000,
        0x2A4B11E6, 0x00F20000,
        0x080B0414, 0x00070000,
        0xE0F3D7EC, 0xF0160000,
        0x0E003CCF, 0x11E30000,
        0x5B4429FA, 0x0FE40000,
        0x24DB45E9, 0xFEC50000,
        0x031A1BF8, 0xF3070000,
        0xEC291AAA, 0xEFD90000,
        0x06F603C1, 0xFEE10000,
        0x31FE13EF, 0x15AF0000,
        0xEA19350D, 0xDFE70000,
        0xEB1903E5, 0xE9E00000,
        0x01100BD7, 0xE2F00000,
        0xFEDC0EE5, 0x11A00000,
        0xFF173010, 0xD7D10000,
        0x080A0707, 0xEFE20000,
        0xEDD60410, 0xEBE60000,
        0xEAA713D4, 0x16930000
    };

    static constexpr float conv2_bias_data[6] = {
        0.17955409f, -0.0121235959f, 0.0134811727f, 0.179346457f,
        0.0215246342f, 0.262521446f
    };

    //////////////////////
    //   fc1: Linear
    //////////////////////

    static constexpr float fc1_weight_scale = 0.00521991728;

    static constexpr uint32_t fc1_weight_data[1152] = {
        0x041024E9, 0xEB20C20F, 0xF4FF0000,
        0x0203F0ED, 0xF518D313, 0x05FF0000,
        0xECCEA601, 0xF4042B0D, 0x23060000,
        0xC406D603, 0x1E06E911, 0x24000000,
        0xDFFDFFFF, 0xD609E9FA, 0x1E200000,
        0xFCF1F0E1, 0x08FCFAFF, 0x18080000,
        0xCCF5B600, 0x3E021203, 0x0DEA0000,
        0xCFE5061D, 0x1CF0E70F, 0x27DB0000,
        0x0301E8F6, 0xEE19FA1C, 0xDB0D0000,
        0x0DFFFAEF, 0xFAFBFD0E, 0xE8140000,
        0x03D50708, 0xE7FCFF0E, 0x08FE0000,
        0xE8EAEDEC, 0x12FFF503, 0x220D0000,
        0xD9F4CDFE, 0x38FFF00B, 0x220F0000,
        0xFB02F7FB, 0x07F2F918, 0x2BF80000,
        0xFE010409, 0xF90610EA, 0xEE140000,
        0xEEF50F22, 0xF4EF0116, 0x09E70000,
        0x130FE9EC, 0xE5FE0C0D, 0xEB0D0000,
        0x0CF01A03, 0xFAFBFA05, 0xE20A0000,
        0xE7E60F00, 0xF4041314, 0xF8FB0000,
        0xEC05F5F5, 0xF6F90022, 0x13210000,
        0xDDE9E41F, 0x0BE5EC33, 0x1A060000,
        0xF3170604, 0xEDE3F91B, 0x1AFE0000,
        0x02030602, 0xE8FD1FEB, 0xF1000000,
        0x07060A18, 0xE8FDFA09, 0x07D10000,
        0x0AFCEDF3, 0xFAE9180C, 0xE5F50000,
        0x04ED1003, 0xE81301F4, 0xE9FD0000,
        0xF9E611E5, 0xFE0E0DFC, 0xF3070000,
        0xFBFA0FE5, 0xFA060E03, 0x02220000,
        0xECF9F820, 0xF912E90F, 0x00070000,
        0xFF0B1805, 0xF903F1FB, 0xF40A0000,
        0x0200130C, 0xF1EE17E1, 0xE5010000,
        0x0B011E02, 0xEAF40CEB, 0xF5D80000,
        0x0C0C07F1, 0xFDDF0A16, 0xE5020000,
        0x0CE40B00, 0x0B0807E8, 0xEBEE0000,
        0xF1E90CF6, 0x020D10F4, 0xEE000000,
        0xFA03FFF5, 0x05F112EF, 0x01150000,
        0x0704F70D, 0xFC0DEEFD, 0x10D60000,
        0x1C1C010B, 0xF803F0DF, 0x17F00000,
        0x0CF4FC09, 0xFAFF12C7, 0xECEA0000,
        0x060F10F9, 0xF6040ED2, 0x08E30000,
        0x0DFB1EF2, 0x0BDE0505, 0xD0130000,
        0x15EC18FE, 0xFB0B0DD9, 0xF3F60000,
        0xF4F91206, 0x060508E2, 0xE7F80000,
        0xF61701FE, 0x15EDFB11, 0x0AD00000,
        0x1117F6E6, 0x26FE0503, 0x179B0000,
        0x141CFB02, 0xFAFA05F3, 0x0BC30000,
        0x0004F515, 0xF7E912E9, 0x00DF0000,
        0x11151205, 0xEDFBFBD1, 0xF3EF0000,
        0x0C0614F0, 0xEFD30105, 0xCF340000,
        0x16DC0E06, 0xFB0A13CE, 0xEA140000,
        0xF6040D18, 0x0DF8EFF7, 0xE9F30000,
        0x051FF7F3, 0x110CFF13, 0x08C60000,
        0x1515E5EB, 0x0C0C0FF8, 0x06D30000,
        0x0526E2FF, 0xEBFB2909, 0xF5C00000,
        0xFF18E60A, 0x05F712EB, 0xF6EA0000,
        0x181701F6, 0xF9FFF9D5, 0xEDF60000,
        0x200209EE, 0xD8BB0D14, 0xDB400000,
        0xDEDB0606, 0x10F421F4, 0xE5100000,
        0xE90802FE, 0x2205F9F5, 0xE6E20000,
        0x000716DE, 0x140D0009, 0xF5DB0000,
        0x0C3E0BF6, 0xFBF4C612, 0xFBE50000,
        0xFD4A0302, 0x0B0BF212, 0xE8B60000,
        0x0C0B0208, 0x0D0AFFE4, 0xF9EC0000,
        0x1010F8EE, 0x0B08FCD5, 0xFB060000,
        0x13F71822, 0xFFADDAE2, 0xF1D20000,
        0x0F050300, 0x12EBFABC, 0x07E60000,
        0x0904FEFD, 0xE81014AE, 0x04EB0000,
        0x33F61BE2, 0xEC06E1E2, 0x06000000,
        0xFFDCFD07, 0x1703FDF2, 0xF3040000,
        0xEAD7FF2A, 0x091604E1, 0xFF060000,
        0x11C5D9F3, 0xE23714DB, 0x05FE0000,
        0x23C781CB, 0xC11E07EC, 0x1D190000,
        0xF4D8EE31, 0x0BE705C5, 0xF3F70000,
        0x07F91701, 0x01FDEBFA, 0xFEDB0000,
        0x0DF725F3, 0xD7FAFB06, 0x0ED70000,
        0x22FF0CEF, 0xEEF3FA04, 0x06F00000,
        0x0AEA12F8, 0x0403F304, 0x1AF10000,
        0xE9D6F922, 0xF10C13F9, 0x1DEB0000,
        0x04E606DC, 0xE52221F8, 0x07050000,
        0x29DB9DA5, 0xB40A2905, 0xF50F0000,
        0xE5DC0430, 0x0D02FC07, 0xFFEA0000,
        0xEAF40008, 0xFF07EA18, 0x13EA0000,
        0x01FBFFEC, 0xFF020520, 0x14EE0000,
        0x0F0013D1, 0x19F7ECFD, 0x0B0B0000,
        0x0FEE0EE7, 0xFF15D207, 0x11FD0000,
        0xEDDAF923, 0xEA1AFFFE, 0x25FF0000,
        0x080EEDEA, 0xFA05FCFA, 0x0C010000,
        0x18DDCEB6, 0xC70F2EFD, 0xEAFB0000,
        0xDDD4FE01, 0xFD0D0914, 0xFC1F0000,
        0xEDE6E6EB, 0x15000814, 0x160B0000,
        0xF9EE01F5, 0xF8F5F412, 0x12080000,
        0x18F911DE, 0xFAFFDD0E, 0x08040000,
        0xF9F606E6, 0xF502F005, 0x09F80000,
        0xF3DDFE0F, 0x02F9FF05, 0x0C060000,
        0x13FBF7F6, 0x0507F80B, 0x08FA0000,
        0x06CCB3FB, 0xE60E0D18, 0xFDFB0000,
        0xE8B5FC12, 0xFD141005, 0xEA140000,
        0xF2F2FDF2, 0x1405D505, 0x0E0E0000,
        0x00F009FB, 0xF400E717, 0x15FA0000,
        0x09F31506, 0xE60AED0C, 0x05F80000,
        0x000400E8, 0xFC070309, 0x050A0000,
        0xE4DBFC0E, 0xFC0B0211, 0x09020000,
        0xFCFDF4F1, 0x050D0006, 0xF80B0000,
        0x0FDFCBFA, 0xDFF4151E, 0xF8FF0000,
        0xDCD0F611, 0x040FEBFE, 0xF00E0000,
        0xF9F7F9F1, 0x16FAEF15, 0x08050000,
        0xF6F505F0, 0xF4F6FD03, 0x12030000,
        0x0CF405EF, 0xFA04FE09, 0x0B070000,
        0xFCF608DF, 0xF3100404, 0x01FF0000,
        0xECCDFE09, 0x0D13FB10, 0xF30C0000,
        0xF30EEA0F, 0x050EF315, 0xF3060000,
        0x08F4DC08, 0xC8FB1B17, 0xEF000000,
        0xFDF80900, 0x0BFFE401, 0x05F80000,
        0x16FBEEE7, 0x0E00000D, 0x10F70000,
        0xF60007F4, 0x00F30405, 0x03020000,
        0xFCE717E4, 0x0207F10C, 0xFE100000,
        0xF7F6FCD4, 0xF90CFFFE, 0xFF120000,
        0x01EE0419, 0x0016F00A, 0xED0C0000,
        0xF417D824, 0x0C07F60F, 0xE1080000,
        0x1A0EE22C, 0xCEFAF80F, 0xEAFA0000,
        0xE9BDDBDD, 0x0B0F34F4, 0x0EFE0000,
        0xFFBF02FA, 0x00021400, 0xF3030000,
        0xF4CE19FC, 0x0204FAF5, 0xF7140000,
        0xEBE435F1, 0x0808E6FC, 0x010F0000,
        0x0BF31CCA, 0x0218F3FC, 0xFD0F0000,
        0xF0FE0BEB, 0x1007EAF3, 0x0A180000,
        0xE505E6F0, 0x25F1EE11, 0x0D140000,
        0xF6F3C2FF, 0xE9EE0E15, 0x36FF0000,
        0x0E0213F4, 0x20DCD203, 0xE6040000,
        0xE1F9E7F9, 0x20DA0219, 0x0EFC0000,
        0xF6F1CCD2, 0x1EF52B02, 0x1A0E0000,
        0x05FFF408, 0xCC0CF106, 0x18020000,
        0x27F1F2E7, 0x8B113F16, 0xC3F30000,
        0x19E8E5F0, 0xE9120DF4, 0xEEEF0000,
        0xEEACE903, 0xDC1D29F6, 0x27F00000,
        0xF5A6F1FA, 0x00143402, 0x07E20000,
        0xEB1601F2, 0x17F2F303, 0xEE150000,
        0xED120D09, 0xFBFBE000, 0x0C0D0000,
        0xE8140401, 0x171D9FEC, 0x132F0000,
        0xE813FA07, 0x0D19D2F1, 0xF31A0000,
        0xF912FEF2, 0x150D0A18, 0xD4000000,
        0xEE12D1FA, 0x1508E519, 0xFFFE0000,
        0xFDEC0511, 0x1FF1DA12, 0xF5FA0000,
        0x00EE0907, 0xFFFB03F6, 0xF40A0000,
        0x0F0EFFF3, 0x032207F9, 0xEDFA0000,
        0x0008FD0B, 0xFF16D102, 0xED1A0000,
        0xDA16E3F5, 0x0210E70A, 0x03180000,
        0xF40E11D1, 0xF90EEF11, 0xF4100000,
        0xFFFCECEF, 0x21060120, 0xEC0D0000,
        0xFA13CCF8, 0x1604FF16, 0xFCFF0000,
        0xFBF2050A, 0x0904F8F8, 0x08FE0000,
        0x1C02FEEB, 0x1004F8E7, 0x000E0000,
        0x17FFECE6, 0xF4251809, 0xD2FA0000,
        0xE4FFED06, 0xFF03F70B, 0xDB1C0000,
        0xF004F607, 0xED01DF0A, 0xE8160000,
        0x000E0CF3, 0xF0FED90B, 0xFD120000,
        0x13F30305, 0xFA00EB06, 0xDA0C0000,
        0xFF1E05FE, 0x1BF5F208, 0x02030000,
        0xFAED1304, 0xF90D09E9, 0x07FA0000,
        0x00FE0DE7, 0x0D17F7D6, 0x1E010000,
        0xFCFDF8F5, 0xFF140C08, 0xE00F0000,
        0xDB00FB2A, 0xFAFEDB07, 0xDF1B0000,
        0xE7E6031A, 0xEB01F009, 0xE8150000,
        0x031112FC, 0xDEF4E7FA, 0xE10E0000,
        0x13E717FD, 0xE0EFF8FA, 0xEC110000,
        0x020914F4, 0xE0F00804, 0x19070000,
        0xF6E2061D, 0x02F5FAFD, 0xFEF00000,
        0x01DD2018, 0x180EE8EB, 0x0EB90000,
        0xECFA04F7, 0xF71506FD, 0xDEFD0000,
        0x0EF3FD07, 0xF409EA0D, 0xE60A0000,
        0xFCDAEB14, 0xF8FEF20E, 0xE11F0000,
        0xED10F0FD, 0xF600EAF6, 0xE4110000,
        0x12E91C00, 0xFAFAED0A, 0xFA060000,
        0xFF0A0108, 0xDCE20503, 0x10020000,
        0x04DA0116, 0x02DAF328, 0x01E90000,
        0x0ECB0520, 0x0FE4F921, 0x0BA60000,
        0x08F60702, 0xE90E0CFD, 0xFDF30000,
        0x07E5F4F7, 0xED0E19FF, 0x01020000,
        0xFBE9020A, 0xEAFFFC0C, 0x020B0000,
        0xE60DEAF3, 0x0609F9FB, 0xEF140000,
        0x1AEA11F5, 0xF317F0F3, 0xEB120000,
        0x230D0002, 0xF41AEAFA, 0xFFF70000,
        0x07FF24F6, 0xFF00ED13, 0xFAE80000,
        0x11E523FA, 0xFD1200EC, 0x07DE0000,
        0xEB05240B, 0xFA0D10F7, 0xE6DC0000,
        0x1DDD000C, 0xC4181A07, 0x00F90000,
        0x02D8EE1F, 0xDA15F204, 0xFB110000,
        0xCE2B13E8, 0x0319E4F8, 0xF9220000,
        0xFFE0F90B, 0xEA1A03F7, 0x11F50000,
        0x16E2D009, 0x1D1CE1FF, 0x25E10000,
        0x070FFDF4, 0xD2F52702, 0x0AEC0000,
        0x05EB20F4, 0xC0ED1CFC, 0x05DF0000,
        0xF632E913, 0x0A061603, 0xEE040000,
        0xF02C1E2F, 0xAF00FA0A, 0x17DB0000,
        0xF618F538, 0xB7FB11F6, 0x15120000,
        0xEF360706, 0x0D05D5D6, 0x22FD0000,
        0x090D19E2, 0x12EFF0E9, 0x07FB0000,
        0xF91722F2, 0x1DCFE615, 0x08F30000,
        0xFB0E1709, 0x11D1EB16, 0xF3DF0000,
        0xF2201908, 0x05E30E0C, 0xBFDA0000,
        0x10F415D6, 0x010817DF, 0xFDE90000,
        0x10042305, 0xDA1100C1, 0x12F00000,
        0x03E5F124, 0xFCF80FDF, 0x0F070000,
        0x090307F6, 0x01F5F9CB, 0xE7130000,
        0x190311EE, 0x06F607EC, 0xDA000000,
        0x06040BF4, 0x05EC0006, 0xE9EF0000,
        0xECFEFF01, 0x12EA1B03, 0xF1DF0000,
        0xED0E0A0D, 0x0FED13F2, 0xCFD50000,
        0x12F418C9, 0x1C1403B7, 0xF7C10000,
        0x0FF818F6, 0xF50801A9, 0xF4010000,
        0x0AF5170E, 0x030AFFC8, 0xE9F50000,
        0x01030808, 0x100AF5D2, 0xDB080000,
        0xF4FDF20B, 0x100905EF, 0xE2110000,
        0x1708ECFE, 0x040CF4FF, 0xFAE20000,
        0x00FCF206, 0x04040AF9, 0xF3E20000,
        0xFB0A0206, 0x00ED07E8, 0xE0E00000,
        0xFFFC20FA, 0x11E2FEAF, 0xF2C60000,
        0xFCFD0DFD, 0x02EA08B6, 0xEAD90000,
        0x030C0C01, 0x0510FFA0, 0xE7F90000,
        0x0BFA050B, 0x100CFDD3, 0xFCF80000,
        0xF906FC1D, 0x0A0AFBEB, 0xEE060000,
        0x050AF50E, 0xFB1C00EF, 0x00DC0000,
        0x0DFEF609, 0x050C0DEE, 0xF5DC0000,
        0x000F1006, 0xFEF309E1, 0xF1E50000,
        0x050E1B06, 0x01C608B1, 0x03AB0000,
        0x0C0008F4, 0xF9CA0FCB, 0xFEB90000,
        0x09070DE5, 0xFFE203C2, 0x04020000,
        0x07F71201, 0x0E05F5DC, 0x0EF60000,
        0xED0D0614, 0xF8E6EFF9, 0x07FB0000,
        0x0001EB07, 0xF50700F9, 0x10F00000,
        0x0108E804, 0xF70508E7, 0xFEEF0000,
        0x0610000B, 0x07F80CCB, 0xE6ED0000,
        0xF20D0210, 0x0ACD1393, 0x0BDD0000,
        0x1AFB17F3, 0xFBDF07B9, 0xFAB00000,
        0x090503EC, 0x05E100EB, 0x08EC0000,
        0x0BD90C04, 0xFDD2F30A, 0x11F20000,
        0xFB0E1613, 0xF1C9FA1C, 0x08E00000,
        0x130B0106, 0x04EEF605, 0x15EC0000,
        0x120DFA03, 0xEFFDFD06, 0xFCE60000,
        0x12FE10FC, 0xF7EE18DC, 0xF0E80000,
        0xF01BFE0D, 0x1AD810A1, 0x06D10000,
        0x0B0715F8, 0xF7FD02DB, 0x02920000,
        0x08F80901, 0x09E4010F, 0x05E40000,
        0x02E30F16, 0xF9EF050A, 0x08EC0000,
        0xF80B0103, 0xE8D60901, 0x12E60000,
        0x06020301, 0xF9F3F101, 0x0ED90000,
        0x0805F802, 0x0DE805E2, 0x04EC0000,
        0x04FF040E, 0xFFEB12E2, 0xFEEF0000,
        0xF337FC01, 0x2ACDE609, 0x07AC0000,
        0x0A3E1C00, 0x00F8DDFC, 0x00C80000,
        0x0F0DFB02, 0x08F4E8EE, 0x10070000,
        0x0FC7F30A, 0xE61220CF, 0x061A0000,
        0x0016E506, 0xF30523DD, 0x03ED0000,
        0x16FEF60B, 0x02E8020F, 0x0CDF0000,
        0x1409EB10, 0x19D8F5F6, 0xF8ED0000,
        0x12FA0203, 0xFED205E8, 0xFAEC0000,
        0xD9050603, 0xFC01D100, 0x35F70000,
        0x00F0F6F8, 0x0902020B, 0x18F80000,
        0xFBDABFD3, 0x28042501, 0x000B0000,
        0xFEE9DEEA, 0x1C08F40D, 0x0C050000,
        0x0EF0FD06, 0xCCFEF911, 0x0AF30000,
        0x03270DE6, 0xA0141803, 0xF0020000,
        0x010BFBBF, 0xDE121A05, 0xE8000000,
        0xD707B700, 0xD3FADB20, 0x30080000,
        0xDFF4D507, 0xE9140C03, 0x1EF60000,
        0x05EFF009, 0x070FFAFA, 0x00050000,
        0x09D3F7F0, 0x1708E7F9, 0xF5050000,
        0x0AF80FDD, 0xFD00DF07, 0x05010000,
        0xF7F4E602, 0x09FCF817, 0x22EF0000,
        0x0128EC00, 0x0508F3FB, 0x08F80000,
        0xFE1129B5, 0x160FF201, 0xE0FD0000,
        0xEB0AD6F5, 0xE5EB0713, 0xFB0D0000,
        0xE8F6EB01, 0xE3190102, 0x190A0000,
        0xECF50E10, 0xF609F300, 0x08020000,
        0xFEE6E1FB, 0x0614EE08, 0xFC060000,
        0xE4E0F2DD, 0xF3FB0A14, 0x03020000,
        0xF9E10CF2, 0xF2EFF915, 0x15F70000,
        0xFD06F708, 0xF60E05F6, 0x19FD0000,
        0x070C0CE4, 0x1411FDFC, 0xE4ED0000,
        0xD8F1FE0C, 0xD3F80A08, 0xF60C0000,
        0xFA08EE02, 0xE70D02FB, 0x07170000,
        0xEA01F9FB, 0x1115EE00, 0xFC170000,
        0xF5DBEE05, 0xFD0FE108, 0x080A0000,
        0xDEDAF5F2, 0xF3081107, 0x08070000,
        0xF9EAFAEF, 0xED04060C, 0x19F30000,
        0x0CD8F903, 0x0B0DFAF1, 0x0FEE0000,
        0x17010F0B, 0x1801FCEC, 0xF7DF0000,
        0xFFF00823, 0xDBF5F11B, 0xEDF10000,
        0x06FEF5FF, 0xF4F9F2FC, 0xFC180000,
        0xEF100DFD, 0x0D08DFFD, 0xF8100000,
        0xF3F0FC07, 0xFE0DE3F5, 0x0F020000,
        0xE7FBFA17, 0xDF08FE04, 0x03F20000,
        0xF81007E4, 0xE41E0FFA, 0x0FED0000,
        0x11EC0207, 0x060EFCFC, 0x12DF0000,
        0x0DF20EF2, 0x12F209FC, 0xF4E10000,
        0xFCF9FE12, 0xEDF2060C, 0xEA060000,
        0xFD09EDF8, 0x06E9FCF8, 0x00260000,
        0xEC0C18F0, 0x0808D9E6, 0xFA150000,
        0x10F8F4DF, 0xF303F706, 0x0B020000,
        0xF60ADE25, 0xE402F600, 0xFFF40000,
        0x0836F2FA, 0xEF110306, 0xFECC0000,
        0x0AFB000E, 0x0909F7FD, 0x04E10000,
        0x16E7FCFC, 0x13020BE6, 0xFBEE0000,
        0x06F3FDF5, 0x0C0814CB, 0x02030000,
        0xFB10F703, 0x15E6E0F5, 0xFD340000,
        0xF211FCE9, 0x0016FDD8, 0x0A250000,
        0xF105FDDA, 0xE4290EE7, 0x19030000,
        0xFB26D60D, 0xFB1C0EE5, 0xF7F60000,
        0x0033E200, 0xF8F904F9, 0x08F70000,
        0xFDFAFE09, 0x0C0F08E0, 0x17FE0000,
        0x06DDF9F5, 0x0A0825C5, 0x02F00000,
        0x04FAFEFD, 0x1A161D98, 0x050C0000,
        0xF315EA11, 0x2CCECA05, 0x04390000,
        0xF11BD6EE, 0xFBF625F8, 0x25060000,
        0xE319F4D6, 0xF70F0907, 0x29E80000,
        0xE24BD910, 0x0E03D909, 0xFCEF0000,
        0xF65AE7F3, 0xFCFBEFF5, 0xF9EA0000,
        0xF11C0BF4, 0x0614E7AE, 0x0A280000,
        0xF4D7F9DE, 0x191C1BAE, 0xF7160000,
        0xFBF90A06, 0x1A0E0AB7, 0xEC0B0000,
        0xFB03F00A, 0x06FF06EF, 0x05E60000,
        0x0B0FFE06, 0x0FF0E8FA, 0x0CF70000,
        0xF515F70B, 0x0FDAFAE6, 0x08F30000,
        0x061605F0, 0x0FED04EB, 0x15EF0000,
        0xF10EF9E7, 0x0DED13FC, 0x27050000,
        0xECFF0D04, 0x05BEF41A, 0x29F80000,
        0xDD0120FE, 0xEFB91816, 0x11110000,
        0xF42A11E8, 0xF3B50E15, 0xF5210000,
        0x06FB0D05, 0xFDD00BE2, 0x0FD70000,
        0xF80DFE0F, 0x08BB03F1, 0x04100000,
        0xF408FF13, 0x12CEF4E4, 0x070C0000,
        0x0F030A01, 0xFDDE07E5, 0x1A090000,
        0xF80008E0, 0x0CD805F4, 0x17020000,
        0xF6F2F5F8, 0x0DEA1405, 0x0DF70000,
        0xE7E10EEC, 0xFEF216F5, 0x03110000,
        0xF1220108, 0x0BD5130A, 0x07100000,
        0xFDFA05F8, 0x04CD04D6, 0x0CCF0000,
        0xFA0C0B01, 0x05B9FEE5, 0x0F010000,
        0x0D040B06, 0x0AD2FE02, 0xFE010000,
        0xF8FB05FA, 0x0DE20DEF, 0x08FE0000,
        0x060806F6, 0x01E608F0, 0x10FA0000,
        0x12F3FAF3, 0x01F9FB04, 0x1BF50000,
        0x0CF408E6, 0x0BF70EE4, 0x0C040000,
        0xF728EBFA, 0x05D4050C, 0x06080000,
        0xFE070903, 0x12FFFFE2, 0x14CD0000,
        0x020907FF, 0x00EEFCEE, 0x18DB0000,
        0xFD06FB0E, 0xFEE3FA09, 0x14E80000,
        0xFCF30D06, 0x0301FEFB, 0x0DF70000,
        0x05FE0611, 0xEBEE0713, 0x17F00000,
        0x06F90304, 0xF4E8F509, 0x17FC0000,
        0x1DEE06FD, 0xFBEFF009, 0x0C090000,
        0x111804ED, 0x0600110B, 0xF4FD0000,
        0xFDF8FA04, 0x03230DDD, 0x05B20000,
        0x0BF70308, 0xFD1904E1, 0x08CF0000,
        0xFF000101, 0x020401EC, 0x0DF00000,
        0xEFEB030C, 0xEE0C03EC, 0x10FB0000,
        0xFDE70A20, 0xF1F101FE, 0x060B0000,
        0xF5E50212, 0xFDDEF607, 0x19190000,
        0x17EA1210, 0xF9F5F6FD, 0x0C090000,
        0x030A07F7, 0xF71B1AF9, 0xF9010000,
        0xF4FAE704, 0x052418DD, 0xF6D50000,
        0xFEF00A10, 0xF71FFCE3, 0xF8CB0000,
        0x00FDF9FA, 0xFB0C06E1, 0x0DED0000,
        0xFDEA100D, 0xECF10DEA, 0x03100000,
        0x07EBF907, 0xF3CD0A08, 0x18FD0000,
        0x04E6020A, 0xFAE50708, 0x17010000,
        0x11ECF9FE, 0x05FBF405, 0x0FF60000,
        0xFF0DEB0B, 0x000616F9, 0x07100000,
        0x0DE9E2F2, 0x092A16DE, 0x05DE0000,
        0x04DE15FF, 0x0827FBEF, 0x03E70000,
        0x10F30F0A, 0xFB1CF9E0, 0xFC110000,
        0x0FD20712, 0xF2F700EF, 0x0D100000,
        0xFCEF120C, 0x00CEF923, 0x0EF70000,
        0x05EEF303, 0x02E60C24, 0x0AEC0000,
        0x02E7F606, 0x15F5E417, 0x27080000,
        0xF40FE7FA, 0x06F60D0C, 0x0A170000,
        0x21F7EBF6, 0xEB31F2B8, 0x53E80000,
        0x0DD41500, 0x1A1AC7D6, 0x300E0000,
        0x14DE0AEB, 0xFCEA06E9, 0x0F230000,
        0x0D9100FE, 0xFBE31B02, 0x0A010000,
        0x0BD831F0, 0x08C9E51E, 0x0CD90000,
        0x15F20B10, 0xE2EDFB2B, 0xF8C40000,
        0x0CF70813, 0x0A02D407, 0x13FE0000,
        0xEE08EFE6, 0x2608E1F7, 0x00110000
    };

    static constexpr float fc1_bias_data[10] = {
        -0.035966251f, 0.0332079418f, 0.111782931f, -0.0324821509f,
        -0.224111795f, -0.0569691285f, 0.10627716f, -0.00601298176f,
        0.10359145f, -0.0400157385f
    };
};