// DO NOT EDIT. File generated automatically, your changes will be lost when regenerated.
#pragma once

#include <stdint.h>

class ModelParameters {
public:
    //////////////////////
    //   fc0: Linear
    //////////////////////

    static constexpr float fc0_weight_scale = 0.00387750356;

    static constexpr uint32_t fc0_weight_data[720] = {
        0x08F404F2, 0xEA05E7F3, 0xE6FC01FB, 0xEAE6FFF9, 0xF8FCF4F8,
        0xE9E5E4EC, 0xFB01E003, 0xF8050603, 0xE3F3EFEA, 0xE9E4F1F2,
        0x000009FE, 0xF906F3FD, 0x0C0506F3, 0x0BF3FE06, 0xE505FBFC,
        0xFDF2F70F, 0x0C120BE9, 0xF8F2FAEC, 0xE2F90509, 0x0206FCFF,
        0xEAE4FEF0, 0xF4EFFE00, 0x0F050303, 0xF901EFEC, 0x0507F4FC,
        0x06EF0201, 0x0B080605, 0xEBEBFBF7, 0xE10108EF, 0xE6E1ED16,
        0xFBEFEEF3, 0x0D0EF6E7, 0x03EDF701, 0xF8F0ECFD, 0xF8FFF011,
        0xF0F8F105, 0xF20D0100, 0x0AF1E9F9, 0x05F9F4FE, 0xDEF60305,
        0x0707F0F1, 0xF3F5EF00, 0x0DED0903, 0x00F4FDEF, 0xE8F9E416,
        0x0FF3FAED, 0x0408FF0E, 0xF601FDFB, 0xFD05EFF5, 0xE6F3E703,
        0xF8DEF90E, 0xF10FE6E8, 0x04F5E5EC, 0xF4F7010A, 0xF305F0EE,
        0xEAFDEF00, 0xEE0BE0E5, 0x04EEF7F9, 0xEC0603F1, 0xE9F9F815,
        0x0F00EA10, 0x0CEDF5FE, 0xFB12EDE6, 0x0C0407ED, 0xE8F3F2ED,
        0xF8FAFAF9, 0xFBF2E4E6, 0xFDEAF70B, 0xEEE6FD09, 0xF4F1E7F7,
        0xF7EAF8FE, 0xFA08EFE6, 0xF90C0602, 0xFFED070C, 0x060DE0FF,
        0xF7EEEDEE, 0xFC04FFE0, 0xF1FCFBDF, 0x0008F407, 0xECF9E515,
        0xFBEBEFEC, 0xFCEA02E7, 0xEAFCF004, 0xE6182907, 0xEEDF0109,
        0x081708E7, 0x090FF4DF, 0xFDFE0CF5, 0xE30D2819, 0xE70107F4,
        0x060FFF03, 0x0E0906DF, 0xFCFF00DB, 0x02021915, 0xEEF5F616,
        0x09F6E910, 0x050030E4, 0x01FA0BDE, 0xF2F60F0E, 0xD5E50707,
        0xE008EA17, 0xF9E825EC, 0x09F01202, 0xEDE90006, 0xDBEFF50C,
        0xF007FBFF, 0x00FF11FB, 0x0CF4EE02, 0xF702F8E8, 0xD5020E0D,
        0x0DF603F1, 0xFC0E0C00, 0x07FDFBF7, 0x00E80DF5, 0x07F8F814,
        0x08E2E0EA, 0xF5F304E5, 0x0305F803, 0xFBEA0F07, 0xFF03F0F3,
        0xE9E204FF, 0x06000808, 0x0BEFFCF2, 0xF209FFF5, 0xE4F0F2F4,
        0x02F7FF05, 0x0512F2F8, 0x0A07FAEC, 0xFF0009EB, 0xDFF2E60E,
        0xF4EAFE06, 0x0AEBE708, 0xDEE70CF9, 0x191D0E12, 0xF20A0013,
        0x1DEDF912, 0x02FE0AF5, 0xF8F20CFF, 0x05271606, 0xF801F501,
        0x1A0115F9, 0xF30008D8, 0xD20812F4, 0x2A382320, 0x2003FEF2,
        0x0C1BFBEA, 0xF7FDE4F4, 0xF612E3E3, 0x10242C37, 0x1E02F8FC,
        0x001506CF, 0x081DE5E7, 0xEC3DD1D0, 0xEB271841, 0x46170D08,
        0xF628DCE1, 0xF206FBF6, 0xFF36DAED, 0x16060B2D, 0x1C0621EC,
        0xEE3AF71E, 0x010312F5, 0xE80CFDFC, 0xFE0C04EB, 0x1710FF05,
        0xEE05F918, 0x0EF00818, 0xF70BF70B, 0xFCF5FBCF, 0x031005F7,
        0xF1FE05FF, 0x02EB1D1B, 0xE70AFF11, 0x0413F0DC, 0x0D0FF109,
        0xE8F2FE11, 0x0EF6F008, 0xE9F209FD, 0xEA06E4FD, 0xE9ECEAF2,
        0xEEDEF1F6, 0xFF11F0E9, 0xF5F606E9, 0xF801F5F6, 0xEA0AEE16,
        0xFC050909, 0xF309E1FD, 0xF0EDF8F2, 0x0FF50EF1, 0xE0E2E2F8,
        0x07000C0B, 0x0EF4FFDA, 0xF9DF0C01, 0x201808FE, 0xEDF9E200,
        0x06F804F4, 0xE104FAE5, 0x08EE2624, 0x0D441800, 0x18DE05F6,
        0x250307E0, 0xDEF6EAF4, 0x17041E35, 0x0649EE0C, 0x381A0BEA,
        0x38E923C4, 0xEC16CCF5, 0x26F9F426, 0xF209F228, 0x40181905,
        0x32D1469B, 0x0A24B5FF, 0x32E80A34, 0xE9EF025C, 0x2B2312EF,
        0x1EDD2DDF, 0xFD08BF2D, 0x1D0B1D1E, 0x30F3FC49, 0x584202EF,
        0xFBF220E2, 0xF503D231, 0xFB12300E, 0x4311F516, 0x2D16FA04,
        0xF31B111E, 0xD7FEFF1E, 0xF6040B26, 0x1D15D7EC, 0x3F05D50D,
        0xEA190AF4, 0x02F62CF6, 0xD716EA0A, 0x051BD9E2, 0x2D1DEBF7,
        0xE60D05F1, 0x0BEC0F08, 0xFC0DE70A, 0xE90FEAE8, 0xFA0804EF,
        0x0AFEF40B, 0xF10A0101, 0xF213FEF7, 0xEEEDFEFE, 0x05E4FF05,
        0x0CDAFEF0, 0x01F4F405, 0x0BEE05F3, 0xF7EE11EA, 0xE4E1E4F1,
        0xF80304F4, 0x03F6E3FE, 0x08041D01, 0x030BF6F6, 0x11F106FD,
        0x0014ECEE, 0xE3F80E13, 0x39231F19, 0xDE1CCCD5, 0x1AF01700,
        0xFF05F603, 0x01ED1433, 0x4F35FC38, 0xD111BECC, 0x350143F7,
        0xF6021114, 0x001D2C1A, 0x3F2F093C, 0xF6F3C0ED, 0x2100F5F8,
        0x081A50E7, 0x280BE2F9, 0x26C55928, 0x26F11825, 0xEAEF9C0D,
        0x28E210FD, 0x05F8C440, 0x1AE45232, 0x681F0E43, 0xF910F803,
        0x18D8FEDF, 0xF5F4B12A, 0x11281320, 0x4B36FC2F, 0x1404F4FB,
        0xE8E3DBF1, 0xE824DBE4, 0x1B202212, 0x2908D811, 0x3507FBF7,
        0xF201E0EE, 0xE209FC05, 0xFB27EC08, 0xE7F1D1E7, 0x2304DD07,
        0x05E90CFC, 0xF2F1E9FE, 0xE4F1EE02, 0xF604E9F7, 0x04E9E1FD,
        0x10E4F0EE, 0x10F90901, 0xF809F2E4, 0x0AEBE603, 0xF9060211,
        0x0DFEF502, 0x07FCEDE9, 0x180BF803, 0xFA04EA07, 0xFFF8F50C,
        0xEFE201EE, 0xFC231200, 0x2217EAF1, 0xFFD7E5E2, 0xFB08F1EE,
        0xDFF0030B, 0xEEF62A4D, 0x3A20E5FC, 0x05D5D0BC, 0x091A160C,
        0xD7D8E03D, 0x07FD5C24, 0x0C2EEBE8, 0x191CBABE, 0x0B5B37F9,
        0xD44D0C10, 0xF4F545F1, 0x105BBDD3, 0x0E1FDDD1, 0x1D53C800,
        0xFA6A34E6, 0x2203D83A, 0x5AF6F0A1, 0xE20D1DF8, 0xD526AF03,
        0x2BEA05F6, 0x0CD8DE30, 0x6FF9F9E9, 0x112B1CF8, 0xB9400F07,
        0x1BE7F4DE, 0xE90AD31B, 0x550FF5F4, 0xFAF8FC33, 0xED0536F8,
        0xF3D2CA05, 0xF114E6E2, 0x3C3C06F2, 0x0BE1EC21, 0xDBEC1412,
        0xEDF9F10D, 0xF90EEFFF, 0xF91BE50B, 0x09D809FB, 0xFBDEF306,
        0xF3F50312, 0xEE0FFAF6, 0xFF10FCF9, 0xE401F6F4, 0xE3F00809,
        0xEEF2FD03, 0xFFEBEC05, 0x0903EA04, 0xE8F7E8FD, 0xF9F5F415,
        0xEFE20911, 0xEFFAFD08, 0xF9F5F6F0, 0xF3F2E5E7, 0x06F10306,
        0xEBDDE229, 0xEB17EF26, 0x0E04F604, 0x12E4F6E1, 0xFC1B1A02,
        0xF7DBEF39, 0xF4142E2E, 0xFA10EEEC, 0x05DBFA07, 0xF42C4706,
        0x0AF6E54F, 0xE7EC38F3, 0xDE35B3FD, 0x17E70C0B, 0x014F50F4,
        0x046EFB11, 0x0CE10D0C, 0xF341B6B0, 0xE53C3906, 0xFD1EEDED,
        0x147F11FD, 0x0DFFDA3D, 0x4011E7CD, 0xCD3055EE, 0xB2EBFEFB,
        0x36EC0927, 0xF1E6EB2E, 0x57FE0DF2, 0x342D17FD, 0xD2425904,
        0x08E31728, 0xE5041DF9, 0x2CEE2A10, 0x4325050A, 0xDF272DFB,
        0xDCDDEB1A, 0xF80320D5, 0x1A0101F7, 0x17ED1417, 0xD2FD0FF5,
        0x08F3FC06, 0xFF180DF4, 0xE60802F5, 0x0EF20812, 0x00F1F601,
        0x03F8020C, 0xF70BEBF4, 0xFA08FAF6, 0xFFF81305, 0xFBEC0A04,
        0x06F6FA01, 0x0BF0E1F5, 0x03F30805, 0xE6F3FF02, 0xEAE9F10C,
        0xFBFCF1FC, 0x060FFBEB, 0xECF6EBF8, 0xEFF70A16, 0x06FBE8FD,
        0x0DF2F5FA, 0xFFFB0EE7, 0xC700E1FA, 0x260E0D1D, 0x13F50C04,
        0x06EFB40E, 0xE92A12F7, 0xFA35F1ED, 0x0DF0FF0F, 0xE3E74DF2,
        0x16028409, 0xF4090FF1, 0x1F5CD0E8, 0xCFE32B14, 0xF2CB5009,
        0x296BCEFF, 0x05F1DF2B, 0x240BE9E9, 0xD01356F1, 0xE9A41602,
        0x2236EF2F, 0xEAFBF864, 0x15ED0709, 0x112C4EE2, 0xDCDD3308,
        0x1DF81513, 0xF2EB17ED, 0x12FDF50E, 0x2D300C05, 0xF5393F0F,
        0xEAF91B0B, 0xE70C30BD, 0xFBFC05EF, 0x31151921, 0x022707FD,
        0xEFE5FFF5, 0x130224D6, 0xE1FA0206, 0x18052412, 0x0BF2FAFA,
        0x1AEBE004, 0xFAEE0CE9, 0xCFEBFAF6, 0xF6FC0E11, 0xEFE8F1EF,
        0x1201E207, 0x0913E507, 0xE7FFF7F1, 0xE7FD0BEC, 0x05EBF707,
        0x08E0FF09, 0x0206EAF7, 0x0014EBF6, 0xEE04F3FB, 0xFCEFE113,
        0xF005F70F, 0x07F1F9E7, 0xF204F1F7, 0x17FB0DF6, 0x0DFDDB0F,
        0x0B0601F5, 0xF705F0CE, 0xBE0505FD, 0x1F2C1112, 0x2912F401,
        0x0831F6F7, 0xE60017D2, 0xC025F210, 0xF3FCEE33, 0x5907FFFE,
        0xF034C705, 0xEE0836B2, 0xEB43031E, 0xC4EF1232, 0x1BC009ED,
        0xE332E31A, 0x11EE5CCE, 0x05ED031F, 0xE8E42412, 0x01C732F1,
        0xE7231A10, 0xFD133DDF, 0x22FDF613, 0x09E91D2F, 0xEEFE2B03,
        0xF7281121, 0xF6FA4ACA, 0xFE29F000, 0x1B0D2D3F, 0x070E1305,
        0xFA190600, 0xF4F225C3, 0xF4F6E7F9, 0xED292621, 0x101902FF,
        0x1D1C0DEC, 0xF00014DB, 0xC500FDF2, 0x03211504, 0x21F50EED,
        0x040FE1E8, 0x08EEF6E6, 0xCFF8FB03, 0xF8FA0102, 0x1BE7EF05,
        0xFCF40303, 0xEFF001E6, 0x07EBF8FB, 0xE5EDF4F4, 0x01FBEC06,
        0x11F6F7ED, 0x0DF6F0FF, 0xE30BF8E8, 0xE9F8EF0B, 0xE8FC0107,
        0x05F3FB11, 0xF704FAF9, 0xDCFA12E0, 0xF016F3EE, 0xF3F3E905,
        0xFE171703, 0xFA06F8F5, 0xD2F404F0, 0x0FFE242A, 0x1FF6D8F0,
        0xED2820FA, 0x070FF0DF, 0xCF111210, 0x011D1217, 0x26E8CFF9,
        0xE81109FE, 0x07EC2BF6, 0xE42B191A, 0x01EFFE3A, 0x38080401,
        0xE00DF2FC, 0x0B0B30EE, 0x1A5E0216, 0x21FD0535, 0x20FF1809,
        0xE82C0C14, 0x15172FE3, 0x0A3F0A00, 0x220C0609, 0x0800ECEA,
        0xF12AF801, 0x12020BE1, 0xEE1D00DF, 0x171226F5, 0x16FFEF13,
        0x081DE7EB, 0xF405EA04, 0xCF06D1EA, 0xF81B08F1, 0x120101F6,
        0x0306E9E9, 0x0CF7F003, 0xD9FDDA02, 0xFA1C1000, 0xFF07160E,
        0x0AEEDEEB, 0xFDEFF6FE, 0xDAFE08FF, 0xEB01010A, 0xECEF09FB,
        0xF6E5FEEC, 0xEFEFFD0C, 0xEEEBF7E7, 0xFA020101, 0xFAF60011,
        0xF703EE13, 0x0215020F, 0x09F40BEF, 0xE9FBE804, 0xE50CE8F9,
        0xFBE505F7, 0x100AFFFA, 0xEEEA11FB, 0xF8FE0CE6, 0xE107DDF4,
        0x0FF80BEC, 0xFE0CF9E5, 0xFFDD1203, 0x0EFAF4FD, 0xF50AF209,
        0x08F226DD, 0x0D0EE009, 0xF8EA16F2, 0x0BF0F6FF, 0x01FAFBF6,
        0xFCF625EE, 0xF60CECF2, 0x1309101B, 0x1D27F311, 0x1220EA10,
        0xEFE907E3, 0x03FED407, 0x1B3A1A07, 0x2231DF07, 0x3B0AEB12,
        0x02041DF5, 0xEDF1E50D, 0x1A31090F, 0x0B1ADC03, 0x2BF1DC09,
        0xFA0EF4E3, 0xFDECD601, 0x0EFEFFF6, 0xE901E4FE, 0x0211F5F1,
        0x1700F7ED, 0xFAF9F110, 0x02F2EAF8, 0xF412E4F5, 0x110CFA01,
        0x0AEAE0EC, 0xF80000F6, 0xF6ECEAFA, 0xE9FA0B00, 0x0A150F0C,
        0x0F01F511, 0x03F9E3F0, 0x05F9E700, 0x050A02E4, 0xF7E9ECFE,
        0x0DFBFE10, 0x0D0BE3E8, 0xE9ED0609, 0xF0F80CE9, 0xE3050305,
        0x08FCEBFB, 0xFB0EEF08, 0x0BF7FD0B, 0xE4F1FEEC, 0xFBFCFBEE,
        0x07E903F1, 0x11FEF5EB, 0xE508100A, 0xED010907, 0xF8E60704,
        0x0CDD0101, 0xEE0CEA02, 0x09F9E800, 0xF0F9EBFD, 0xF2F106F1,
        0x10E0EE07, 0x12F0E207, 0x06FFF708, 0xFD0C0E05, 0xDD02DFED,
        0xF9D61304, 0x08F2F2EC, 0x02FA0208, 0x010AE311, 0xEB0D0B13,
        0xEFD909E0, 0xEFEBEA0C, 0x1D001014, 0xE9ECFE14, 0xF7F2E3F1,
        0x02E912EA, 0x1009FEEC, 0x05DD2019, 0xF0FE020D, 0xE60A060B,
        0xFFF0ECDC, 0x0AF5FFF2, 0xF80A0CFB, 0xFBFEE8EA, 0xF7E3DF16,
        0xF1E7F3F6, 0xE912E20F, 0xEDFD01E7, 0xDE03E6E5, 0xEFED0800,
        0x02F0E5E7, 0xFCFCE308, 0x0B05F7F0, 0x01E5EAEE, 0xE6F5F50D,
        0x03E9E1EA, 0x07FAED0A, 0xFD0CE60D, 0xF80BEDEA, 0xFE0AFFEF,
        0x08E6FDF3, 0x1304FD0E, 0x05ECF8EB, 0xE5090E0A, 0xE0E5DEFD
    };

    static constexpr float fc0_bias_data[20] = {
        0.0235106517f, 0.0700663626f, 0.180911109f, 0.0721586868f,
        0.00054064038f, 0.0227785017f, 0.109041885f, -0.0111004934f,
        0.0751953125f, 0.0651316643f, 0.0567888319f, 0.0304844566f,
        -0.000116550669f, -0.00254573487f, 0.045254752f, 0.117786549f,
        0.0363415293f, 0.0734569728f, 0.0778153464f, -0.0391396359f
    };

    //////////////////////
    //   fc1: Linear
    //////////////////////

    static constexpr float fc1_weight_scale = 0.00723530119;

    static constexpr uint32_t fc1_weight_data[60] = {
        0xF7DE4009, 0xFFCFD113, 0xEB280000,
        0xA86A19F5, 0xEB2313AD, 0x33C30000,
        0xD823D34D, 0xD92FD12B, 0xD0130000,
        0x07EE0BE8, 0x4F042DEF, 0xCBB90000,
        0x082D02FE, 0xE9E2FCE5, 0xEE130000,
        0x2F1DEAF1, 0x0DF0E6F2, 0x05180000,
        0x1FE8F709, 0x15547FEA, 0xCFAE0000,
        0xE329D8CB, 0x5600A820, 0x06400000,
        0xB9F89CD9, 0x02CF155A, 0x24560000,
        0x3EC8DBE1, 0xF3FC14A8, 0x61E60000,
        0xF709F212, 0xE0FE006B, 0xDCC70000,
        0x38D828DA, 0xEA300460, 0xFDFD0000,
        0x38BCF342, 0x27EAB723, 0xD9D40000,
        0xBCD62846, 0x151CD805, 0x41EF0000,
        0xD0355C23, 0x08AF2805, 0xE7D50000,
        0x36F03F33, 0x90C0F8F4, 0xE1F20000,
        0x49DA1BEE, 0xA45DBCDD, 0x1FEA0000,
        0x17BDC63B, 0x2732D6DA, 0xE3460000,
        0x189F3EB2, 0x3DF73B06, 0xE33C0000,
        0x0FEFFEE5, 0xEEFEFFF9, 0x11070000
    };

    static constexpr float fc1_bias_data[10] = {
        -0.307882547f, 0.337031037f, 0.112869203f, -0.0168226268f,
        -0.265889734f, 0.0791611299f, -0.217540741f, -0.188734606f,
        -0.0596786812f, -0.0748851076f
    };
};