// DO NOT EDIT. File generated automatically, your changes will be lost when regenerated.
#pragma once

#include <stdint.h>

class ModelParameters {
public:
    //////////////////////
    //   conv1: Conv2d
    //////////////////////

    static constexpr float conv1_kernel_weight_scale = 0.00486613624;

    static constexpr uint32_t conv1_kernel_weight_data[108] = {
        0x06EC0D11, 0xE6B6E4CF, 0x291E30D4, 0x080DFBDE,
        0xE9082349, 0xC4E8FCE0, 0xD5E023ED, 0xE9272ACC,
        0x09FFD21A, 0x32F002F8, 0x2FD715D8, 0xC2F123DF,
        0x01E6EE0F, 0xD9F330DF, 0xEC18B81C, 0x13FD0F1E,
        0x14DBE215, 0xC60F0B14, 0xDDEC10FD, 0xF4D6BD0E,
        0xD326FFE3, 0xDB352729, 0x22E0000C, 0x0E1B170B,
        0xECFA0BBE, 0x00201106, 0x2BF5E0F6, 0x1AC415F1,
        0xF5DB0BE8, 0xDE34EBC8, 0x05411FF5, 0xFEBCC73B,
        0xF4FF1D08, 0xF22E010B, 0xE00200F1, 0xECECF91E,
        0xC9D330F1, 0x1CEA0C13, 0x2AF51FEF, 0x0511DCE6,
        0x1E193EFC, 0x180EBC14, 0xD72F24DA, 0x180C03C8,
        0xE81AEE00, 0x2320E309, 0x29DB28C1, 0xE610EA39,
        0x1D07EA18, 0xFB1CF23D, 0xE522C6EC, 0xFCFE1D02,
        0x44F9DDDF, 0xE0CD9329, 0xBBF0DB26, 0x0D25D111,
        0x1149FAD2, 0x28DDF105, 0x040624F7, 0x0DF60710,
        0x11DCE72D, 0x16F20B21, 0xD9DCE7E9, 0x120237D4,
        0x03D9DBF8, 0x07EFB4EC, 0x083B0911, 0xF1C8E32C,
        0xFF3E2AE7, 0xEDDC052B, 0xEAE3F018, 0x1E2F2ADB,
        0xCCE804F4, 0x2D0D2DE0, 0x042AFB18, 0x521AF6EE,
        0xC31E3618, 0x15302009, 0xE41AD826, 0x361B06DB,
        0xCDDC1EE8, 0xE90E2000, 0x2ADCFD08, 0xC7E12134,
        0xE92DEB10, 0x270624F8, 0x26F5DF46, 0x7F2BE9E1,
        0x44DED401, 0x24E0DC05, 0x03F9D651, 0xFA1AC121,
        0xFEF4F9DB, 0xF1D0EBDE, 0x34F30A06, 0xFBE611FE,
        0x1CE51F08, 0xE931D81E, 0x06EAFE04, 0x3FC929EE,
        0x1D22D12F, 0x1EF4E7D3, 0xF43D2DEC, 0x0EB91530,
        0x1519F406, 0x06F3C6DA, 0xE4CE06FE, 0xE00AEDFB
    };

    static constexpr float conv1_bias_data[16] = {
        -0.0587580018f, -0.193587363f, -0.112850666f, 0.0348304845f,
        -0.0120129604f, -0.00943061151f, -0.127271876f, 0.0950685292f,
        0.242462248f, -0.0155066885f, 0.228009045f, -0.1543345f,
        -0.127489179f, 0.177697614f, 0.0142412605f, 0.0134740528f
    };

    //////////////////////
    //   batchnorm1: BatchNorm2d
    //////////////////////

    static constexpr float batchnorm1_scale_data[16] = {
        1.69953334f, 1.53860939f, 2.52104354f, 2.62050271f,
        1.05819714f, 2.38940382f, 0.447147518f, 2.59419465f,
        1.80191934f, 2.37702084f, 1.39494836f, 0.844086766f,
        0.361150682f, 0.820926726f, 3.42638636f, 1.73140395f
    };

    static constexpr float batchnorm1_shift_data[16] = {
        0.194846377f, 0.638636887f, 1.02152908f, 0.454014599f,
        0.256265342f, 0.322502017f, -0.202443421f, 0.0189639926f,
        -0.0748066604f, 0.770707488f, -0.146292627f, -0.13466841f,
        -0.130716875f, -0.57716918f, 1.14548028f, 0.498381674f
    };

    //////////////////////
    //   conv2: Conv2d
    //////////////////////

    static constexpr float conv2_kernel_weight_scale = 0.00420721481;

    static constexpr uint32_t conv2_kernel_weight_data[1152] = {
        0xC90C21F2, 0x0101B826, 0xD0F70309, 0xDADDE8EC, 0x09DFDA1E, 0xE7EFEAE4, 0x0231E8F9, 0x121E1BE0,
        0x000C2614, 0x0522823A, 0xEFEECFFB, 0x19F6F3E3, 0xF9F31C1E, 0xF81229E0, 0x00FAC4EC, 0x18F3DCC0,
        0xEAF419F1, 0xF501B634, 0x07D4F80B, 0x1F010310, 0x2FEA0825, 0xE7F126F9, 0x17CC07F1, 0xE21EFCCD,
        0x151FE7DA, 0xEF4507F4, 0x0AE7DC04, 0xD325DB07, 0xDA10E4F8, 0x28DFFB0B, 0xC018F7EE, 0xFA2635D9,
        0xEFEDE4F5, 0xFF21F5F1, 0xE1D713EF, 0xE105E120, 0x0600170D, 0xFE01F6FC, 0xB5EC2527, 0x0B1EDBA9,
        0x02D9E4FE, 0xF3D731DD, 0xBFD10211, 0xFBE2180F, 0x27E41005, 0xFEE12FF3, 0xC2CA25EC, 0xF9F20AAF,
        0xF5EEF8ED, 0x031C3BB5, 0x1111E9ED, 0xC9FEE0E7, 0xF51EE704, 0x55F9E2F3, 0xEBF80AEB, 0xED0F11CD,
        0xE6D8C5F8, 0x10F949C8, 0x1EEF040E, 0xBED4FBCF, 0x16FA19E9, 0x23EBEEF8, 0xFDD10AF6, 0xE713C5B7,
        0x03CCF705, 0xFFE53ECE, 0xD9F0CC0E, 0xE9DB1701, 0x08F9FDCF, 0xE8DA18F0, 0xCFBCE405, 0xF91F12CF,
        0xCCF5EBDC, 0x13D60BE1, 0xF71FFB0D, 0x0913F80F, 0xB41705D3, 0x23162330, 0x21E2FA09, 0xFFE6F7FC,
        0xFA2D27B6, 0x18D8EC10, 0x07140141, 0xDFD305EC, 0x1101E0F2, 0xE80EF018, 0x08E11BFE, 0xF105EE0C,
        0xF81246DE, 0xC4DEFD25, 0x0A35C31C, 0xFDE51607, 0xFFEF092C, 0x0202E1CF, 0xD110D4F8, 0x51E7FF27,
        0xF3BABCE8, 0x17BE24D1, 0xF13BFD12, 0x0ABEE514, 0x06E606FA, 0x3803E609, 0x11E1FE31, 0xCD08CF12,
        0x25FF02EF, 0x11E7150D, 0x18F8F4EF, 0xE10BFD0F, 0x0EE4E7C8, 0x10D611F0, 0x0AFFED1D, 0xF20821E9,
        0xEC2A14DC, 0xD0DBF703, 0x04192BDF, 0xEF1A2117, 0x11D908FE, 0xFDCC2DBE, 0x172A2A04, 0x42FB080D,
        0x09D4B9FB, 0x23BD1DF1, 0xF741E92F, 0x2E1CF9F9, 0x03ED151B, 0xF2F909C8, 0xECEFFB16, 0xDA24F30A,
        0x04E1D614, 0xFCD622FA, 0xC7FC12FC, 0x0212FFD4, 0x0E0AEBFF, 0x2201030C, 0xF10E1336, 0xDEE922FB,
        0x3E290BFF, 0xCC261CF4, 0xF6F724EC, 0x12F82DE2, 0xFC222407, 0x09D62C27, 0x391B0BBC, 0x220CF6E2,
        0xDF031000, 0xE3F2F620, 0x0AF007C7, 0x2B4210FF, 0x1E1509F1, 0xEBD8F5E4, 0x38E124F9, 0x2701F81A,
        0x33DDF1DA, 0xD9F7DE10, 0x07091BEB, 0x17EB2E11, 0x1910E2D7, 0xF7DFDFF3, 0x442A40EF, 0x10310A22,
        0xE5E7D6FC, 0x1201F009, 0xF5FCD70E, 0x06DBFFF0, 0xE5082214, 0x1E08D1F5, 0x02DF350C, 0xFBFCFC02,
        0xF11FE8F6, 0xF312072A, 0xC7E915D6, 0x2997EFB8, 0x2B1F0C0E, 0xFB521DDD, 0x03F22A14, 0x01B9FF13,
        0xFDD6F4C6, 0xE4EA062A, 0x0806C401, 0x10B624A0, 0x0913DBB3, 0x0E2C0CE4, 0x0619EFDC, 0x03D93229,
        0x2BF21AC6, 0xFB1E08F8, 0x0BF9091A, 0xD6E712AC, 0xD11B1CE3, 0x2F10D923, 0x31D9CAE4, 0xDE31D0F8,
        0x14210C07, 0xE7E8FAD1, 0xFBC1A609, 0xFCFFB536, 0x09E8EEFA, 0xBDD11BEB, 0x0FFBC8D9, 0x0509021E,
        0xCCCFCA02, 0xEE1B16F6, 0xE1080921, 0xFF17D049, 0xB9CDF0D4, 0xFEDAF11A, 0x2E0AB836, 0x0EF1F013,
        0x1DC4F9CA, 0xEE0C0E06, 0x23263C07, 0xE0F3F739, 0xDEC717DE, 0xF9DCFC3E, 0x04F6D0FC, 0xCDD6EE08,
        0xF2F7FCF8, 0xF6F00BC4, 0x00DF17DE, 0xE2F20C07, 0x27E40521, 0x0D1514EA, 0x15F7460C, 0x021610C9,
        0xEB300005, 0x2D080BED, 0x04CEEA06, 0xB9E3CD1A, 0xE7F919FE, 0xF3EC26EA, 0xF80D49EA, 0xDFF213BF,
        0xF33D043B, 0x46112CCC, 0x15F2F8E5, 0xD6D4E93D, 0xC6D7FDFA, 0x02FE1419, 0xE0B01CEF, 0xE1C5DBD8,
        0x11F1D8EC, 0xF6E61121, 0x06DCF0FF, 0xEFE812CE, 0x29E4EF34, 0x141BFCDF, 0xFD070CF3, 0x2C0102E7,
        0x1C14EFF0, 0x24121C22, 0xF8DFAEF7, 0xC1EB1AC7, 0xB2CA1E05, 0x2201E90C, 0x0903E7E0, 0xEE20F0D8,
        0xE812060C, 0x172C1AE9, 0x0CD131FE, 0xE006F3F2, 0x03C9D8EF, 0x30DE2639, 0x00CDC404, 0xD714FBDC,
        0xDFDAD5DA, 0xFE20E01D, 0x04D5C8DB, 0x18280307, 0xDFFDDA24, 0xF7F3DC0E, 0x2A24B720, 0x45112803,
        0xF6C2C7C5, 0x15240E11, 0xE0C723C4, 0xE00D0EE9, 0xBCEA092F, 0x10E9DA2F, 0x1924AE16, 0xF9E3C3E0,
        0xFEFDF5FE, 0x0B2D0102, 0xFB12FCEE, 0xDBF8E011, 0x2BCAEAF3, 0x2208ED05, 0xF8D2C5D3, 0xD01F2FFB,
        0xFD2404EF, 0xFA0FF1EF, 0x38EAF919, 0x0A04D1E0, 0xE1040515, 0xCC3CC4FB, 0x21FFFC29, 0xD2D40A31,
        0xCE4F27EC, 0xE5FEFBEC, 0x20F105F0, 0xEC09E2F7, 0xE421F4EA, 0xDE26D6FD, 0xF823021E, 0x29D7FE2D,
        0x0928EB1D, 0xF8D7EEFC, 0x0BF51402, 0x200000F6, 0xE51F0BD3, 0xF30E0803, 0xE7F9EFCB, 0x29EA0926,
        0x0FFC01F3, 0x25F9FFF0, 0x2BF90FEE, 0x00DFDC08, 0xEEE11346, 0x08261EF7, 0x15F7EF1E, 0x9E15E609,
        0xF2371CFF, 0x05FAFDE9, 0x04E8F0D4, 0xE9ED19F9, 0x0DDEE722, 0xEAF4FDFD, 0xF1FE03FF, 0xFA040E1A,
        0xD904FE12, 0xF50914D6, 0xD20AFCD0, 0xEF3435F1, 0x18DDF8C1, 0xDCF0FB0A, 0xF506F2DF, 0x47050F0A,
        0x1AD0EB0A, 0x18230C0A, 0x030603F8, 0x01F2EF1A, 0x08B21459, 0x28E20CD9, 0x12EFF61A, 0xBE35D5F0,
        0xF61309F3, 0x1E2B0E14, 0xEE1CF8CC, 0xDB08001D, 0xFC9CF413, 0xF0BD37EF, 0x09F1DFEC, 0xE829FCEB,
        0xE814071A, 0x082A01F7, 0xC81A17E3, 0xF4283A22, 0x2D9D11E5, 0xDBC2441F, 0xE9FDFEED, 0x4817FFEA,
        0x00C8C9E7, 0xF4E905CA, 0x15160EA2, 0x051C6FE4, 0xE4EEF404, 0xFCE2FA2A, 0xF30F1BF3, 0xFB15EDFB,
        0x0C05C1F9, 0xEBFADBF0, 0xE3D4F3E3, 0xDB0A3EDD, 0x03C91E2F, 0xF90BECF1, 0x232315D0, 0xF40E0E1E,
        0xF71A8122, 0x332CE908, 0xE9EAEE03, 0xDFF70FEF, 0xF1E4182D, 0xE0030DBA, 0x1D1E0EEE, 0xE3D0E4E1,
        0xD9D301EA, 0xCE03D5E8, 0x12ECF9ED, 0x002531E2, 0xE41E0E09, 0x06240119, 0xFE060312, 0x14E70706,
        0x18F008E5, 0x1122D7BF, 0x0CE5FA20, 0xA817F5E1, 0xE213E50B, 0xE210E5BD, 0x33FBFCEB, 0xEBEDFC4A,
        0xF512E210, 0x1E1FF1F4, 0xD4F80142, 0xCDECB5E0, 0xFF0E1314, 0xDA15D8B5, 0x0BD30718, 0x052AF811,
        0xF52422C3, 0xBD30F102, 0xD6070A2C, 0x1CE4EF25, 0xFF10F0F5, 0x27ED0BFC, 0xEDEDEF04, 0x12100309,
        0xCC1403F1, 0x0E30DB06, 0x1FFA0744, 0xE1D9C044, 0x0C20000A, 0x1FE3F7D6, 0xFA06F329, 0x08F9EB18,
        0x2D18190B, 0x2909F3FF, 0x00010B24, 0xD5E1A62F, 0x0E22FFF7, 0x14E4C9F5, 0xCFF7FCF3, 0xFC030100,
        0x1BDAE223, 0xA9EF29BE, 0x010AFC00, 0x150625E9, 0x26E80D0D, 0x10F50BE2, 0xD617070C, 0xDAFEF3BA,
        0xFAEEE73C, 0xE11913CA, 0x0B0A09FB, 0x09EA17E7, 0x01F2F02A, 0x170313F8, 0xC62D1D03, 0xFA0925D5,
        0x0CE7F64D, 0xED1D18E9, 0x06E218F0, 0x06191FFE, 0xF9131018, 0x15F2161A, 0xC81F2D15, 0x0303F5D6,
        0x1AE70008, 0xB9FD01F8, 0x1006EAE8, 0xF0042806, 0x18F60AE8, 0x2E0B1CF7, 0xD10DFE0D, 0xEFF416F4,
        0x110C0023, 0xE61400EA, 0x0D04F5F9, 0xF9F31511, 0x0000E90B, 0x261D1D0D, 0xFA0F0DE6, 0xF10C1429,
        0x0A08E938, 0xE723F5F8, 0x01F016FC, 0xEA02240C, 0xEF0AEA0C, 0x27061713, 0xEC0B1AF1, 0x0AF00222,
        0x1FDCF8D5, 0xB200E51A, 0xFD13E7E7, 0xFAE7131C, 0xFC06F2E6, 0x143A08F5, 0xFC0EEF15, 0xE7FF1B11,
        0xFB0217E3, 0xDA2AFB2B, 0x2017110F, 0xF2D8F926, 0xE2F5CFDD, 0x4434FA28, 0x0D1FE5E8, 0xF2FC2337,
        0x15FDF617, 0xEA2D1A31, 0xF4131B01, 0xF8DEE318, 0xE7EE08F4, 0x312F1926, 0x120DFAF2, 0x07E7EE3B,
        0xD4D8E70F, 0xFBFBB315, 0xEFF533CA, 0x29CE01FB, 0x2CF0F21F, 0x1CF5C449, 0xE7011218, 0xD3FCFDEF,
        0x16FE3CFD, 0xEE0C9940, 0xF8DADBCB, 0xBFF6FEE1, 0xDDF6E40B, 0x1018E611, 0x04FCF80B, 0xEFF61EEB,
        0xB51F03D6, 0x070CAD44, 0xE6C0FFEC, 0xEA2410C7, 0xC8FEFB1E, 0x0A18D1F9, 0x09F5BC3F, 0x3F2CE9D3,
        0x0E10CA33, 0xF816FACF, 0xFC21DF21, 0x120E102B, 0xF4F804F0, 0x34FECFFD, 0xFF10E00F, 0xC1FB1906,
        0xBAE5F01C, 0xE6171FF1, 0xF2E80727, 0xB034EE23, 0xC9F506D8, 0x16F1E1BD, 0x0FF2D026, 0xC2FA1A0C,
        0xF20AF8E4, 0x022AEAE6, 0xF6032523, 0xAEE31F11, 0xF4F308DE, 0x16EEF611, 0x01EC010F, 0x2EFED5D5,
        0x4FEDF617, 0x190A05F3, 0x3526F91F, 0xFF0ED804, 0xBF210217, 0x162016E3, 0xFC04ECB8, 0xC7D23233,
        0xDDFCE905, 0x1E1121BB, 0xF6180E0E, 0xE4F3F313, 0xDF0FF9FC, 0x1404C5CB, 0x2AD7EC0D, 0xDCE5F444,
        0x06DEE2FD, 0x0BE92DC1, 0x0AFEE10D, 0xB6F904F6, 0x181217F0, 0x0720E0D0, 0x25EA1AEB, 0xF2EBBA26,
        0x110EF5EC, 0xFFECFA0D, 0x27F9D5F2, 0x011BF3CE, 0xD70F32D2, 0xE51FDEF8, 0x26E507D5, 0xF3F8E106,
        0xE1F30C19, 0xDEE31EC7, 0xDAFBF610, 0xEAF011E4, 0xF81EE610, 0xE427BAF8, 0x0FE6E913, 0xFBDFEE1F,
        0x11130825, 0xE8F311FB, 0xDDF70D09, 0x03E202FE, 0xFC3506E0, 0xF9F6F01D, 0xF42703D8, 0xEEEE2F23,
        0xF4EBE0F4, 0x08100503, 0x2CF613F2, 0xFC3104D2, 0xFCCB16D6, 0xEE133AF1, 0x1FBA01F5, 0x10FAC5FE,
        0x010A1DE7, 0xD8F1F6E9, 0x201B3218, 0xF6DE18FB, 0x12EAD927, 0xDE0B1608, 0x1FFEF1CA, 0xDD070518,
        0xFCF41F17, 0xC0E00709, 0xBC39C1FC, 0xCE08071C, 0xDFF105E6, 0x0A0CEA14, 0xF60FDB06, 0x0D122F16,
        0xD4CBC4E3, 0xEF21F0F3, 0xF6D621EA, 0xFCD2E0FE, 0x03CC24FB, 0x01E2ED08, 0x25F7E930, 0x2C23ABF7,
        0xF8FCC3D1, 0xE520FB2C, 0x3103FEF3, 0xE2EEF711, 0xF4CCB2F6, 0xECD63CEB, 0x1406EBE7, 0xF0163F12,
        0xEEF3E9D6, 0xD0F7EA27, 0xD6300AC6, 0xEC1CDC25, 0xFD9E2BF3, 0x15E41412, 0xEF2EDA06, 0xFE04E935,
        0x2AF0F4F6, 0x09DED503, 0xB4E0C70C, 0x022FC7E0, 0x10E8DC20, 0x112522FF, 0x2121F3B5, 0xE6180913,
        0xCECCC502, 0x17DFEC1A, 0x08A5F81A, 0x09FE0716, 0x14FE3824, 0xD502EEF3, 0x1D071F3D, 0x051ADFEC,
        0x16CE00EC, 0x2EF5F42D, 0x3EBCDE19, 0x14EE0D16, 0xFDE5EE0B, 0xC0F90505, 0x198F2EED, 0xDEB5F6F3,
        0x0BF50F11, 0xFAE90ED7, 0x11CA4914, 0x08D9D711, 0x2916A6F8, 0xF40D0125, 0xE91C18F1, 0xF3C9E834,
        0x1DE00411, 0x1F281DE0, 0x98B9F004, 0xEBA6F2F8, 0xE5114625, 0xFE13DC02, 0xFEFA20BD, 0x0FECE929,
        0xE3DAF8FC, 0x15F1FBFE, 0xF6BDCFEC, 0x2AEBFD00, 0xCCEDD430, 0xE319FDF9, 0x0EB5051F, 0x1D3C0B02,
        0xD52E1725, 0x0F50EDF2, 0x28C3CBFB, 0x0AE9EA07, 0xF831D3EC, 0xFFD3FE10, 0xF439EF1F, 0x12200912,
        0x010FFDF3, 0x0012F4D0, 0xF6AFF9E9, 0xC91705DE, 0xA0384DF2, 0x27C70402, 0xF505E1FB, 0x1703F915,
        0x15F928F6, 0x082CDEDF, 0xBEBA71EC, 0x020521FE, 0x1514EB32, 0xD9D1FF16, 0xFDB4E5FF, 0x1403131C,
        0xF3DF29E4, 0xF9E2E6E8, 0xE314D496, 0x06340B29, 0xEED4ECD3, 0xF8E7CB30, 0x15C7E2DB, 0x244916D9,
        0xE5F60FF7, 0xD6F2E2E5, 0x111B15C0, 0x03200A0E, 0x09BA04CC, 0xFEE6D73A, 0x2CE030E4, 0x121DFAE3,
        0xFA2D1CF5, 0xF5F7F31E, 0x0229FAF1, 0xDFC510F9, 0x27B70522, 0x0EE2D306, 0xF9DC26E5, 0x04FEDEE8,
        0x02CCF5EF, 0x13D10D18, 0xE0F0F8C5, 0x290829E0, 0x0AF0F9F0, 0xF6240409, 0x09D3F7E1, 0xF50C09F1,
        0x0CEA05CD, 0xD8D21411, 0x1AF91BF6, 0x0CAB1FE7, 0x0DE303C6, 0x361AC917, 0x12EEFBFF, 0xE516F7FF,
        0x0F170FCA, 0xBCE50019, 0x042ED1B0, 0xE1F3F1D6, 0x07D515EF, 0x0C06C8D5, 0x020AFDEA, 0xF20213F1,
        0x16DDF407, 0xF4C0040E, 0xDA0BE8D9, 0x2CBB0407, 0x0EEEF914, 0xC4ED12E3, 0x05D3DEF7, 0x16F60C06,
        0x26E9BE03, 0xCDC501FA, 0x12E7CB06, 0x2A0BFD0B, 0x030DEB04, 0x08F4C4F2, 0xFEFAE20F, 0xEEF1F800,
        0xF9FFE2BF, 0xC8CEE93B, 0xF70A2300, 0xEF31E21D, 0xC81113F0, 0x0BECD7CB, 0x2E25F50F, 0xEBEFF603,
        0x1BF6E5E2, 0x050BF0F8, 0x26C6120C, 0xF0FCE100, 0x0539EFF0, 0xEE3805EB, 0x20020D29, 0xF0DF0BE2,
        0x19EFEDFF, 0xF0F5EB08, 0x08D8E427, 0x10E12709, 0xDF35F2E6, 0xC9262A02, 0x20F3211A, 0x01D7ED0E,
        0xEFF902F9, 0xDAF3EFEC, 0x17EF00FE, 0x0F064704, 0xDB3C0EC2, 0xED1F1AFC, 0x1FEF1DF0, 0x27E41AF6,
        0xFFF7F9E9, 0x0E1CD4FC, 0x0ACBEAF7, 0xE9E6DCFB, 0xE00015FC, 0xC01CD726, 0x22F40124, 0xB919F0D7,
        0x01F7D6F5, 0xD211DC03, 0xF1C9E403, 0xE2FDF4FE, 0xDC0C0ED7, 0xDBF7101F, 0x31FCEE1A, 0xEF00F7F3,
        0xEC03D21B, 0xD1FBE3F0, 0x0DF907FE, 0xEAE337F8, 0x0D0EF6D0, 0xBFF90F2C, 0x2DEAE5DA, 0x2DDDF2F0,
        0x20FE0BD6, 0x1A33FAFE, 0xFBE3F420, 0xF5FCE3E5, 0xD7DB0544, 0xC90BC3FD, 0xF8EE1125, 0xA828FDDB,
        0xF21318F2, 0xDAFB0918, 0xE6F70608, 0xF514F6EC, 0xFCD30308, 0xD9E0CBE6, 0xCEE4FE04, 0xC2310DCF,
        0xFB140012, 0xDFE50D18, 0xD315120F, 0xEC00F6F2, 0x0CF2D9FB, 0xDAD1F803, 0xD2F7E4E0, 0x080B10C7,
        0x0702F0E9, 0xF9E119EE, 0x21CEFC0F, 0x031FB4FB, 0xEE1615EB, 0xE113EBCA, 0x29180DEA, 0xFDE1D7EB,
        0xFD01F91B, 0xD8F505ED, 0x20EED81C, 0x150AEFF9, 0xC80D00BF, 0xCF0AF3D4, 0x4E292EDF, 0x08F50BFD,
        0xDAE2FD26, 0xF60103E5, 0x1D1EF428, 0x000CFE0D, 0xEC0803C1, 0xC1D7F4E5, 0x46021BE5, 0x0AD4F9FA,
        0x0703F0F5, 0xF112F6FE, 0x06EDE907, 0xEEFDCB04, 0xF9040EF4, 0xBEEDE0EA, 0x290501FE, 0xE40DDEE9,
        0x0504FF16, 0xE517E510, 0x0F01D31E, 0xEC09F413, 0xCFE3E7EB, 0xF0DDD9D2, 0x3A0B0AE7, 0xCDF614D8,
        0xF401DB2B, 0xE017E30E, 0x1B1CF525, 0x11F1270F, 0x07F5F6F7, 0xDAE90507, 0x2A00F9F3, 0x0A1F18E3,
        0x2BFCF400, 0x232CEBF5, 0xF1F8DE1B, 0xF601E50D, 0xE5E51003, 0xCAEFD3DF, 0x2912F00D, 0xF11AFDD2,
        0x0304F207, 0x0A2EC708, 0x020AEF1D, 0x081900ED, 0xEAE904F8, 0xEDD7E3E8, 0x3909EE10, 0xDA271FE0,
        0x0013E613, 0xE327CA07, 0xF708240E, 0xFAFFF805, 0x1BECF804, 0xFCD300F5, 0x3DECF5E1, 0x11171FFD,
        0x140AD4F0, 0x0C00EE05, 0xF509FDDD, 0xF0F9E5EA, 0x07031CF6, 0x23CC07C8, 0xD1EF0227, 0xEBC5FAF3,
        0x06D003D3, 0xDA0DBA0F, 0x08FD0506, 0xB7E4E4F7, 0x1FEBFCE8, 0x22B01CEA, 0x0C140810, 0xE6B9F9F5,
        0xF4DE0328, 0xF307E0C8, 0xF3E81001, 0xB600ECF7, 0xECDE03E6, 0xF7CB00FA, 0x16F30A09, 0x04CBED01,
        0xF41FA8C6, 0xF4D4DC02, 0xF101FC09, 0xEDF7F51E, 0x15ED0E0E, 0x35E014D3, 0xBC03E616, 0xDDFDF7FD,
        0xF711DFCB, 0x12FCEA1D, 0x0CFCF6E9, 0xAA12F612, 0xFF0506C9, 0x44D91FED, 0xCCEBFFF8, 0x02CBE625,
        0x0F1A11F0, 0x0411F3F9, 0x07E4021D, 0xB123EAF0, 0xDEEDFDF0, 0x33E2F32A, 0xF1DBE5FA, 0xF3C0FD29,
        0xF831049E, 0xF6071D11, 0xE704FFB7, 0xE10EF7FF, 0xECE31C13, 0x031DD504, 0xC4FED3E2, 0xE0E1DDF7,
        0x230716C1, 0x11222825, 0xE00D06BD, 0xDFFCDCF8, 0xDAF314FC, 0x4F22C747, 0x06F7B2FB, 0xF7F5E80F,
        0xFE0F12F7, 0x01393724, 0xF3F5F2C9, 0xCD17E905, 0xCAD002ED, 0x5821FA3B, 0xECF5BDDA, 0x1ADBFEF3,
        0x01031608, 0x0C24F9F3, 0x1907FEFA, 0x13F1D116, 0xFEF640B3, 0x04C1EFFB, 0x1ADD02F1, 0x0631D4F5,
        0xFD0705FE, 0xDA1CF4C3, 0xE302DAFB, 0xE4E4E539, 0xFDF19406, 0xD1E5FE10, 0x14E8F415, 0xFF1536DA,
        0xEFF8153C, 0x0EF5E1EE, 0xA5E9FF07, 0xF8FCFE33, 0x0BED2624, 0xF9F70013, 0xE91A071F, 0x02C4EEDC,
        0xD238DCE2, 0x1D22190D, 0x110FE7F4, 0xFCFBEEBF, 0x0A4C34C6, 0x372AE7F4, 0xF0E8E60C, 0x13E8F4F1,
        0x4DDA34C2, 0xF2F5F810, 0x5010F9EF, 0xF42A0EC8, 0xD4159AF1, 0xEA36D505, 0x1AFAEDC3, 0xCFF653DC,
        0xE2E3151F, 0xE9E931F4, 0xCFF13710, 0xD70115E4, 0x07094114, 0xF821D5FE, 0x24220C38, 0xE844AADC,
        0x0D23F4F3, 0x1EF6F7ED, 0xC904F000, 0x150012F9, 0xE2EF2C0C, 0x45D7240B, 0x13F20AF6, 0x17F10401,
        0x97FFD4CD, 0xF4DCF222, 0x1C1F1F00, 0xE9041604, 0xFCE09C18, 0x230029F8, 0xFB041FFD, 0xE2F90EF6,
        0x4301D40C, 0xE90714F8, 0x2B13050C, 0xE0EF080F, 0x24EB5B1E, 0x1BD02DFF, 0xF12514B4, 0x04DEAA03,
        0x0C13E7EF, 0x02F9A30D, 0xF03AD2E6, 0xFCEAFBF8, 0xE1DB0804, 0x031102FC, 0x0CE01FF3, 0x26170A12,
        0xE6E2E806, 0xF8E5B91D, 0xE5E61121, 0xDB1A09E7, 0xEAE41F0D, 0xEC05FEEB, 0x36B8F211, 0xE0EED307,
        0x2ACEF424, 0xBDFAD508, 0x0DF1F82D, 0xFEF42705, 0x25ECD612, 0x1BDA16D2, 0x092CF0C1, 0xF11114E7,
        0x13F7FAE3, 0x02F8DA23, 0x2F2F1719, 0x2D34EA0E, 0xA930FEF7, 0xEB001FDE, 0x40F418CC, 0x04EE1B25,
        0xEDE40DC6, 0xD5CFFBD0, 0xDC151945, 0xF32A2904, 0x23F431F6, 0x01D701FC, 0x38C6FA23, 0x0732BD0B,
        0xEAC2BDF2, 0xADDC18DB, 0xD81E0236, 0xBEF51932, 0x22D8BB09, 0x14D8DEDB, 0x17311113, 0xDF0531EB,
        0xE33BD9E1, 0x1CCB15EC, 0x07232211, 0x18FE060D, 0x13090F29, 0xF2FE16DB, 0xEBCBE80F, 0x17C3E803,
        0x21F42ADD, 0xFFB726E5, 0xF50CE029, 0x04C1FCD1, 0x45250EF9, 0xF0DC15C9, 0xD9F7090C, 0x14B3F9FB,
        0xFEF61818, 0xA6D0F7BF, 0xDCF4BD11, 0xFEE41004, 0xCF1DDD04, 0xF4BBDAE1, 0x01110006, 0xF7FB1706
    };

    static constexpr float conv2_bias_data[32] = {
        0.0764764845f, 0.0204116497f, 0.10036312f, 0.0082588708f,
        0.0275896229f, -0.0725206137f, -0.0165261347f, -0.0187327582f,
        0.00851072371f, 0.00437659537f, 0.0316677205f, -0.0253695063f,
        -0.0681416318f, -0.088691473f, 0.0729564652f, 0.0289883837f,
        -0.0947982818f, 0.00400489103f, 0.000123572478f, -0.0741150156f,
        0.0331629291f, -0.0655549243f, 0.0280398969f, 0.00351061765f,
        0.140211269f, 0.0157759525f, -0.0356464162f, 0.00422689505f,
        -0.00047938028f, -0.0564911291f, 0.149532735f, 0.0527810194f
    };

    //////////////////////
    //   batchnorm2: BatchNorm2d
    //////////////////////

    static constexpr float batchnorm2_scale_data[32] = {
        0.831675529f, 0.652001083f, 0.645893574f, 0.588296115f,
        0.466325909f, 0.477420837f, 0.566161633f, 0.626947403f,
        0.532153785f, 0.406752706f, 0.818120122f, 0.622728467f,
        0.513008356f, 0.694869399f, 0.848157704f, 0.677882433f,
        0.585611343f, 0.507444561f, 0.514700294f, 0.511867642f,
        0.426128119f, 0.689954817f, 0.516545773f, 0.618322194f,
        0.509032547f, 0.44675526f, 0.492065191f, 0.837067902f,
        1.00919855f, 0.862265944f, 0.728794098f, 0.618459404f
    };

    static constexpr float batchnorm2_shift_data[32] = {
        0.467517734f, 0.856494606f, 1.27488089f, 1.20620966f,
        0.570702791f, -0.167844474f, 0.464831531f, 0.624156237f,
        0.650058627f, 0.715619862f, 0.734063685f, -0.149092123f,
        1.46412408f, 1.26501465f, -0.0739732683f, 0.096331358f,
        0.805163145f, 0.758914113f, -0.0289840437f, -0.145075917f,
        -0.507403731f, 1.05665648f, 0.538839459f, 0.277409077f,
        -1.62451708f, 0.526804566f, 0.115274549f, 0.654025674f,
        0.764042377f, 0.052500993f, 0.551471472f, 0.0528854728f
    };

    //////////////////////
    //   conv3: Conv2d
    //////////////////////

    static constexpr float conv3_kernel_weight_scale = 0.00622028532;

    static constexpr uint32_t conv3_kernel_weight_data[4608] = {
        0x06030E25, 0xE0E40F15, 0x2E0C090A, 0xD900E314, 0xE8CFFE24, 0x2007EB32, 0xF5FDF4E4, 0xFFF7FBF7, 0xFB05FBE4, 0x13FC2ED5, 0xF315F010, 0xF70DF3FF, 0xF6FE0409, 0xD423E316, 0x0A10F1ED, 0xE8FA0903,
        0x04F6F723, 0xE6011224, 0x0106FFF6, 0xEBE1FA03, 0xFDF7FC1F, 0x46FDF636, 0xFCEEEB11, 0xD7EFEF15, 0xEBF5F4E8, 0xFC051CFA, 0xDF07FC0A, 0xE9F1F8E7, 0xDC01131A, 0x00F8EB15, 0xED0503E4, 0xFB13170A,
        0x11F2EB19, 0x030A0D1A, 0x0BFF01FB, 0xFE02F610, 0xFCE1EF00, 0x3E00E70D, 0xFFDFED0E, 0xE203DE16, 0xF7EEEE12, 0x120C1DFC, 0xFD19EF17, 0xFECB0CCA, 0x0814FA08, 0xFC0901FF, 0x0CEA21FF, 0x041BEA03,
        0x0A0AFFF2, 0xF7DA08F1, 0xFDF8E40D, 0xE0EAF409, 0xE7000A14, 0x0D080A01, 0xE710F8E8, 0x0FEF0D02, 0x000B0AE4, 0xF90111FE, 0x01FEFE0A, 0xF314E600, 0x0201020D, 0xF420E50C, 0xFF170BE3, 0x0E02E6F4,
        0x1CFBF408, 0xFBF70BF2, 0xE1F50001, 0x04EA0DF4, 0xEA12E0F4, 0x0DEA0CFA, 0x120419EC, 0xF61AF60E, 0xE90313EE, 0xF2F30A0D, 0xFFFEF4ED, 0xFBFD11FA, 0xFB050BF1, 0xF9220303, 0x140BFFDD, 0xFFF40002,
        0x12D7EDF6, 0x08F5FBE9, 0xE2F309E5, 0xFE19DF0A, 0xF505D9F6, 0x13E50CF2, 0xFBF71606, 0x060BD906, 0xCBECFB0A, 0x0D0A0E03, 0x1E11FBE2, 0x02E51607, 0x12110315, 0xF9FC1D09, 0x1900F6FA, 0x12FC09FC,
        0xFC0418D5, 0xFDD800EA, 0xFF1CE310, 0xE0DA0BFA, 0x1AF10CF4, 0xFCFC0AF8, 0x0CD906ED, 0xE3FB1DFE, 0x13FF0003, 0x09110A0F, 0xEE060402, 0xF40FD8E8, 0x2CFC23FE, 0xFA25FCE8, 0xD7FDFBF7, 0x1E23F9F1,
        0x02EF0804, 0xE7EE08D8, 0xF203FD0A, 0xFFF52101, 0x1715CDDF, 0xFF0C22FA, 0x00F3FEE4, 0xFB03162B, 0xEE10F8FE, 0xF8080F14, 0x26FB02EF, 0xFF0CCF04, 0x22F912FB, 0xFF042EF2, 0x0106F806, 0x100B18FF,
        0x03BCF222, 0xF7DF17D0, 0xD6FC06EA, 0xFB23F615, 0x0DE0D6EA, 0x061226F2, 0x070BFCF2, 0xED03E4F9, 0x01F4EF0A, 0x1127F5DE, 0x232003F6, 0xFDF0EB04, 0x3B17E4FC, 0x0EEE170B, 0x06F6E4F0, 0x23DD0F07,
        0x0E10EF13, 0x09060FF4, 0xDCF9F626, 0x0FFBFAD6, 0xF8DEFAFE, 0xE603FBEE, 0x1E11D308, 0x22ED1A08, 0xEA10FE18, 0x18F3E41F, 0xF90F18ED, 0x34DE07D9, 0x04E51907, 0xD1D81710, 0x05EBEFEC, 0x07102FF7,
        0x1213F20F, 0xFE06F9FF, 0xFCF50112, 0x130B0FD8, 0xE8FCEE05, 0xEDE2E700, 0x0DEFF606, 0x17FE0AEF, 0xE90E0110, 0x0E0DF905, 0xFC0916F5, 0x0DF7FCEC, 0x0A130F01, 0xDCEEF1F9, 0x0707E8F1, 0x1D2020FB,
        0x2C0FFBE5, 0x1BFD0D19, 0x1108E4F6, 0x111E17DF, 0xDB05FB0F, 0xFAD3E904, 0x05062A10, 0x0804FCEB, 0x0C070809, 0x020CF90E, 0xE7FFF7F3, 0x0F1DF107, 0x0C0817F0, 0xF6CEE3F2, 0xF711EAF1, 0x1C0F1719,
        0xECE905F9, 0xEFE5FC01, 0xDEE61F04, 0xFCF9EB05, 0xDAFA0C0E, 0x041904E1, 0x1219E7F9, 0xFAF51B14, 0xFD0AE10B, 0x0FFE07F7, 0x1D0806F9, 0x0E060CE7, 0x0CE90805, 0xD4D60E0B, 0x12DF1BEC, 0x0B2002F6,
        0xFBFBFCE4, 0xFBDC09FF, 0xFAF1140C, 0x0F02030C, 0xE1060901, 0x08FD19FC, 0xFA020B04, 0x0BFAE8F8, 0x1113DFF1, 0xF307FC19, 0x1105090C, 0xFCE4051A, 0x0A02FCFB, 0xE7EEF908, 0x05E509F7, 0x171CE1EC,
        0x07FC08E5, 0x05EC0F0D, 0x01F6F60B, 0xE00A1D02, 0xFC010912, 0x1BE01C08, 0xDDFA1B10, 0x0027FAFC, 0x0D0B04CF, 0xF20508F8, 0xFE050007, 0xECECF90D, 0x110F04E1, 0xFCF2F7FF, 0x07E5F802, 0x1705F812,
        0xE50B0200, 0xF410FEFF, 0xC5E51CF3, 0x0FF4F10A, 0xC2010F17, 0xF712FF06, 0x1503E2F3, 0xF1051E1F, 0x08E4D20B, 0xF9ECF4F9, 0x14F10401, 0x0C120603, 0xFEF8E00F, 0xD800270E, 0x0F0921D9, 0xEBFBE3E1,
        0xC9EDFBF8, 0x140708F7, 0xFAFC0601, 0x17E71CFD, 0xC7F9270B, 0xF3091007, 0x02061702, 0xEAFEFE0B, 0x11FCD5F5, 0xEBF9F902, 0x1A00F004, 0xFBDC0209, 0x08EFDEF8, 0x02DE1911, 0xFB15F1EE, 0xEE13EDE1,
        0xF0F5F9E4, 0x0F0801FC, 0xF7F00711, 0x09041A13, 0xE8FF24FB, 0x0BE2150F, 0xF1F719FB, 0xF209F10B, 0x170EF3DD, 0xE8110F0A, 0x0E05F20E, 0x0AEB031B, 0x0A18EF01, 0xFAEAE606, 0x0C1AF411, 0x11F4FE01,
        0xDD04EECE, 0x0622FA04, 0x19FB00F7, 0x11181D00, 0x0DF4F5C5, 0x141DFEF3, 0xE801D301, 0xF41BF4F7, 0xF424CA1D, 0x18F8F7F0, 0x1011E604, 0xFF14041B, 0xF4F40D00, 0x0AF90209, 0xDB05EB19, 0x112E0FFA,
        0xEB0FCFFF, 0xFA1EFBE2, 0x2B16FBF5, 0xFDF619F7, 0x070BF4EE, 0x1A07F902, 0xF30CEA07, 0x02ED0AD8, 0xF7250314, 0x050E0107, 0xEBFFFA17, 0xF9FE04FF, 0xE5000E13, 0xFCFBF710, 0xDC0F21F4, 0x0B171614,
        0x1DF8EC16, 0x0B0B1DF0, 0x1B0F02EB, 0xF6E52821, 0x03F9F8F3, 0xF6FFE7FB, 0x04101011, 0xF2EA0CDE, 0x1617FF17, 0xFC130F04, 0xF412EB04, 0xF30502FC, 0xFD1105F3, 0xFDE80B1F, 0xD8FD00D4, 0xFF2E0A19,
        0xF710DFE4, 0x02110614, 0xE2EA140B, 0x07240109, 0xF4EC04F6, 0x16E70C1A, 0x0509EB0E, 0x10F5F616, 0xF316FB21, 0x05D3FFE8, 0xFE130509, 0xEC221221, 0x0900FE14, 0xFED5E617, 0x11131103, 0xE915DBFC,
        0x00ED05E2, 0xF71D0712, 0xFB050705, 0x02FDDE17, 0xFF0AFBE0, 0x0FF80A00, 0x05090C29, 0x090CF6E4, 0xF9181316, 0x06DC1A0D, 0xFF0BE0FF, 0xFEFB1512, 0x17F40FFC, 0xE7FF0C02, 0xED0E1502, 0xE9FEEC02,
        0xFBE51100, 0xF20D07F4, 0x08010AF7, 0xDFFCF012, 0x0F0FFAF5, 0x0AF90CEA, 0x07142B23, 0xEE110A00, 0x19F70413, 0x0B1427FB, 0x02FAEEF2, 0x01D80DE5, 0x0B1F1B16, 0xE6FE1CED, 0xE00FE6EE, 0xF4F5E127,
        0x0E110704, 0x0018F422, 0xECF12A15, 0x0912061B, 0xF8F41902, 0xE6CF0303, 0x1F00DE11, 0x27E3FEF9, 0x0C0F12F3, 0xF8F2F1ED, 0xF92720D8, 0x020A1AF0, 0xD8FFEFF2, 0xEA050E17, 0x250BF2D5, 0xFE31EA0D,
        0xD7E523F3, 0x03220928, 0x02FF0E1A, 0x010F07EA, 0x10EE24DC, 0xF9E8FFF5, 0x17171814, 0x0A0BFEEA, 0x101318F2, 0xFBF20418, 0xF827E0E2, 0xE7FD0807, 0xF9FA12E9, 0xF9F21E1A, 0x061DF8F9, 0xE825E905,
        0xF0F31AFE, 0x07F7181F, 0x18121429, 0xF420FCFD, 0x23F216D3, 0x05DE0BF5, 0x121017FC, 0x0A14FA0B, 0x440B0BE4, 0xF3202112, 0xF33CE5D8, 0x0FDFFD1B, 0xFA0116FF, 0xEE031FF3, 0xFF12DBFE, 0xDCDF0E17,
        0xF109DD1E, 0xDC03EEF6, 0x000A02E7, 0xEA2124E2, 0xDDF5F30F, 0x1509F606, 0x1104FDEF, 0xFE05FFD6, 0xE8EE01F2, 0x2DFB080E, 0xFF36C5FB, 0xFA090905, 0x02F3172B, 0xE60D1DF7, 0xF927F617, 0xFCE8F5E5,
        0xF110F535, 0xE508EB02, 0xFE13DACA, 0xF9E61D0A, 0xEE0D170E, 0x0C05EA0E, 0x0BF6CC0A, 0xEE13EDDB, 0x0EE7FEFE, 0x24101D1D, 0xE81ED909, 0xE8F20609, 0x0B0ADE0A, 0x1419EB1A, 0xDB051D18, 0x220B0E08,
        0x04FDE121, 0xF6EFE005, 0x0CE7F1F8, 0x03F71B0D, 0xFCF507FD, 0x1E09EB0C, 0x1607E624, 0xDD03EDF5, 0x15040EF2, 0xE3E4030B, 0xD7150706, 0xDA2CE3CD, 0x2C06EBED, 0x0B070919, 0xF91D2FE8, 0x0EFD021A,
        0x1010DF1C, 0xFBFCFDF9, 0x0E0D1D1B, 0x011BE4F0, 0xF0EEEA05, 0x0BFF0417, 0x050D1CEF, 0x0DDF1C02, 0xE603FCF2, 0x1AD5060C, 0xE736D11B, 0x140FFA26, 0x0FD80313, 0xF718FB01, 0x0716FBFC, 0xC7F2FAF8,
        0x150EFC12, 0xFA030AFF, 0xFB1AEAF2, 0xF4FC14FF, 0x090917FF, 0xF80AF003, 0x0DF8FEEF, 0xECE6FBD0, 0xF9E0F9F3, 0x1918000D, 0xFD1BEEF3, 0x00F3F6F8, 0xEF06F302, 0x1310121E, 0xFC1C1604, 0x01EF1802,
        0xF6FF11F9, 0x1216E7F7, 0x06E5E9F2, 0xEA12E714, 0x0EF619ED, 0x1908EB0B, 0xFF052612, 0xED01EDE4, 0xFBE61009, 0xEF0A02F6, 0xFA0420E3, 0x0009F3E2, 0x2108EDFB, 0xFCE00711, 0xED38E50E, 0x12D1F715,
        0x0F20070D, 0x0BF9F914, 0x0D200D23, 0xF90108EF, 0xF4D0E3F7, 0xD4FDFF15, 0x10170FDE, 0x2DC50316, 0xFCF80FE0, 0x19E2FA00, 0xEB13FE01, 0xFFF70210, 0x28C018EC, 0x1220F7E9, 0xF90F1603, 0xEA3209EC,
        0x28EE0ADC, 0x070C1929, 0x0718F910, 0xDD120012, 0xF901DAEF, 0xE5FB2206, 0x0A1A1DEA, 0x160DF4F2, 0xF0DDE400, 0x1BEC2114, 0x1C1806DE, 0xFEFB00F9, 0x171CE1DB, 0x0D1518EC, 0x10FE100B, 0xD9011406,
        0x10EC07D9, 0x0D1B0C0D, 0x08F505F4, 0xF22AE332, 0x0F04F2E7, 0xF1F92A07, 0xF2100E03, 0xE4F1EBEF, 0x04E503ED, 0xF00F0C0C, 0x091809DB, 0x05E6DBFE, 0xF41AD6E4, 0xF809FAD5, 0x1E151039, 0xFDE4061D,
        0xF6FEF508, 0xF0F2F1F3, 0xFCFA12C3, 0xF106F7CF, 0xF212E006, 0xF917F4FC, 0x0611F110, 0x06D107FC, 0xEAF409D0, 0x11DF17FD, 0x0508F509, 0x110B1B24, 0xE4E61209, 0x09F80CE4, 0x09171826, 0x05DD0002,
        0xDDFB17F7, 0xFDEDE8FB, 0x1110E5DC, 0x06F226EF, 0x1A07F00F, 0xF319FBF6, 0x0F03E900, 0x1AF707FB, 0x11EE010C, 0xDCF50CFE, 0x0BFFEC0F, 0xCCE7341F, 0x05F7FAEB, 0x0DF1060C, 0xE4141618, 0xF3F2EAFD,
        0xDEDD0404, 0xF8F8BE08, 0x00EF0AD9, 0xF2FF0DE9, 0xDEF6DEF7, 0x091AE80F, 0x1FF2E818, 0xFDED0DEE, 0x02280B0F, 0xDBF3FB0B, 0xF40AE8F8, 0xFB05060C, 0x0CFBF6FA, 0xD708F420, 0x03181B02, 0xFADDF61E,
        0x02FA160B, 0xEAF0FEF8, 0x0E130AF7, 0xF0F6FEF1, 0x0013EEFF, 0xEF12E303, 0x0C1CFF00, 0x16F508F9, 0x02051AE1, 0x05E30F07, 0xF5F8FFEF, 0x1700F010, 0xFAFA000A, 0x0026FFE9, 0x0017020F, 0xF90C020D,
        0x08FA12F7, 0xFFF8E7FF, 0x0507E610, 0x16F611F6, 0x19110913, 0xDC0AF500, 0x0A15F5FF, 0x1A0EF404, 0xF4F7F90F, 0xE1ECFC19, 0xFCF608F4, 0xE8F00A06, 0xFA2404F2, 0xED040203, 0xE8081B02, 0xFAF105FD,
        0xDEDAEC01, 0x0D25E30A, 0x06FCD51C, 0x1F1DFF04, 0xEAFF04E6, 0xF521E113, 0x0BFD0924, 0x19FAF4E2, 0xF52D2215, 0xEEFBF1F4, 0xF30D08EF, 0x1CFA000F, 0xF909FFEB, 0xEFD5F91F, 0xFA11E21B, 0xF2E3EF0B,
        0x0EFB1D01, 0xF40D18F7, 0x25190614, 0xCFF1D416, 0x0CFCF0C4, 0xF017F80B, 0x070603D8, 0xFF221822, 0x00F929F7, 0x0EE127EB, 0xE2010AD6, 0x28FBF90C, 0x1A09071F, 0x0522F1E9, 0xFFF01204, 0xEA1E2617,
        0x0CD6070E, 0x090708EF, 0x1506051F, 0xF207F10A, 0x1B10E8C8, 0xE80410FC, 0x0102F5DB, 0xDF1DF111, 0xE6E10B0E, 0xD9DB080F, 0xE1100DE5, 0xEEFEFAE7, 0xF826EAFB, 0xF32C0DE6, 0x13F31F10, 0xFB020101,
        0xF1D7FEE7, 0x232DFDF9, 0xFBF8D617, 0x1020E300, 0xF60C0DF4, 0xFE21040E, 0xFBE8FE16, 0xE8F3EDF2, 0xD40F28DD, 0xE01F05F7, 0xEE08FAE8, 0x0FE5F513, 0xC5170D05, 0xF4DCFB00, 0x22FDFE29, 0xE4FAF305,
        0xF61510F1, 0xDEDF1FF9, 0x0C181EFC, 0xF01710FA, 0xF510FD24, 0xD7DDFFFD, 0x230B0A0B, 0x1BD9E6E6, 0xE9CB0FAC, 0xF3F5E90E, 0xFD080EF6, 0x030208EF, 0xF0F4251A, 0xFFE817BC, 0xE9F7210B, 0x09F21FF5,
        0x00000D0D, 0xFDE8FC07, 0x030A09DE, 0xFD1122FD, 0xF7FBF926, 0xD5F6E9F9, 0x19F709F8, 0x12DF0F04, 0xE30F1BF5, 0xDF07FDE9, 0xF8F904F0, 0xDD0A0408, 0x08FB0400, 0x01F303DA, 0xCF0AF5F3, 0x0ADF0C12,
        0xE5EFFD0C, 0x0AFBEC1E, 0x21F0E5EA, 0x051008FF, 0xDF03FD01, 0xEA0BE213, 0x00EEFC00, 0x06FFFE04, 0xCC321C0F, 0xEEE10507, 0xEDECF906, 0xE40F002C, 0x04FAFE16, 0x13EEF8EE, 0xE8F7F6F9, 0x16E3031F,
        0xF11AF7FC, 0xFAD30A00, 0xE20F1CDB, 0xD402E617, 0xF3F60614, 0x13121C03, 0x250611F5, 0x1003EC08, 0xE3EBFEE7, 0x0B06F6F7, 0xFDEF0107, 0xFBF9FEFB, 0x0BEE1F21, 0xF8EC14CB, 0xF0E51903, 0x00FC01F4,
        0x12F9F300, 0x0AFD0CF6, 0xF3FCFAF2, 0x021AF106, 0xE0E9E411, 0x0F0C1705, 0x0C13F5D7, 0xF5030206, 0xCA06F721, 0xE80C00F6, 0x01F40402, 0xF20B0F1B, 0x15FCF9F8, 0xEADEFBEC, 0x0CEE0BFF, 0x0AE909FC,
        0xFBCF060A, 0x1519F50F, 0xFFF8EE10, 0x0408E4FD, 0xC40BEAED, 0xF5140219, 0xEC19EA09, 0xE7FA00EB, 0xA81A0E15, 0xE70002F9, 0xF9E0EEF0, 0xEA0E0620, 0xE0F3DEE9, 0x0AFFFCF7, 0x05ED04F5, 0x00EFE814,
        0xFC00FFF5, 0xECF4F7E8, 0xDB0D06E1, 0xE2E8F101, 0xF1E4E9F1, 0x14220D0C, 0x16FD07C5, 0xE92BF60E, 0xF4EBF80A, 0x1F000506, 0x080D0E03, 0x10140B0A, 0x0BE52026, 0xCCFFF7E6, 0x0BEFFC1B, 0xEC22F30A,
        0x01EDF51C, 0x040B08E9, 0xDA18EA14, 0xF0F9F713, 0xE1FECEF2, 0x09091A15, 0x07FEE8B4, 0xE201D501, 0xDDF5F807, 0xF5001001, 0xFB17EDF9, 0xEF191121, 0x2A020508, 0xE5EB0201, 0x1EF1E809, 0xF20CF20C,
        0xEED4071C, 0xF31B0501, 0xE9FED413, 0x02E4EF13, 0xBF1EE0F2, 0x03121827, 0xF9ECF4EC, 0xEDE9D1DB, 0xDC080DE6, 0xFD0D0E0A, 0x04FBFAE0, 0xFB090621, 0x04FEF3EA, 0xF6DE1106, 0x13D6F8FA, 0xF71DF213,
        0x350DF4F6, 0xF1EA1AD8, 0x0BF21C14, 0x19ECF9E7, 0x04FA09E8, 0x0DF6F2F0, 0xF6E9E805, 0x1706FAF8, 0x11F6FDE3, 0xED0ADFE5, 0x0BFAFCEE, 0xDFE006FB, 0x2F140A0A, 0xEDE9E5F3, 0xF8E8EFEC, 0x230412FB,
        0x13120CED, 0x1608FE00, 0x1F1CF411, 0x170D16C8, 0x0AEEF6F9, 0x150CFFEB, 0xE5E92B11, 0xF40AEEFE, 0x120D09F1, 0xFC07E6E2, 0xEE08F501, 0xCEC70305, 0x261BFFF4, 0x010AF6E5, 0xE8EE06F6, 0x1905FE02,
        0xED110FE2, 0x20230913, 0x042FEC19, 0x041618B3, 0x14F3FF08, 0x0E1E190C, 0xE4DC1C2C, 0xF127F0E9, 0xF802FFF6, 0x1204F9E3, 0xEA081907, 0xC3DCF5FE, 0x17FB08F5, 0x01F0F3E4, 0xE200FB1A, 0xF3D6F50E,
        0x1B0C06FE, 0x0AF505F7, 0xF6BE08FD, 0xF4DDCD16, 0xFCF423F9, 0xEEFBF8F0, 0xFA08FAE2, 0xE6051AEF, 0x01F7F809, 0xF117EDDD, 0x00F8F6F3, 0x0D0A0CDF, 0xF1FF1613, 0xF0021303, 0x2304EE0D, 0x1B0DC8E3,
        0x4006FD02, 0x000AE901, 0xF6F0FE0B, 0xEE11DB07, 0xF3E21AF8, 0x06F60821, 0xF7051AE5, 0xF4FE1408, 0xFB0B0103, 0xF51FF9F8, 0x0AFAE201, 0xEFE7F0DE, 0x1801F500, 0x03FE08FF, 0x2CE6FF02, 0xFFF2E3F5,
        0x400DDA08, 0x081BF30A, 0x100C2123, 0xD502F3E7, 0x01D90803, 0x03001B24, 0xF4FD0B0F, 0x0B0AFA15, 0xF709E918, 0x14FD0629, 0xF810F905, 0xFA06F5EE, 0x12FBF808, 0xFCF002DF, 0x10CE0407, 0xD8F0E4DC,
        0xE6090F09, 0x0D2108F0, 0x07ECF6F5, 0x29D7090C, 0xFDEA170D, 0x05F91BFB, 0xF91AEEF0, 0xDAED0E0E, 0x00F90F04, 0xE905D1E1, 0xE602FC17, 0xF71412F0, 0xEAF02804, 0xDF0A1AE9, 0x06F8FC02, 0xF3DCD401,
        0xF20BFF11, 0xF714F0F4, 0xF0080CF3, 0xFE040902, 0xEFD0FB05, 0x03FF0316, 0xF1FCF805, 0xFBEEFA11, 0xF6051807, 0x0901F211, 0xDB0A0515, 0xF30C0EF8, 0x03F50FFC, 0xEC09E405, 0x04FEF314, 0x0EF5F90A,
        0xF4040519, 0x070EED0A, 0xE31417F4, 0xFE1003DC, 0xF4C8E4FB, 0x1CF50D05, 0xC900F5FC, 0x0404EE08, 0xEFFAFC35, 0x07EC0829, 0xD815ED13, 0xF0081C04, 0xF7E2ED01, 0x010DD50D, 0x07E30315, 0x030603F1,
        0xE20217FB, 0xFF16DCEC, 0xF4EAF203, 0x1F080429, 0xD6FB1BFB, 0x20E0FCDE, 0x0AEEDFED, 0x03231410, 0x0818FADA, 0x0707DEEA, 0x1F1EE8D7, 0xDE08F611, 0x080F1221, 0xFD0BD9EC, 0xE5ECF3ED, 0xFC1C12F6,
        0xFEFF070F, 0xE2FC0109, 0xF60FFF0A, 0x0BF30407, 0xF6EDF001, 0x23F5FCDE, 0xFDE725FA, 0x0324FC06, 0x190D14E1, 0x0F08E70B, 0xE80FE6F3, 0xDDE1F2F3, 0xFE160A04, 0xFC11F50C, 0xDEF31CFD, 0xF613FDFA,
        0x0CE8E038, 0xD2040902, 0x03EE0320, 0xF8EB12FF, 0xF3E6E5FC, 0x181705EA, 0xE6F43117, 0xFC1CEB17, 0x14EA03FB, 0x1514D3F5, 0xCC05FFF9, 0x08C2E8F7, 0x162FEFF3, 0xF6112B05, 0xE9E519F2, 0x16F3F311,
        0x0DED04E3, 0x1CF9FFFB, 0xF7D6F71E, 0xFB22EE19, 0x05F70FFA, 0xF5E5F911, 0x0301E3E7, 0xF7F0E7FB, 0xF6EF1E14, 0xE703D0C8, 0x0A0901CC, 0x07281004, 0xF805061A, 0x0E16FEF7, 0x34FEEB06, 0xED03ECF5,
        0xF4FDF0E4, 0x0C0EFB0A, 0xE40FE507, 0xE903E303, 0xE8DB140C, 0x1FF9DAE9, 0x0FD926F9, 0xEE0B00F2, 0x0A0B09FE, 0x101CFCFF, 0xF902C3E6, 0xD30002E9, 0xFE0707EF, 0x1A030E11, 0x04F60B14, 0xDD05DBF1,
        0xE4FCEDDF, 0x07180903, 0xEF09FC04, 0xDAFAEFF5, 0x07BE0DFE, 0xF91CF0BC, 0xEEF121E9, 0xF81013F5, 0x1DEDF6FA, 0x2A13F01F, 0xFC0AD7D4, 0x11EBEED2, 0x0D06FAFD, 0xFA210B0F, 0xF0111500, 0xF9DEFF0B,
        0xF0F0090B, 0x0D02F8FA, 0xD6D9F5F9, 0x1DFF1FFC, 0xFACDF010, 0xFDF7F3F7, 0xF715F9F7, 0x05C8D104, 0x04EF0AF2, 0xD2F7C9D1, 0xE91505FB, 0x1E0C2506, 0xFBF0FBE4, 0xFC091308, 0x152BF402, 0x07DEF4F7,
        0xF5011FF7, 0xF910F6FE, 0xD8FDE4FD, 0x02FF18F2, 0x0CA00608, 0xF414E4F3, 0xF7050711, 0x0DD8F808, 0x0800F8F9, 0x060EEDED, 0xE01CF3EE, 0x010F1BF2, 0x10F5FBB3, 0x150C0001, 0x0B12EA0D, 0x0EEC01E4,
        0xDD0D13EA, 0xE70AF311, 0xDD00FFE9, 0xDDFC17D9, 0x23C2FBFD, 0x1311FBBB, 0x0BF9F30F, 0x25E61C11, 0x09DCEC1A, 0x180CF533, 0xF422D7EB, 0x1F0212EE, 0x09D8DFB9, 0xF3FCF40B, 0xFE19C30E, 0x0CFBEDFC,
        0x100BE9EB, 0xC40605FE, 0xFB1302EF, 0xDF16F70A, 0xFFD7F200, 0xFB01FA0C, 0x0412DF01, 0x04092A16, 0xF5CBF117, 0x2DF510E6, 0x0332DFF4, 0x1AFD03E1, 0xFADCFE06, 0xD61AD610, 0x02FBEB0B, 0xF3FEF1F6,
        0x2021BE0A, 0xE5030713, 0xFD06F0DE, 0x07FAFA07, 0x0FF305F5, 0x22F7EAFF, 0x07E9D218, 0x060FF7FF, 0x07ED010B, 0x0C08081B, 0x030CE61B, 0x0E0608EB, 0xF2170A0B, 0xDFF8C707, 0x1EE102FF, 0xF4180B08,
        0x3513D32F, 0xF9F2F40B, 0xFE0D04E9, 0x0A13FCEE, 0x03D9040A, 0x1709E800, 0x0ACDF50A, 0x0E01D301, 0x17D7FB1A, 0xEFFDF2EE, 0xE3031505, 0x02ED18B6, 0x161513F4, 0xFCFFF610, 0x04E9DDD9, 0x2C02F9F7,
        0x0F2407FE, 0xF9EAF81C, 0xE00213FC, 0xE201FC0F, 0x04E20D13, 0x0805FE0A, 0x121BF109, 0xFCDA300C, 0xE7D9FEFA, 0x1300F3FD, 0x060D0F0B, 0x050F18CF, 0xFFE4E10B, 0xE81BDE0D, 0xF414E91D, 0xE10DE103,
        0x1607F810, 0xF102F718, 0xDDFFF9E8, 0x01EFF01F, 0xFD0E0AFB, 0x27F7D701, 0x16E7FC0B, 0xFEFEFD03, 0xEAED0E04, 0x080D031A, 0x1FF0CBFA, 0x05F4FCFA, 0x0312EAFA, 0x1FF9DA11, 0x0807F601, 0x0B0EFAFC,
        0x000AFCFB, 0x050BEA03, 0xE6ED0ED8, 0xEE07F216, 0x01F9FFD3, 0x0B1FEBCE, 0xF1D42112, 0xF4EFDBDA, 0xFEDD0113, 0xF7120409, 0xF9050ACE, 0x15DBF7D7, 0x2C2AE80D, 0x03FD0107, 0xFF11E4E0, 0x21FA0B0D,
        0x0A110FFC, 0xCA0400DC, 0xD117130C, 0xDE000EFC, 0x15FBEEF8, 0xF109DD1C, 0x0615F4FB, 0x00D40DED, 0x10E0FA01, 0x17FF072F, 0xFA141DFD, 0x08220AC7, 0x1E0510E8, 0x151A0DFC, 0xEAED05ED, 0xCF1B0410,
        0x0D012402, 0xE00E10F0, 0xE201E70B, 0x0A0AE60D, 0xFBF1FEE4, 0xF9FAFF27, 0xF5F303DC, 0xE5ECFFF8, 0xF8080AF9, 0x070AFCE0, 0x10F30BDE, 0xFDF0EE05, 0x000B24FA, 0x290F25E6, 0xFBFFFE0F, 0xED1519F7,
        0x21D90BFB, 0x021402E5, 0xE0F8CEE1, 0xF21BF703, 0x170DE8B0, 0x1D111ADD, 0xEDF3FEEE, 0xF6F2E2D6, 0xE30A1CEA, 0x0B0EEEFD, 0x1F15E5EC, 0x05E7EB00, 0x131105D1, 0x0C0F2E06, 0xF301E7F7, 0x19F906FE,
        0x07F20213, 0xED07EE1B, 0x1B1800CE, 0xDEF81EEB, 0xF71B0BF4, 0x0FDC0408, 0xF6180B08, 0x031310FA, 0x06000AC5, 0x08FB1EF5, 0x2117D916, 0xF4EDD82B, 0x0A0415D5, 0xEE1B02F5, 0x22FF0014, 0x06FB0010,
        0xF80CF90E, 0xEB03E103, 0xF509E7E2, 0x05F61FF0, 0x101A01F8, 0x0A111506, 0x0A14F606, 0x05EEEEF6, 0x1029E4FA, 0xF5F3150F, 0x0D1AE000, 0xF4F70F12, 0xF9290BF4, 0xF105F0F9, 0x0DF7F41E, 0x05CDE60B,
        0x2B0500FE, 0xF313FDFA, 0xFFDF0EE2, 0xF7042D16, 0x0DFFCF03, 0x0C20F60C, 0x112EE7ED, 0x04F701E2, 0x0F32E2F6, 0xFA0524FD, 0xF90ED801, 0x03F01DF5, 0xED210F0E, 0xFFE8C3E8, 0x06F41216, 0x0AEDE6FB,
        0x1201F222, 0x0B15FF1E, 0x163802FA, 0xE508F908, 0xE30006FD, 0xE6FBE901, 0x130F19EB, 0x220E0513, 0xEEF0FAD3, 0x0FE404F6, 0x14F300EF, 0xDB0CE723, 0x1CF0F2EA, 0xE414EC00, 0xFD130507, 0xCFFE280A,
        0x07ED0529, 0x0027DE15, 0xFE1AF4D9, 0x0909FE0C, 0x1007EAF9, 0x03FF06F9, 0x06F8FBFC, 0x070102F1, 0xE81BE802, 0xF7E9F807, 0xF200E8F0, 0xF901F5FB, 0x071106FE, 0x0CFCF1F7, 0xFC09150F, 0xF0FA0F1C,
        0x1BE50611, 0xFF18CEFF, 0x1AE508CA, 0x06090A09, 0x10F9BD05, 0xFD2506FB, 0x1C23FBFB, 0x1F09F3F3, 0xCB2BFAF1, 0xE8FC1623, 0xDF10FB00, 0x0CF8F702, 0xF6141921, 0x08FAEDDD, 0xF5143BED, 0x0F00031D,
        0x07E60D15, 0x040F1F25, 0x1835EB12, 0xDFCFE32D, 0xD60EFACB, 0xF5090D09, 0xFBEB1AE2, 0x0B141302, 0xE40100DA, 0x12D801FE, 0x05F220EC, 0xFC2CF710, 0x25EEED0B, 0xCE2BF80E, 0x001A1BEC, 0xCD1A200E,
        0x03D40110, 0x0123191E, 0x0F1FF30B, 0x09F9F728, 0xF20FE6FC, 0x07002AFF, 0x0AEAF0D7, 0x0B02FE0E, 0xE71EE003, 0x09E3F6FE, 0xE7F31BF8, 0x000DF3FA, 0x0E010308, 0xF71913F7, 0x0F011F01, 0xED021518,
        0x03C0F508, 0x0A07FC17, 0x01C90DF6, 0x220FF02A, 0x0EFAB60F, 0x0DFE3202, 0x1B0A0ECB, 0x1500D7F4, 0xD63AFC0F, 0xF7050604, 0xE8041104, 0x0412240D, 0x23091514, 0xF5F216EE, 0xF50333FF, 0x0716F031,
        0x10F100FD, 0xD6CD08F9, 0x02F8FDEB, 0xEDEA07EE, 0x0CEF2305, 0xF70AE313, 0x16DD15FF, 0xFA01FBF6, 0xEF0E08F5, 0xFDEAE402, 0xF5FE1CEB, 0xFDF8F408, 0x1FFAFB0E, 0x160DD8FC, 0xEBD8FFE3, 0xFE0C1416,
        0xEBF915ED, 0x0C0CF11B, 0x1D1BE2E5, 0xEEF9FBEA, 0x07EB140C, 0xFB0EF80D, 0x1DFEF40C, 0x06F939FE, 0x0D16EAD3, 0xCCE9FCFF, 0xED011AFC, 0xF4FAF122, 0x2B071913, 0xDB0FF816, 0xE5EEF9E2, 0x1107EAF1,
        0xFEFE2702, 0x0FF0142E, 0x09F8FFEB, 0xFD1AD701, 0xEA0E0F00, 0x0A0A0AFE, 0xEEFEE214, 0x05FBFA00, 0xE600E629, 0xF7F80EFF, 0xFCD32A06, 0xF100030D, 0xEEEA0D11, 0x3C01F91A, 0xDCE9ECDF, 0x0CFADC0D,
        0x01F91004, 0xE7ED1C12, 0x09DEF6C2, 0xF7E0E114, 0x06F8200C, 0x19F7ECE7, 0x17E629F2, 0x0701EFFB, 0x13FD14F7, 0x1116F204, 0x0BDD2301, 0xC2FF0DF7, 0x0F0A230D, 0x0BF1EA28, 0x0403F9E8, 0x1F19FB11,
        0xFDEA27E3, 0xFD090B00, 0x01F9E0EE, 0xDB05F7FD, 0x06F9FC08, 0x0D0B270D, 0xFD1F211B, 0x0A091317, 0xFEEFFA0A, 0xDCD3ECF3, 0xEEE00CF2, 0xD4F70C0D, 0x09071BFB, 0x0008021C, 0xFF06FEF3, 0x15FDF106,
        0x12FC0AED, 0xFD03EB05, 0xF3FCE508, 0x002BB91A, 0x0610DD09, 0x06073503, 0xF804EE08, 0x10060904, 0xC8F5E42A, 0x18DE0AFB, 0xD7D7F613, 0x04F11208, 0xEDEDFB00, 0x17101B14, 0xF7FD000C, 0xF7F1D9EA,
        0x0BFDF20F, 0xC90701CE, 0x14E4F9F6, 0xEDD30912, 0xF7FA1DD4, 0xFFEB23F5, 0xF62918F0, 0xE70A1C08, 0xF809FF1D, 0x1D22100D, 0xF3F9FA0B, 0xED06F2F2, 0x020D1E08, 0x1A02000F, 0x1D05EF07, 0x16EBF12F,
        0xF608E11E, 0xE1EE07F0, 0x05021F0D, 0xE9FDF506, 0x0601E7DA, 0x0C0D2EFC, 0xF90EFCE7, 0xF7FF0916, 0xC9FFFB12, 0x05F3F402, 0xEB1608F4, 0xE80F0DFC, 0x0FFE2205, 0xFAFA0B0E, 0xFDFFF7FC, 0x031A0A1D,
        0xE410DD16, 0xE0F31706, 0xD811EB09, 0x231DC8F8, 0x14FAE2F2, 0x041C0719, 0x10F720F9, 0xE0FEE8F6, 0xD702FE0B, 0x20100DFC, 0x08F61A07, 0xFD210914, 0xE10D0414, 0xEFD1FD03, 0xE6F623F0, 0xE0F31014,
        0x11E833E9, 0xFDFA09FB, 0x1AE3F5E0, 0x031EF732, 0x08E40D15, 0xDDB30908, 0x00F7FFEA, 0xF613F20A, 0x11EE2DEC, 0xEC00C814, 0x21F71506, 0xFFF60DE6, 0x1F260DE3, 0xFD03F5CF, 0x110326FF, 0x06F712F7,
        0xF6F2F0E8, 0x1402F3FF, 0x200E13F3, 0xF827EE0A, 0xEEF3FDFF, 0xF6F5031C, 0x09FF190A, 0xE7000E0C, 0x0A0D0E07, 0xE40CF4E6, 0x07020F05, 0xEEEB0AF2, 0x121714FB, 0x020DF4E7, 0xDB0F1FE6, 0x06F11504,
        0xE4E6EF09, 0xF614FE18, 0xFAFDEDFF, 0xE8111319, 0xE7F3F100, 0xFC1B07FC, 0xEBEFFF15, 0x0F0524F3, 0xFDF1F00F, 0x150DE801, 0xABF7F715, 0x12D21F03, 0x01E5180F, 0x1F05FB0A, 0xF30633F7, 0x1AF024EB,
        0x02DCEFE7, 0x0A10FBF9, 0x04D8FAEC, 0x20FBCD07, 0xF3E613FB, 0xEBD60814, 0xDEFB03FB, 0xE90FD7F6, 0x130132F5, 0xFB19E8E9, 0x0F09F8FA, 0xEF01FCF5, 0xFB25090A, 0xFDD708DB, 0x080B0521, 0xFD0CF1FE,
        0xFCF5FCC5, 0x191EF504, 0x05080F16, 0x01F8EFF5, 0x02FE0BFE, 0xE8F9FF07, 0xEC1F1D00, 0xEAF91014, 0xF408FD07, 0xF606F205, 0xF4FD0012, 0xECDA120A, 0xECFA13EF, 0x03FA03DF, 0x050707FD, 0xFEEEF1FB,
        0xFFF4FDCB, 0xF323EE05, 0xF0160E0A, 0xF1E105E4, 0x0C100A15, 0xEEF611FB, 0x0106E3F1, 0x12F010FD, 0xE1FAC11A, 0x0DF3ED05, 0xCDEFF923, 0xFDD9F110, 0xCCCF1405, 0x0B07D8FB, 0x0A070EE3, 0xF50CFBFD,
        0x10F0F7F2, 0x0EFAF2F6, 0xEAE2DEFE, 0x2EDDF619, 0xF80B1D01, 0x05F20014, 0xF10CED23, 0xEC00F300, 0x050A1106, 0x001806F7, 0xFAE8DD0E, 0xF501DBF4, 0xEF30120F, 0x04D80210, 0x05F3DD2D, 0x0403ABF9,
        0x01F9F9EF, 0x01F9FDEA, 0xE7FBFA14, 0x0EF1000C, 0xF8181807, 0x13F81808, 0x10170B10, 0x0AE8FA0E, 0xEC1BE91C, 0x0EF6FF1D, 0x0401DF13, 0x0B00D80D, 0xF109EEE1, 0xEBCDF811, 0xF8E70908, 0x0106BCF3,
        0x02F40712, 0xE4FB00EC, 0xEA40120A, 0xEBE2F1EF, 0xDD080614, 0xFFE60E0C, 0x0B16F411, 0x11F90B11, 0xEA0BD626, 0x04E8EC00, 0x02F9F910, 0x0112ADFD, 0xEF05DEF5, 0x0BEA1119, 0xEFDA20F4, 0xE6FCC51A,
        0x1F13F50A, 0x0829F8F0, 0x1C2704E7, 0xF909FED6, 0x0504FE0D, 0x12FDE822, 0x040B010C, 0x0B052F0B, 0xDCD70CFE, 0x171D27FA, 0x0CF4FD15, 0x02170521, 0xF4F5CBE3, 0xFF160E12, 0xFFFC01ED, 0x1D11E702,
        0x0FF2F21B, 0xF5FFF2F5, 0x0A05E5DF, 0x0AFA14EE, 0x0D16EEF0, 0x17F40602, 0x1BEBEDF8, 0xFA0011F8, 0xF8DD010B, 0xFB0DF829, 0xECF6D6FD, 0x1C0F1A17, 0xE327D213, 0xFB11FE02, 0x34F0223A, 0x0200FA18,
        0x20FBF82D, 0xF4FBDA0A, 0x0CE3F4F8, 0x1EDC15DA, 0xF4040AF1, 0xFD0AF7EB, 0x27F30119, 0xF50B0009, 0xFC16130A, 0xDEE8F90E, 0xE002FEF1, 0x030A0EF8, 0xF01F070C, 0xD40FFBF1, 0x120BFEFF, 0xF41CFA2E,
        0xF0090FF5, 0xFC2E17F5, 0xF633D915, 0xF715F9DC, 0x0BF90B01, 0xFBE8F7F9, 0xF6FA1105, 0x04FC3500, 0xF2FD09FA, 0x17020CF7, 0x00F9FCFC, 0xF91F0211, 0x02FDCDE7, 0xF828FC06, 0xD5FE0818, 0xF0F50900,
        0xF5140913, 0x01F71102, 0xF607F0F7, 0x01010BEC, 0x081D05ED, 0xF0EFE1F7, 0x08FCFB12, 0xF10E1100, 0xF4F81F08, 0xFA16F51C, 0x06D619FB, 0x1028FEFF, 0xFCFBDC1A, 0x02161E11, 0xF8F82231, 0x09F9FE1B,
        0x0815DB27, 0xF6FCE713, 0xF8D3F8F0, 0x0E12FAF7, 0xF703F3DF, 0x0806F110, 0x16F1131F, 0x00FD08F7, 0x0DFE2BF5, 0xD71BED04, 0xE4EC1FDC, 0x070C15FA, 0xEF0F161A, 0xE6031700, 0x1409FB07, 0x1806EB32,
        0xD1F616F8, 0x0B192312, 0xE72EDC37, 0xD211E4FF, 0x08E70411, 0x08FB0819, 0x17031DED, 0xF7FE24E2, 0x12082104, 0x1DED15FE, 0x030E0FFF, 0xF504E10E, 0x15FFE806, 0x0AF800F7, 0xE4051E0D, 0xDEE32DDF,
        0xF70A22EA, 0x12F832FE, 0xFC00F715, 0xFF00EC0E, 0x120CFFFC, 0xFEF80A05, 0xFDF708FD, 0xCA1201DD, 0x1D071B01, 0x04132804, 0x17F922F5, 0x1D1A050A, 0x0EDDED27, 0x0B0A1BF8, 0xFE070B2C, 0x14E10D13,
        0xFFF8FFEF, 0x07FF2A07, 0xE8C2F90A, 0xFF1AE417, 0x1CECF2F2, 0x0C09F11F, 0x04F50702, 0xD008DCFB, 0xEA1219F9, 0xE920F3D8, 0xF2F614F9, 0x0A1C1CF8, 0x04ED2C0D, 0x05EB09FF, 0x2418C832, 0x11F3F412,
        0x07F80E00, 0xE4D500F3, 0xEE07DE0B, 0xEEE9F20F, 0xFBFC3106, 0xFAE71CEA, 0xF6EBF9F8, 0xFCF1FFEF, 0x110805E7, 0xFD1EF41B, 0x01CE01EE, 0x2FFAFFE5, 0xFC0AF9FA, 0xF510DB08, 0x16DC0EF9, 0x060D2D0C,
        0x00FF24E5, 0xFADE22ED, 0x1829F815, 0x0B23F704, 0xFAFB0809, 0xE3DF03F7, 0x08FB01FB, 0xF50116ED, 0x171A0CEA, 0xD7FCE502, 0xF7F123E8, 0x1619FBFC, 0x1217F200, 0x0408EE0D, 0xF7DE05E7, 0x13FB180E,
        0xF1F330D5, 0x1A2023EC, 0x0B0AE902, 0x0AFFDAFF, 0xE5F9ED0F, 0xEAF114ED, 0x01F0F702, 0xF60F17F8, 0x1200F30B, 0xF9F0F8E4, 0xFECD2611, 0x39FD0D15, 0x03D114F5, 0x0F10E010, 0xECCBFE00, 0x04F019EE,
        0xFA04FEF1, 0xF1FB05DA, 0xDEDD02E3, 0xF3EFFD0E, 0x09E91100, 0xF60007F9, 0xE50505F0, 0xF704ECCB, 0x10071DEA, 0x1E1AE8EE, 0x1DC30432, 0x1315F5FF, 0x031AF91C, 0x0718FE00, 0xF101010C, 0x19151202,
        0xF01110F1, 0x0FF502FD, 0xF202FBE8, 0xF60012FF, 0x14F0080D, 0x0CF6EF07, 0xD91A18F1, 0xE40AFD06, 0x220D02F4, 0xF9F1EEF2, 0xFAEA0D2D, 0xE8FB01F3, 0xF72411FE, 0x13F3EF13, 0x17FF0D02, 0x0BE7EC0D,
        0xEF0C13CE, 0x0902F603, 0xFC06F8FD, 0xED19EB09, 0xFD13E01A, 0xEDF2060E, 0xF91FF1EC, 0xE80A182A, 0xF9F7ED19, 0x00D50204, 0xD2E4032D, 0x0DE91DF1, 0xF0D715F5, 0x2511CD0E, 0x070C0F09, 0xF9E205E4,
        0x110EEDEC, 0xD10503DA, 0x10D805E3, 0x27DA1CF6, 0x11021D05, 0x1BEEF3DE, 0xFC180610, 0xEB21FEE4, 0x03E820FF, 0x062BFDE8, 0x26EEE13B, 0xF622F710, 0xBC050217, 0xE41005EC, 0x2409FD20, 0x2006D41A,
        0x0C14D5FE, 0xFDEEFAFA, 0x26EFE815, 0x11FAECFE, 0x1DF50D0A, 0x15F90402, 0xF418FE0D, 0x0309F222, 0xFF060BFD, 0xF0E3CEF7, 0xF4E2F327, 0xD6FC1301, 0xF31002F9, 0xF80DE6ED, 0x0508FAE6, 0x0515EE1A,
        0x0014E1F2, 0xF2F9011C, 0x1602E712, 0x0F09E0E6, 0x0DEE040A, 0x06F8FF11, 0x060514E9, 0xFFF5EE1C, 0xDC09FA12, 0xF2BEEA0F, 0x05DC0C2D, 0x04FE28F1, 0xC2F3FEE1, 0xFAEEE4E7, 0xF11F06FA, 0xF308FC02,
        0xEDFE0E11, 0xEAD1CC0C, 0xF3FB2815, 0x14FEFD01, 0x000CF72D, 0xE0E7F0E5, 0x1CEA1004, 0x1A08FDBE, 0xE51E170D, 0x01ED08F8, 0x241C202A, 0xCFF1F110, 0xFF0B0CF0, 0x0C001DEE, 0x13E70032, 0x091B07F9,
        0xE4EB080A, 0xFCF9CEF7, 0x07FE22FE, 0xF8FBF501, 0x1D0F1818, 0xE5F5EFF3, 0x18040606, 0x120411B8, 0xFA1EF2F8, 0xF4F4E0FA, 0xFF04030A, 0xEDFAF0E9, 0x03F40BF1, 0xFA01FDDD, 0xF0F4F603, 0xFAF515EF,
        0x0FF70C02, 0x020EB3F7, 0x0EFC0BFF, 0x06061303, 0x0B00D60C, 0xCE1EECF7, 0xE2FBEA17, 0x25140CC1, 0xDF2FE005, 0x1402040E, 0xF5FE030C, 0x10F0F7F2, 0xFD040E09, 0x0506E9C5, 0x07F1F810, 0xFD0710F9,
        0xFAF501FA, 0x0C02E615, 0x06F70103, 0x0CE0021D, 0xF4F6F703, 0xF5EF09F1, 0x2201FCFD, 0x000315F7, 0xFB04FAFC, 0x0AEB00E4, 0x240E1E02, 0xF4EE08FB, 0xFA03FDE7, 0xFCFC1E07, 0x090AE8FB, 0xF11904E0,
        0x08F11002, 0x03FFCD01, 0x13FA0904, 0xF6F7F402, 0x02060BFB, 0x08CF0AF7, 0x20FE0AE8, 0x16011DE8, 0xF605F2F6, 0xFFEC00FC, 0x120506FD, 0xEE01EAF4, 0xEBF4FFFB, 0xF0FC08E3, 0xF300E7ED, 0xE8EA0102,
        0x0F000ADF, 0x17EDCEEF, 0x1F010903, 0x11F20B10, 0xF20DE5F8, 0xF6F107FC, 0xE51001C8, 0x1304F000, 0xDC05F5FA, 0x17121420, 0xF2FD0E06, 0x2F0B0526, 0xF804070E, 0xFBF5F5C2, 0xEF021FE6, 0xF1100417,
        0xF9E9FA01, 0xDD11ED09, 0x100AFC0E, 0x09B5F50E, 0xDEFE13EA, 0xF7D40AFB, 0x17FC0205, 0xDFE205F7, 0x0BFA14EE, 0xF8D51709, 0x25000FE9, 0xF3E502ED, 0x0207DEF5, 0xE3F3200C, 0x021DEF09, 0xD2CAF815,
        0x10F60300, 0xE822CB03, 0x0000F1FE, 0xF0FBF815, 0xD91601E7, 0xF4D108FF, 0xFCF9E9F9, 0xDAC8062C, 0x00EB0BF1, 0xF1E61303, 0x08F3FB06, 0xF2030A10, 0xE6F10406, 0xF2EEF5FA, 0x0FF51101, 0xFBE3E309,
        0x00E201FC, 0xF8E9B9F4, 0xEEE70EF8, 0x0FD4F900, 0x0112FAED, 0x1CEAFCF9, 0xE81FEAE4, 0xB8DFED29, 0xF906050C, 0xE4F21FFC, 0xEBF6D918, 0x210A242A, 0x04FFFF19, 0x08DDF803, 0x06EC0BE4, 0xF918D922,
        0xE701FBD4, 0x0F000101, 0xE5D2EF12, 0x0E1119E4, 0xE8260BFC, 0xFCEB1802, 0x07FAD400, 0x030DF3DC, 0x120DF806, 0xED18C2DC, 0x3009EEE7, 0xF706DC01, 0xD9130E0E, 0x26D40CF8, 0xF2EBDD01, 0xFF0620FE,
        0xD7FBE9F4, 0x0F03FFFD, 0xF2F01606, 0xFCFAFCDA, 0xE6FBED16, 0xFAF50EF5, 0xE4021503, 0xF50EDCE9, 0x10EC07FB, 0xFBF9DBF6, 0x05F5E4F2, 0xF1F2EF09, 0xEAF6FD0D, 0x1BFEF8FA, 0xCFF0F3ED, 0xF501F9F7,
        0xE2F7E50F, 0xF2241201, 0x06011809, 0xF4F215ED, 0x0307DC08, 0x120B18AE, 0xD81B0808, 0xFB0C06FC, 0x0FF8FC09, 0x1306E71F, 0xE0F7D7F2, 0x09CD0613, 0xFDDAE9FD, 0x0FF90707, 0xE8D701D6, 0xE7FA1112,
        0x02FCF402, 0x01F1FAF1, 0xF6CF06DF, 0x13FCFC06, 0x0B210CF3, 0x0900FB16, 0xD2F8F4E9, 0x0CFED6F4, 0x0B08FCFA, 0xF7F4D7C1, 0x030FEF0D, 0x1D12F61A, 0xEC2DFB00, 0x10F404FE, 0x2BF8DC05, 0xFE101018,
        0xF6FEFDED, 0xF802F5FE, 0xDFE6E2F9, 0x10E90302, 0x090009F9, 0x1409F2FD, 0xC8F41FE9, 0xF4F0E6E4, 0x0EF0F7FF, 0x1CFFD402, 0xDC10F7FF, 0xEF0002F1, 0xEAFD11CA, 0xEF0710FC, 0x00F6F703, 0xF81AED0D,
        0xFB00F5FD, 0x0D18020E, 0x0214080B, 0xFEF9FD00, 0x20FAFB03, 0x0CFA0AC2, 0xD9FF1CF9, 0xF4FC1FD1, 0x01FBF021, 0x1E0DFA35, 0xDA04E8FF, 0x18D315D3, 0xE4F10ED0, 0xFDFDF9FF, 0xE9F3F00F, 0xF6DA0E11,
        0xE9EF0B18, 0x15F52AD8, 0x0CF8DFEB, 0x220323EB, 0x0B10030D, 0xFCE2E7F9, 0xFC2AE40E, 0x05EEEB12, 0xEB11FAFD, 0xE3B5E1E9, 0x1BF10F08, 0x09240618, 0xC6F7E8DE, 0xFAE9F106, 0x0C26D9EB, 0x08FDDA05,
        0xFAF600FC, 0xF2101A05, 0x080CD8EE, 0x06161002, 0x0EEE10FC, 0xFCECF2F7, 0xFA0FF409, 0x20FA0203, 0xF5F1EEF5, 0x1BC9F0F9, 0x0003FBF4, 0xF10F0C10, 0xCA0ADFAC, 0xFBF5FEEF, 0xE61AE3F3, 0xEEFBDDF4,
        0xF4070CF3, 0xF3FD140C, 0x082701F7, 0xDEFCFF01, 0x1004FADB, 0x12E30CCE, 0xD8130707, 0x27042AF7, 0x16FBE62D, 0x27D0140F, 0x0AEEE6D1, 0xF5CFF4ED, 0xC90DE0C2, 0x0BF902EB, 0xE717C7FB, 0xE6CEFC06,
        0x18DD1CF2, 0xE1DE27F7, 0xF7190DD9, 0xE0E11200, 0x00D8140E, 0xEDF8F91F, 0xDCCC1111, 0xFFFBFCDB, 0xFBE028E4, 0x02FCF620, 0x09DA1609, 0xE8E50C0A, 0xFBFC0DE7, 0xFEFCEAF3, 0xECF4FF07, 0x101801F4,
        0xDBF222DB, 0x0C040F08, 0x1F1300D5, 0xDA01EFEC, 0x0CFFF8FE, 0xFDFC0C1D, 0xDF0FF613, 0xD4E312FA, 0x2117F8E2, 0xBFFFFCEE, 0x06F30AFE, 0xFB16FD0E, 0x050819F3, 0xEB050FE4, 0xE4FFF01D, 0x26EFFBE6,
        0xE0E637CA, 0x19050719, 0xF4F5F6EE, 0x0D120304, 0xF8F2F7E9, 0xEF2CFB04, 0x1B1DBEFF, 0xE70608FE, 0xF720E712, 0xEE020AE1, 0xFCD6F618, 0x0607EDFB, 0xF0DD0AE8, 0x2E1A1E04, 0xE9F7FF10, 0x071705E7,
        0x00E80F0B, 0xF1EAFCE7, 0x10020FF6, 0xD5DB0512, 0xE8F91DFD, 0xDBFFE9FF, 0xF3DB2524, 0x04FE00E6, 0x16D50804, 0x0905FD28, 0x08C9FB04, 0xD8F8BF22, 0xED1710EE, 0xFDF2E501, 0x00F3EE15, 0x062418E6,
        0x02F90EF9, 0x11F6E905, 0x17F9F7EC, 0xCEFAF215, 0x140305F6, 0xEE0FECFC, 0xF705201B, 0x02F81714, 0x0414F4FC, 0xBC03F613, 0xE3D80FF6, 0x03FFCF03, 0x04191109, 0x060B06E5, 0xF1020307, 0x25F20E06,
        0x15FCF4F1, 0x2D040409, 0x00EFFDFA, 0x0313E7F1, 0x0EE609F1, 0xEF1A1121, 0x0B11EFE7, 0x0ED70701, 0xF321F008, 0xE3DFEDD3, 0xCED2F8FE, 0x0206DAFE, 0xD2060B19, 0xFE11F6E4, 0x07FE2312, 0x03FAFE00,
        0x1017FA00, 0x01E9F90F, 0x19F9E9E7, 0xC6E1EB0F, 0x04E51E04, 0xEC03130C, 0x2CE60603, 0xF1032015, 0xFDE5EB09, 0x1331F706, 0xEAF321FD, 0xEAEFBD04, 0xE4091FE3, 0xEA01FD03, 0x0DDB0AFD, 0x0A0CE8E8,
        0x1420D008, 0x07FAFDF9, 0x04ECFFF7, 0xFCFEF41D, 0x0DF006EA, 0xF8050200, 0x1FD40EF8, 0x04EC1117, 0xFA100510, 0xF004E419, 0x04DC0EF9, 0x0B0CEAFD, 0xE005F1E8, 0xDDD10C0F, 0x03D81D11, 0x0E2AFCF9,
        0x08DEC924, 0x16E407F0, 0xDC030A15, 0xFF0ED209, 0xF6B801F7, 0xEA15F83A, 0x0BEF05EB, 0x07E9E5FA, 0xD220EF00, 0x14FEDEED, 0xCFEA1610, 0xF5411002, 0xFB1BF210, 0xEDE714FB, 0x16DD4000, 0xF7010A0A,
        0x24F002E6, 0x2B091BEB, 0x1FD40A24, 0x041BF20E, 0x3DE807F8, 0x21E62F0C, 0x180AF6FB, 0xEA11EFE7, 0x182DF103, 0xDA0CEDD7, 0xE11BCFE9, 0x1019F20C, 0xEC0C1309, 0x0116E1E6, 0x0C07EAC6, 0x10E43FFB,
        0x1CF6F3FB, 0x17100EEC, 0x0DF70612, 0xF201E80A, 0x14D410F9, 0x02090EE1, 0x1C04F404, 0xBD1AEADB, 0x091B140E, 0x0A05E90D, 0xC9F8E6EC, 0x000FFAF3, 0xFC10FF08, 0xF219DDF6, 0x08270AE8, 0xFA0F291E,
        0xF9F8F229, 0x0B1C0EDC, 0x100C1B1B, 0xF0E5F41D, 0xFDDD0EFB, 0xCA4F0AC4, 0xFF060424, 0xCAFAF7E3, 0x1E031D22, 0x1408ECF8, 0xEC04F0F2, 0x04E4FD00, 0xF30A1216, 0xF7061006, 0x0129F0F5, 0x06092217,
        0x1AF0F2E7, 0x0CED0CF9, 0x16E8E8F6, 0xFF18FBEF, 0x25E607FF, 0x11E1F803, 0xF505F311, 0x070C0214, 0x18200CE9, 0xE1F805D9, 0xFF11E7F4, 0x1007EC06, 0x0D270915, 0x0506FCEF, 0x17FD1D03, 0xF7FFF6E8,
        0x1C1501EF, 0xF807100C, 0xF410EBFA, 0xEC03ED11, 0x14E7050E, 0xF50BF700, 0xEC04FA21, 0xFC19FC09, 0x0B0600EE, 0x020B15E3, 0xEF0BF0F4, 0xF7F6D900, 0x020EEA01, 0x0124FAEA, 0x0F0A19F0, 0xFBFCEFFC,
        0x0813FA13, 0xD80B0600, 0xED1616EA, 0xD7F4F506, 0x13EF080D, 0xE82CEFF8, 0xF5FDDD1D, 0xFBFA1FF3, 0x17E5001C, 0x00031A04, 0x06F803FA, 0xF0E3EE01, 0x0004EB0C, 0x04210AE2, 0x0911EBEE, 0xF8FAE3F7,
        0x30E31DFE, 0x1CFA17FC, 0xFEE00AE5, 0x250E1CEC, 0x0EE3FD10, 0x0CEBFAE7, 0xFB0EE905, 0x16D90415, 0x1209F9ED, 0x0600E9E9, 0x09F60111, 0x1F22FB01, 0xFC07E6FB, 0x0EF3EAED, 0x07F706BE, 0x222AEADD,
        0x0AFE1911, 0x10E71D06, 0xDAFA02DC, 0x061414FF, 0x14DBF312, 0x1500F4F8, 0xECF9FD21, 0x18F80B0E, 0x01E9F8EF, 0x0622FF03, 0xF4F0FF12, 0x0C1EF700, 0x021600D4, 0x0D0EFDFA, 0xFC060DE3, 0x0706EEED,
        0xF3001B0C, 0xE7FE0EF9, 0xDC1017DE, 0x001607F9, 0x0901E70E, 0x0610EFF9, 0xDFE2FE25, 0x1CF72402, 0x13CDEAFC, 0xFD190E1F, 0xF8FBFEF5, 0x1003EBE8, 0x0C00EFC5, 0x0F260A06, 0xEE0FDEEC, 0xFEF6E3CF,
        0x0EF4D405, 0xD6F0F100, 0xFC091A02, 0xF9150302, 0x1709FE1D, 0xFCFBF901, 0xD5E8F024, 0x10F70A14, 0x15EAFCEC, 0xF7E7210D, 0x1FFAE71D, 0xF4041CFE, 0x01ECE4FC, 0xEE01FDEC, 0x150EFF04, 0x0B0300E6,
        0x0718E10B, 0x06FAF0FF, 0xE5F4EE1B, 0x1DFF30F7, 0xF813E802, 0x06FABEE5, 0xD6B0DD0A, 0x0C170E19, 0x1AEBFB0D, 0xE4F22204, 0x2D03E100, 0x110E29F9, 0x05EEEEF6, 0x14E7FE1C, 0xF6FF0E18, 0xF1F809DE,
        0xF42EEEF0, 0xF3F5ECF2, 0xFDE5EF13, 0x1FFF14E1, 0xDE03F4EB, 0x0CE3D315, 0xE5D3F51F, 0x03F0ED17, 0x270DFB00, 0xE400FEEF, 0x0EFDF307, 0xFE0F00FF, 0x13F1E2F0, 0x18EB0008, 0xDF1E11FB, 0xF9EE05DB,
        0x020F0214, 0xEEFC0AE9, 0x0C0A1116, 0xF6E71703, 0xF30FE2F5, 0xE301ECF1, 0xE6D8FB06, 0x1B0829FB, 0x0DF718F3, 0x18EE0913, 0x09EF1200, 0xF8030BFA, 0x05DDE907, 0x0004F8F5, 0x0B0709F8, 0xFD1B0BD9,
        0xF5EEEA03, 0x1415EBEF, 0x1206FB1D, 0x290B1DFC, 0xFE0201CF, 0xEEF6CD02, 0xF4DFF7FE, 0x080509FB, 0xF7EF0BFD, 0x15000305, 0x03E60CDA, 0x0F080DFF, 0xFBEDE40D, 0x01072704, 0xED03F800, 0x13220CD6,
        0x04C4F1FB, 0xFD0E0105, 0x06FC1727, 0x191801EB, 0xF7EDEAAE, 0x04FAE50D, 0xEBEB0213, 0x15CCF5FC, 0x00F8F401, 0xEF04E4FF, 0x07FA15F7, 0xFC0F00FF, 0xF4EDD70D, 0x0FEE1501, 0xF70BF90C, 0xE8080EE0,
        0xF91208F3, 0xE91715A0, 0x17F5F01A, 0xE0B50BF5, 0xFB1315BE, 0xDFF7F3EA, 0xDACE00FD, 0xDDFC1A0D, 0x26DA1806, 0x07F81A04, 0x0CF714D7, 0xEEF8E402, 0x0ED0E616, 0x1005E6F7, 0x1401EFD7, 0xD4E3FECA,
        0x0ADDEBF2, 0x0B1C1993, 0x1F0010FF, 0x0AE309F5, 0x1A05FC9C, 0x0AEFFAF9, 0xFAE90CD8, 0xD810F0FF, 0x000B010B, 0x0AEB0A06, 0xFDEE05F1, 0x1CDEF2FA, 0xE6CCD615, 0x0A04010B, 0xF7F3D9F3, 0x22EFFADD,
        0x0D9A05F8, 0x091831B7, 0x08FA1E01, 0x0009F7EA, 0xFC05F1CB, 0xFCF10AE7, 0x0DF4F8F7, 0xDBDFF9F9, 0x060803FC, 0xEDF9F400, 0xFDFFEF11, 0x0CD701EE, 0xEB0FC019, 0xE610F819, 0x1C07F2E3, 0xFDDF0FD5,
        0xE503FE0F, 0xD4F5E4F7, 0x02FF05EF, 0xEFFEF71D, 0x04EF0521, 0xEF13F0F5, 0x0702E406, 0x072608C9, 0x20D9E9DA, 0x1DFDF607, 0x0920FBF1, 0xFE00DDEA, 0xF00516FA, 0xDD1908CC, 0x0E250D15, 0x0DF1F708,
        0xF30FFF2C, 0xEFECD7FB, 0x0E0305D7, 0xE5F60F27, 0xFFFF041C, 0x01021EF5, 0x05F1D70D, 0xF520E8E3, 0xFADDF3F9, 0x0018F712, 0x191EECF3, 0xE901F6FA, 0xFCFFFFE5, 0xF80EF9F4, 0xF91B0F14, 0x1F010601,
        0xDF06D535, 0xF8DBD711, 0x22F704F3, 0x12D3191F, 0xE6F2EBE3, 0x0E271E05, 0x17F8F716, 0xF81FDEE2, 0x0F0E0210, 0xE0F6EDF7, 0xE92404EE, 0xDAF2DAE1, 0x1D0CFBE9, 0xF9F919E7, 0x070729E1, 0x28110C19,
        0xFA0303F8, 0xE3F7EEFE, 0x0202240C, 0x06FDF900, 0xF9FEF6FC, 0xF01205FC, 0xF21E06F0, 0x02120410, 0x04E1ECE7, 0x0E00EEF0, 0xEC14FFF0, 0x101DD7FD, 0xFEF512FD, 0xFC18FDCA, 0xF00A080A, 0xD3F813E9,
        0xE111EB0D, 0xE5F1EA0A, 0x1200FFF4, 0xF5EB010B, 0x070A1103, 0xEEFBF5EC, 0x0D0AF0F6, 0xFC0EE1E7, 0xDDE3FDF2, 0xFB18EDF8, 0x080BF2DE, 0x020AEDE1, 0xE20BFB12, 0xFC0B0BE9, 0xF61700FE, 0xFE0B2800,
        0xCB0DEA1A, 0x0204E910, 0x17030210, 0x05EB0E1A, 0xFD0A1AEA, 0xF30AFBF0, 0xFF0A240E, 0x07F2F0F1, 0xF5FF091A, 0xEE07FF0A, 0xF20905C8, 0xEDEADEED, 0x000BFC05, 0x02F82408, 0xDC1EF502, 0x2500181D,
        0xFEFF11E2, 0xF1EAFD06, 0x03EA1B09, 0x08F3FDF3, 0x29D8FCD5, 0xFD10DEFF, 0x140613F4, 0xF1EC0B33, 0x1FDC12E0, 0xFAF1F5E7, 0xE906D8DC, 0x250AE0E6, 0x17EDE80E, 0xF621E6D6, 0xF2EF0D03, 0xC413EDF0,
        0xFEE902E7, 0xEE06060E, 0x08E7F40C, 0x10E9FEEC, 0x12F3F3F9, 0x09FCF3E9, 0x041705DA, 0xE6DA0905, 0xDAE70BEB, 0xFAFD07F7, 0x06FAF4D6, 0x1909E9F5, 0xF017DAFC, 0x141B04D8, 0x10FBF902, 0xE600F1EF,
        0xF702FEF8, 0x050FF906, 0xFFECF806, 0x08FCF0FF, 0xFE0109F3, 0xED19F0F0, 0xFD0404FE, 0xEFD0F6F8, 0xF4F10B05, 0xE50C0300, 0x140AFCD0, 0x06F8E507, 0xCE0AC9EA, 0x04000BF4, 0x0305EF0C, 0x1602F9FF,
        0x0B16F2F8, 0x13CDE428, 0x03DF5218, 0xE6080801, 0x0E0AFD10, 0xE0DE0BF7, 0x1B1E080F, 0xF311FEEA, 0xFE11DEF1, 0x040CE8EE, 0xFB2FFE11, 0x02EAF005, 0xFBEDF01B, 0xFF07FFF7, 0x09F20EFF, 0x1EFCFEDD,
        0xE70BE7F1, 0x04C7DA02, 0xEB081B05, 0xF5FBF502, 0xFDFA0001, 0xF1F8D0EC, 0x02F91508, 0xF515E6ED, 0xD117FE06, 0x1909FA04, 0x0606FA0A, 0x0AF600FB, 0xF607E60F, 0x0AFF08EA, 0xFEE515FD, 0xFDF8EAE5,
        0xDF0DE2F9, 0xFAE5E30D, 0xEE080BFB, 0xF4DDF703, 0xF006F4FD, 0xFC06CFFF, 0xF5F90CFA, 0xF5FE0ACE, 0xD90FEFFB, 0xF2120AF4, 0xFAF5EB08, 0xFFED07E5, 0xE819D711, 0x130705F9, 0xE3E22515, 0x1CF7E4EE,
        0x2D11E7F7, 0x10F10A1E, 0xE1D71AFF, 0x07F8130F, 0x00EEF00E, 0xD9DCFD02, 0x28150007, 0x08EAF405, 0xF6FFFCF5, 0xEFF3DFC1, 0xF2360FF0, 0xE30CFDFA, 0x030904FB, 0xF3110A08, 0x16E803EC, 0xF504DEF8,
        0x0F13FFED, 0x03E4131D, 0xDFF0F70B, 0x03F7FAFA, 0xF6E70B01, 0xEEF1E501, 0x0B00F308, 0x06E4FFFE, 0xE90EE407, 0xFFF6FC05, 0xFD0EFDF6, 0xEDF400FA, 0xFBFC00F1, 0x0FF403F2, 0xFFE80A0A, 0xEBF6DBE9,
        0xFBF707E9, 0xF1EEFF07, 0xF3FFED13, 0xE8F0F005, 0x0101ECF8, 0xFC0DEDED, 0xF604F9F8, 0xFDDE05E5, 0xE00DCB13, 0xFCFA160B, 0x0A04EAF4, 0xEFEF07FE, 0xF108E1F9, 0x120702F1, 0xF2E81B02, 0x0E04E0DD,
        0x1D030E1C, 0x0B1E2004, 0xC7F5D8FB, 0x0BF3220D, 0xD1F6D0FD, 0xCDDCEEFC, 0xEB02FA02, 0x18E2F2FC, 0xFAEFFFDA, 0x15EBE004, 0xEB0C18F7, 0x0E2C12E2, 0x1E10F2FE, 0xF21D0C16, 0x260DF0DE, 0xE004FB1A,
        0x0D0219FB, 0xFB0D1C01, 0xF11EECF3, 0x03071202, 0xECE4F4F2, 0xEEDBEF04, 0xED18F2FE, 0x01D9F414, 0xFBFAEBF7, 0x02EEF9E5, 0xF3090AEA, 0xF411F9F0, 0x151007D5, 0x03FB1007, 0xFDF6F30E, 0xEDF0F9F1,
        0xFCE11EFF, 0xE9080BF7, 0xF600E8DF, 0xDD04F6F4, 0xF5FCECDB, 0xFEECF6EC, 0xF00BEFE9, 0xF2BA0B02, 0xDAEFE105, 0x06EF1719, 0x0CF8F3EE, 0xFCFFF8FB, 0x0E1BF2D5, 0xFF07170F, 0xE5E3F917, 0x191001E0,
        0x1322FC01, 0x02EE00E1, 0xECF5F500, 0x32E8F9DB, 0x2A0404FD, 0x011726E9, 0x25E5ECE6, 0x09F9F9CA, 0x04001704, 0xE913F1F7, 0xFAEF14E7, 0x1212FB00, 0x0023F9FF, 0x31DB22E4, 0x16FCE1FA, 0x0DF30B16,
        0x01171202, 0x180403FD, 0xFF00F601, 0x1803F5EA, 0x1B09FB02, 0xF61A0EEB, 0x00DF0600, 0x0F1D03F0, 0xF6EF1EFD, 0xEAFCEAFE, 0x1BED36F9, 0xFD07F6EA, 0xF20D0AF9, 0x15FD120D, 0xF0F6FF08, 0x0711F0FE,
        0xE71BFC25, 0x230D0804, 0xEE230DF6, 0x04FE09ED, 0x1F25E204, 0xE314ECE1, 0xF5EEF708, 0x271F2BFC, 0x0DE81A23, 0x01160909, 0x2BF41100, 0x0003E60F, 0x00FA0CF7, 0xE7080916, 0xEFFE09FF, 0xF0150907,
        0x13FC06E6, 0x1D050FE8, 0x03E1D00B, 0x0BF5EDEA, 0x1E23FB08, 0xFCF710ED, 0xE802E3E4, 0xF3F8F8D9, 0x19051FEF, 0xEF03FAFD, 0xFD021102, 0x102309CE, 0x04000508, 0x3AE83AE6, 0x0218FFEC, 0xFDF102F7,
        0x15070EF4, 0x0A01FFF1, 0x05EEDB00, 0xEEFBFF02, 0xF206F804, 0x0307FAFF, 0xF6F0EAED, 0x0BFC10F9, 0x17F21DF6, 0xF501FAEC, 0x13F32901, 0xF21D16EE, 0x00140D16, 0xE6FC22F3, 0x01FAFEF6, 0xF0FAF9F3,
        0x120FFB00, 0x1E10EAFA, 0xF8290A0A, 0xF0E202E4, 0xFA15F302, 0xFE0604DB, 0xFCFF0AF2, 0xFF090FF3, 0x22F62313, 0x08FD281E, 0x13F3DD08, 0xE7FC2125, 0x0AFAF511, 0xC7F11A04, 0x04CBEDED, 0xF30B0C0C,
        0xEAF810FA, 0x15031AED, 0x1EECE7FF, 0x1E0415CC, 0x0B1B0C25, 0x050A08D1, 0xD6FBE814, 0xE6F7FEFC, 0x181717ED, 0xC8E402F3, 0xFFFEE50E, 0x1D0D1BE6, 0xEFFD111B, 0x21F60DDB, 0xF621EE03, 0x15CAD6F9,
        0xE50603EE, 0xF3DCF606, 0x0BE6E7F0, 0x10F6FCCD, 0x0FF40814, 0xFB10FAFC, 0xC6E6E818, 0xF7021613, 0x01F6F5FF, 0xEEF6ECF5, 0x0300F3FD, 0x1218250C, 0xDF0917E3, 0xDF00E3F4, 0xF716E8DA, 0x04E4C6F4,
        0xEF0F0E05, 0x01DED50B, 0x0734E8DD, 0x04F70CC9, 0x06070502, 0x00FB03CC, 0xFBEBF41E, 0x03092B16, 0x07080012, 0x0AF81619, 0xFD05C3E1, 0x01F31316, 0xE70908C5, 0xD2F3F008, 0xFF0503D9, 0x14FE06FA,
        0xD914EB0B, 0xE813F005, 0xDE03E0F0, 0x0D120908, 0xF8E71702, 0x0805DD25, 0x04E8E416, 0x1A0A010F, 0x05F3DBF8, 0x180A01E4, 0x1905F606, 0x25EB15D8, 0x01FC03F2, 0x00D61000, 0xF8F21AEC, 0x0FFF11E8,
        0xF209E307, 0xE00EF213, 0x16120AE0, 0x00FE1903, 0x06F11104, 0x040E0C10, 0xF4E8EA18, 0x1710E800, 0x0AE7EFE7, 0xFFF817F9, 0xFAFDE3FF, 0x0AE6F7FF, 0x08E806FD, 0x04F317F9, 0x02FA02EC, 0x050611EF,
        0xFB01061F, 0x05DE0D11, 0x45FDFF01, 0x030711F5, 0x1A010CF6, 0x05FF1DEA, 0x1007F41E, 0x1709F2F9, 0x0AF21EF7, 0xF1F0F905, 0xD21509FC, 0xED01E3E5, 0x03ED0EE6, 0x24DF2800, 0xFC0308D9, 0xE5FE1C2C,
        0xFEECEDFB, 0x06050AFF, 0xCDFB0CFB, 0x0E01E0F4, 0xC6F20D00, 0x040EF10D, 0x0209FCF2, 0x06FE00FC, 0x00FFEE0F, 0x12FB060F, 0x1C08F4D8, 0x04F01107, 0xFDFFF10A, 0xE9D5F217, 0x072101F6, 0xEB27F3E7,
        0x02EEF6F7, 0x0B14F20D, 0xE51021F7, 0xF8FCF4EF, 0xE90F00FA, 0x02FD0B03, 0xE6F90A06, 0xF7F5FEFC, 0xFCFB00D7, 0x090BF511, 0x0103FEEA, 0xE3F7F8FF, 0x01FBFB00, 0x0CEF0F16, 0x0917F5EC, 0x0C04F6F5,
        0xF8F9FFFC, 0x32060214, 0xFCFC1E06, 0xF0180CF9, 0x080B00FA, 0x0DF01C07, 0xF1010701, 0x0702F5F7, 0x130315FE, 0xE409FBEF, 0xEC06FDE6, 0xF8F4F0F4, 0x07DC00F4, 0x1BCF1309, 0xF13EF0FA, 0x0DF6032B,
        0xE003FF20, 0xF7F10BFE, 0xDF0D17FB, 0x06E5F3E2, 0xE4D719FC, 0xF40AF030, 0x1B3013DA, 0x12ED13FF, 0xFB09E40B, 0xFCDF0720, 0x1C00EDE8, 0xFF01FC18, 0xF1F3D905, 0xD8CFF924, 0x01210107, 0xC928EE03,
        0xFFEB2506, 0x0600FCF5, 0xFC1A1CF8, 0x05E809ED, 0xDAEE01FD, 0xF501F628, 0xF7231AE2, 0xF6ECFFE9, 0x0F0DE7E5, 0x0DEDF818, 0x160502F2, 0xF81B0828, 0x17F4F00E, 0xF9E6160C, 0xF60F15FC, 0xDD12FA06,
        0x08EDF7FF, 0x2408010B, 0xEA060F18, 0x04FB1BE9, 0x06FCF1FE, 0x38FA061C, 0xDA101FE6, 0x0314DAF2, 0x031CFA03, 0xF0FBD6F8, 0xEE13FDF3, 0xFDFD0011, 0x05EA04EF, 0x02D205F7, 0x04140003, 0x06F5F92D,
        0x0EFD2DF8, 0x01E8160D, 0x0D0B2702, 0xEE00D6E3, 0xFC0912FF, 0xD2E5F9D3, 0xF91115F8, 0xE61109F0, 0x13DCFAC2, 0xDD07191B, 0xE8E0180E, 0xD0E70F0C, 0x1F183114, 0xEEFDFFE0, 0xF3ED1501, 0x252A0309,
        0x06F925F3, 0x040A1105, 0x0020F9FD, 0xF70EF3CE, 0xE01C03FF, 0xE4F7F3FF, 0x11020AFE, 0xEE0A0DF5, 0x1205EEEA, 0xE5F9FDE8, 0xEAE1160D, 0xBDCE0F08, 0x24F10CFA, 0x05140EEC, 0xDAF8FDC4, 0x0DF0FAFF,
        0xE9FEF611, 0x070E06F8, 0xE410ED0E, 0xF8FC04CF, 0xD82109FF, 0xEB0EFA19, 0xF2DAEA13, 0x0111FFED, 0x010CE503, 0x14D1F5E8, 0xF7E40C16, 0xD618150E, 0xFAEEF204, 0x17F60602, 0xF1D2F9EA, 0xFDF71BF1,
        0x09F918E5, 0x03F10310, 0x2B0623CE, 0xF4FCE711, 0x03061911, 0xF0FA07E1, 0x0CFA21E8, 0x000AFE00, 0x08F0F5EF, 0xF01B0610, 0x06C7220A, 0xECF41006, 0x040D2000, 0x05F81AED, 0x0BEEF5FC, 0x001EDF05,
        0x11F70C08, 0xFA0D03F5, 0x0C1FE0E4, 0xF408FBF3, 0xEDEAF411, 0x0D0F0DFB, 0x08FA1BF4, 0xFA091111, 0xE800E619, 0xF0E9FEFC, 0xEFD4FA07, 0xFEF91113, 0x040206FB, 0xF0FAF7FB, 0xFDEBFEF7, 0xF1F2000A,
        0x03FF060B, 0x0C16FBF8, 0xFF06DE08, 0xFEFEF0D6, 0xDB0BFBF4, 0x0D140401, 0xF3E6EE13, 0x0F15F105, 0xE70B0524, 0x01D002FC, 0xF3E4EA22, 0x110D1206, 0xFBF8E6FD, 0x2209DD02, 0xFCDF05FD, 0xF9FE000F,
        0xD91DFB08, 0xF90000E1, 0xEB1B14F2, 0x1A050EDE, 0xF7CDEA06, 0x1AE214F0, 0x080213E0, 0xEC13201D, 0xDAFCEAF6, 0x1028F803, 0xE8DB2C0B, 0x081615FB, 0x090625FF, 0xE8DF170C, 0x1502A504, 0x0AFDFFFD,
        0x061AE419, 0x0810FCE8, 0xF315DE0A, 0x060FFDD6, 0xE9E4EEFD, 0x0F0F1804, 0xFDF404E7, 0x02010C16, 0xD8E4F50F, 0xFB03FE14, 0xDFF31604, 0x142A2DE9, 0x10F51006, 0xEEE1ED27, 0xFFFCCB0B, 0x1A081605,
        0xE30FFC22, 0x110D120F, 0xF509CB05, 0xF80600C4, 0xCAFBC9FA, 0x0C2607F5, 0xEBD711DD, 0x1EF7E9F8, 0xF0ED0B0F, 0x110309EB, 0xFDDC0213, 0x121A2F12, 0xF2F30AE5, 0xF1EBFE1C, 0xFCEC07EF, 0xE2211020,
        0x042BF2F9, 0xFA02F6F0, 0xFEEFF2FE, 0x0B1FF2E4, 0x01F4F50D, 0xE5DCE7D0, 0x24F3E30D, 0xF90B23E4, 0x06E324E8, 0x06FFFCF7, 0x040CFBE6, 0xF3E9EFDD, 0xF6FCFCF5, 0xECFAE5EF, 0xD5E50617, 0xFD050502,
        0xE704F1F4, 0x0007F3FE, 0xF6FEDBF5, 0x0612FEE3, 0x07EEFBFF, 0xEDD8DDF3, 0x04E90000, 0xFF1622EC, 0xF20817FF, 0xF4F9030A, 0x0406FF07, 0xFFED01F7, 0x0A0702ED, 0x07F8EADE, 0xE1F2FBFB, 0xE5EF0D11,
        0x0516E2F6, 0xFA1FEAF5, 0xD302EBFC, 0xF00BF1EE, 0xFDEAF1FA, 0xF304E7ED, 0xEAF8ECF9, 0x20131A04, 0xEB0F0210, 0xEEF40B02, 0xEB050309, 0x0DF606F7, 0xFCF1ECF5, 0x0206FE01, 0xEC09F8FC, 0xE8F4FC12,
        0x0F0A01FE, 0x0F03FEFB, 0xF5ECF8F0, 0xF100E5F2, 0xF5F4EE11, 0xDEFA00F3, 0x0C13D80A, 0xEA0901F3, 0xFADC31F0, 0xEC04FDDE, 0xFFFDFF00, 0xEBF900E5, 0xF4F00E0A, 0xEC02DFE0, 0xF90409F9, 0xF10BFEF4,
        0xE3F4E8FF, 0x0A00EA08, 0xE9EFDAED, 0xF8E7F7E4, 0xE703ED09, 0x04F7EEFC, 0x0102FEE7, 0xE204F600, 0xF3F2070C, 0xF807F8F3, 0xF7FADD06, 0xEBEE12FC, 0xFFF808EF, 0xFBF4F2DB, 0xEC03F8E3, 0xF2FA09ED,
        0xDDE5F5F1, 0xE90BDAFE, 0xEBF5F3E9, 0xE6ECFBF8, 0xEF0EE009, 0x0B0002EE, 0xE60900D0, 0xE7FB02EF, 0xFBFAFCF7, 0xF2FB020A, 0x00F9F608, 0x08EE1A00, 0xEDE907F6, 0xE8F8EDEC, 0xE80E05CF, 0xF2DEF900,
        0xEFE8040F, 0xF40F15F4, 0xE3E7CE0F, 0xF4E7D0FD, 0xFA06FA0C, 0xE81C2705, 0xE725D6F6, 0xE303DDED, 0x05EC18FE, 0xEE0F05D5, 0x1C08F6FA, 0x03070D0B, 0x00DD0AE6, 0xE51BEFE9, 0x0209F5F7, 0x0CE8EBEB,
        0xE5D5090B, 0xF91403EF, 0xF7E3DD04, 0xEAE8DD07, 0xF4F2E306, 0xF00C0D15, 0xFB13E7D9, 0xF404F202, 0xF5EBEEF8, 0xF901F9EE, 0x020701F9, 0xFBE8FA1E, 0xF5DE00CB, 0xF9FBEAEA, 0x0107E1F8, 0xF2E3F5E6,
        0xD9D5130A, 0xD01EEF04, 0xF306EF06, 0xCFDAE907, 0xECF8F3FF, 0x1207FD0E, 0x0B0919CF, 0xE9E4FAF2, 0xF912DDDC, 0xF3F6F8F1, 0x05EFEEE5, 0x03F2E81B, 0xEDF9FFD1, 0xF0F3FBE2, 0xF217EEEE, 0xFDF8F6E8,
        0xFEFFF20E, 0x02D2E2F4, 0xEA150C14, 0x18FA10F2, 0xF60A1407, 0xEEEEF7E9, 0xC80FE3F2, 0xF706FFF5, 0x23F204E8, 0x02F11C01, 0x0EEBDA01, 0x100A0BF5, 0x16E419EA, 0x16F81705, 0x0B06F01A, 0xDCF705F1,
        0x0408ED02, 0xFCF6C7FD, 0xFDE509C5, 0xF8F826DC, 0xED111806, 0xEDD6EF00, 0xC0F9E412, 0xF2FD0904, 0x02F1F5F5, 0xE424FFF4, 0x20F5D803, 0x250F290D, 0xE6FBFAD8, 0x17F9E61B, 0x0508040D, 0x0CFC0AEC,
        0x0909FA02, 0x2CFFDB07, 0xFBE70EDF, 0xF5060AF1, 0xE2170616, 0xF6E3D515, 0xF618EFF6, 0x0907ED18, 0x2029E927, 0xEBFE1EE9, 0x0305F5FD, 0xEF0F0CE4, 0x10F9E8F4, 0x120FDB24, 0x05141DF3, 0xFAF418DF,
        0xFB152BF6, 0xE8FBCE09, 0x04200CF3, 0x11DA14FA, 0xF506F024, 0xD4DEF401, 0xFC1E0208, 0xFC0C0CF3, 0x11F90CDE, 0x17F107FB, 0x15E1FF05, 0x0DF30204, 0x04EA26E6, 0x10170BFB, 0xEDF5EFFC, 0xF3121CF3,
        0x01F70A08, 0xFC02C322, 0xF402FFD0, 0x160413F4, 0x0011E3F4, 0xE1E9DBEA, 0xF627F417, 0x1F1CEC01, 0xD70D0710, 0xEC050002, 0x14D50FE0, 0x0F140DF6, 0xE9FD09F6, 0x13010114, 0xF5F8FD10, 0x17FA16F1,
        0x0801E807, 0x19F8DD12, 0xE0F70FFA, 0x061FFFF6, 0xE109E5EC, 0xFCFEF513, 0x1320080D, 0x16EBD200, 0x00270817, 0xDBF90DD0, 0x09E41509, 0xE2070D08, 0xEDFBFC10, 0xEAF1EE22, 0xF2FF17FF, 0x0DEE0AF2,
        0x130E17F7, 0xFDE8F0E1, 0x091301E6, 0x08CA1112, 0x0214C2D7, 0xC9F1EE03, 0x06051EFF, 0x011B2C0B, 0x19CEF5EA, 0x3BE22001, 0x0FF31CD8, 0x1727DDFD, 0x02E1110D, 0x141812F2, 0xF7E2D9F3, 0x1122FA03,
        0x02C2E3FD, 0x311F01D2, 0xED00D4E6, 0x08162001, 0x0F06CEC2, 0xEEED0807, 0xF7FC12F9, 0x0306060B, 0xF9E81011, 0x0EFF16F5, 0x0EE60FC4, 0x1E1C0AFD, 0xE41CF11B, 0xF9FF191D, 0x16E8CB1B, 0x211BF1FD,
        0xEFBBF701, 0x2BF5F7E5, 0xE4D709FD, 0x15210501, 0x0203F3A9, 0xFF031B0A, 0xFE01FEE5, 0xDBE5DDEB, 0xF3170806, 0xEEF010F3, 0xF3F510FE, 0xDCFA1010, 0x0508F329, 0xDEF62017, 0x1CD0E6EC, 0x1126FCF4,
        0x3919ECF2, 0xEDF10DD7, 0x10022816, 0xFBFDFFD3, 0xFBFC01FD, 0xFAED0CE9, 0x0302F111, 0x09FC0AC6, 0xF6EF12DE, 0xECE3CE34, 0x010319FD, 0xF3F7FFF3, 0xE20CEFFD, 0xEFFCE00A, 0xEBDB0A04, 0x1C0C1903,
        0xFD162401, 0xF1000AED, 0xFC0F1B22, 0xF90FF0D5, 0x040BF50A, 0xFEDAFCE4, 0xE217FE15, 0xEF0802D0, 0x0F0B0BE3, 0xD6E3E40D, 0x01071118, 0xEBFD02F2, 0x0A0BEE04, 0x0A1FFB05, 0xCAF0020C, 0x31061F11,
        0xEEFE0102, 0xF519F914, 0xEF190C38, 0xFE0EF7EE, 0x0EFB0E15, 0xDC05F7D4, 0xDF11EF13, 0xF931FAC8, 0x13FAF2E5, 0x1DD9EAF2, 0xFEF71C31, 0xC4E1FFFA, 0x07E4F701, 0x371426ED, 0xE2F4F4FA, 0x150B1919,
        0x10F70B05, 0x1CD00DEE, 0x10DE220C, 0x0CFEF7F1, 0x0BF50FFB, 0xEED6F3F3, 0xF10AFB02, 0xFA08F3C4, 0x04FCFDF5, 0x0101EA24, 0xFF02030E, 0xEBF9F703, 0xDB080017, 0xEDE3E6E6, 0x0BDB0907, 0x030F0B0B,
        0x02030EF9, 0x08C7EE15, 0x0F14030D, 0xE30DF2FE, 0xFDE3FD04, 0xEBE0F3F8, 0xE81219F5, 0xEC0608F1, 0x050908F8, 0xFC04F3FE, 0xE9FA1810, 0xE3F4FDFE, 0xECF4F615, 0x0A16050A, 0x0BE5FCF5, 0x0AF4F415,
        0xFF0EDEF5, 0xF8160711, 0xF913F40C, 0xE6F903D6, 0x06FE0EFF, 0xE5FBFCFD, 0xDBF703F5, 0x02F80AFA, 0xF600F200, 0x19D7EA02, 0xF6E71311, 0x05FEF4FA, 0xD8F1F127, 0xFE180AF1, 0x16DA04FB, 0xF7E100FC,
        0x1B010516, 0x13EAFA09, 0x13C804D3, 0x27081D04, 0x0ED31B02, 0x090C08F6, 0x1911E80E, 0x0507F402, 0x180419FB, 0x031AB5FE, 0x02E1162D, 0xF601E501, 0xC5FE0AE8, 0xF216F7ED, 0x020E0703, 0x0826D6F7,
        0x0B0FE014, 0xEAE10215, 0x0315F5EC, 0x0E04FE06, 0xE9B3FF03, 0x080509F3, 0xEC0213F7, 0x14021602, 0x0F18241C, 0x0AEBEB06, 0xEDE90521, 0xF6F8FB07, 0xC9F8ECDD, 0xF20808F8, 0xF20511FF, 0xF323E70E,
        0xFF01F01B, 0xEAF1EE00, 0x020812F2, 0x0008D5EC, 0xE0D1EC06, 0xFCFD03FC, 0xC913EFEE, 0xF8FB17F5, 0x01FF1622, 0x19AAF706, 0xE7F0FB1D, 0x0A06FDF0, 0xC8FAE7E6, 0x0E2DF112, 0xF31708F3, 0xF8F9FF0A,
        0xDF1E0503, 0xEFEFEB14, 0x08070CE4, 0xF307DB29, 0x0915F70B, 0x1123041E, 0xF606ED0A, 0x0FFF1BFA, 0xFF010DF6, 0x18FC08FA, 0x0A0C1C17, 0x1E0DDCE0, 0xF1FBFA28, 0x0CEFDD05, 0xE21907DB, 0xECFDFDF0,
        0xEBFEDB13, 0xFBF0EF10, 0x0C0300E6, 0xFDFC1215, 0x1A0FEBF8, 0x2F05E10D, 0x08E2E912, 0x03071F08, 0xFF0FFA10, 0xF6080CE3, 0x16FA0B1F, 0xF80BF9EA, 0xF8FE181D, 0x16DBEE0F, 0xDEEE18E1, 0xFFF215E3,
        0xE115DE15, 0x06EAF518, 0x000413F4, 0xFE0A0505, 0xDBF0FFFC, 0x14EDE70A, 0xF1DAF6FB, 0x04ECFD06, 0xF5DDF90A, 0xDC340910, 0x0F0301FB, 0x020CFFD7, 0x00FD060A, 0xDFE70D1D, 0xE0EC14BD, 0x1A16030B,
        0x0A1F02F8, 0xDB001107, 0xF5F909FD, 0xFE05FE10, 0x0416F70B, 0x0D1BF207, 0x0DFD0813, 0x1FD20B08, 0x100DF5F3, 0x09F10803, 0x011321FD, 0x001405DF, 0xFF0E1804, 0x0E03DC0A, 0x150E06DB, 0xF8F6F5F6,
        0xEE0FF0F5, 0xF501FA0E, 0x05EC010A, 0x0605F210, 0x040E02F0, 0x0217E909, 0x21F3ECFF, 0x0CF12213, 0xE9F3E512, 0xECFB0814, 0xF2E21E0A, 0x05FB1FF5, 0xDA0B10E5, 0x15DCF80C, 0xFD0403E1, 0x18F90CE5,
        0xEFFBEFF6, 0xF20AF1F8, 0x091401FC, 0xF144DF18, 0xF9EC05DA, 0x0F05F903, 0x1AC30904, 0x27D9F8EE, 0xEEEDF323, 0xE8240106, 0x12FEFD0F, 0xEC0E19F1, 0xF1EFF7F7, 0xEAFC1525, 0x02F1E1D9, 0x03FCF0F9,
        0xF7180BFF, 0xD60A1AEE, 0xF7F60E13, 0x05BFE7FF, 0x061A11F7, 0xE8E903F2, 0xFE05F2EE, 0xEBDD11FD, 0xF705FFF8, 0x0AFA0820, 0xE023F306, 0xEE03DBE7, 0x1D122409, 0x1BFBF70E, 0x1225F3DA, 0xE7E9F806,
        0x130D1507, 0xC6FD19DE, 0x0EFD0A0E, 0x0CF6F602, 0x13FD0BDD, 0xEFFD09F7, 0xEE08FCE4, 0xEE08F509, 0xF01FD8EE, 0x02F42C0C, 0x0D150CFF, 0xFBDEDB08, 0x021113EC, 0xF9FF24F1, 0x19FC0FE3, 0x0ACAF3F5,
        0x2ED10802, 0x101013B4, 0x2916F9FA, 0xF11BE81D, 0x100C06FD, 0x1A1719FA, 0x210B03EA, 0xF1FDF1FC, 0xDEFFCF05, 0xE80EFCDC, 0x121A0913, 0xF919F213, 0x02FAEDFD, 0xFDE7140E, 0x21FA13F4, 0xFBDC0903,
        0xF31BDDEE, 0xE2F9F004, 0x0006ED04, 0xF1F312F5, 0x25FBFF27, 0x0C071CFB, 0xD8EBE400, 0x27DC15EB, 0x0EF4E6CC, 0x17FB0AEF, 0x2007F611, 0xF4E30510, 0xFCFB2306, 0x03EE0E06, 0x140C06F6, 0x09EEFFEA,
        0x140A02FE, 0xDD08F5F9, 0x070602D4, 0xFBFC1804, 0xF4131024, 0x060916E9, 0xDBCBB8FC, 0x24040AEC, 0xFFF9FBFD, 0x08260EF6, 0x0022DFF3, 0xFC221526, 0x00030209, 0x0FF0DE0A, 0x06170AE6, 0x0AFF0F04,
        0x2E13021B, 0x05E9DBFD, 0x15F603E7, 0x171225FF, 0xE81FED12, 0x06031B0D, 0xF4FADD04, 0x00FAE4E5, 0x1B0DEBDB, 0xDC0C18CC, 0xE623F8FA, 0xDC0327FD, 0x1316FEFA, 0x0DD9EE07, 0x0B3206BC, 0xEFFD120C,
        0xDEFF13E2, 0xECEE011F, 0xF8040F15, 0xF6FFF8FD, 0x04FEFE06, 0xFAFA02F0, 0x1816F014, 0x21F31C05, 0xFCE7F1FD, 0x27FCF714, 0x1EEADCED, 0x0BFF1816, 0x11E2031E, 0x280302F1, 0xFFEC1204, 0xEF14FDD9,
        0xDBE01AFD, 0xF018D917, 0x0F11FEF6, 0x0517E110, 0xFF1EED07, 0xFB01E6F1, 0xF509E017, 0x1B000AEB, 0x07FA1CF3, 0x17FD151B, 0x0BEC01F8, 0xFB20F51D, 0x020AF60E, 0xFB15E9F7, 0xE2FD05EF, 0x0917E9E7,
        0x08DFE5FE, 0x03F9D620, 0xFE090620, 0xF922FC02, 0x041FE4F9, 0xF20BF30D, 0xFD03130F, 0xF3EF02FB, 0xFBFF09FC, 0xF51103DA, 0xEF0F0DF7, 0xDB2DEAFB, 0xFE0EF30B, 0xF0FAF5E1, 0xD702F0E4, 0xE8FBF325,
        0xE4FF28FC, 0x05DC19FA, 0xF5F81711, 0xFBDA0DEE, 0xF8F809EF, 0xECE8EFF3, 0x01050A0D, 0x0B062002, 0x1601EB18, 0x2BED0B07, 0x2DE7EEDD, 0x0311E2F6, 0x02E8E91A, 0x37F815E2, 0xF5CFF4F2, 0x020FEDCD,
        0x00E30AF6, 0x102014FC, 0x060CEE10, 0x0910FC15, 0x121EFEF4, 0x0E19EDE9, 0x1E0A1EFE, 0xDCF30B14, 0x19110109, 0xFA0B1719, 0x1BE50A00, 0x2819F703, 0xF309E20A, 0x0D050F0C, 0x09E4EE03, 0x0412F1E7,
        0xF2F1DBFC, 0x220305F8, 0xF1EA1E04, 0x0212020E, 0xFC17D8EB, 0x0C0EDBF2, 0x120E1CE3, 0xEAEF0618, 0xF623FCFF, 0x0019E1EF, 0xD500021D, 0x03210208, 0x1C15C8F0, 0xF60920FA, 0xF2F9EEEB, 0x19FA0104,
        0xDCF3F6F8, 0xD4E50011, 0x19E30B14, 0xEDFC1818, 0x01E3BD09, 0x11FEEF17, 0x03EED8EF, 0x081C06B3, 0x06F3F8E5, 0x160AC5C4, 0x16FEFEEA, 0x1F1EE302, 0xE52523FA, 0x0609DFE9, 0xEDF7FD10, 0xEE090DFF,
        0xF7FEFC21, 0xDDE702FE, 0x1207F003, 0xF5011B1F, 0xFDE6D50E, 0x1614F6F9, 0x01D5E3FE, 0x040AE2D0, 0x09F804DA, 0x1811E5FA, 0x0101010E, 0xE4030101, 0xE70B18E6, 0x19EDF3ED, 0xD6F8FE0E, 0x0E011CF7,
        0xED07DE34, 0xFEE9FEFB, 0x1C0C16F9, 0xF6EB201D, 0x08E7CDF2, 0xFE101BF5, 0xFFD41217, 0x091BFED6, 0x03001CEA, 0xF6080CFF, 0xEA00F702, 0xF8D0ECF8, 0xF7DC0FD2, 0xEFE007FE, 0xACFB010A, 0x17FF0A0C,
        0xE705EC00, 0x17F013F1, 0xDCFC2313, 0xE511E30C, 0x1DF8C10C, 0x1506EF31, 0x0E0AE3E1, 0x06E81B07, 0xF9F705EE, 0xECE9FAE9, 0x0E010902, 0x2201FA14, 0xF9100402, 0xDBF4C808, 0x2BEF0A05, 0xF60DF80B,
        0x06F5F7FE, 0x11E50901, 0xF3F404FE, 0xF6F4C403, 0xF8F0F00F, 0x0701F321, 0x11F804D4, 0xFC0B08F5, 0xEB0401F9, 0xFA090CEB, 0x0A04E6FE, 0xF50EF915, 0xEF040EEE, 0xF605EFE7, 0x18F205EE, 0xE502EDEB,
        0x1DF5F511, 0x08F7F40C, 0x03FBF70A, 0xFAEDFA01, 0x0CF7EF0E, 0x03F8FFFC, 0xF2E221EB, 0xF8E5F9F9, 0xF0F4F5EC, 0x052FF513, 0xF60300F6, 0xF9E807DA, 0xE8EF0603, 0xF7F2070C, 0x0507FAF0, 0xEDE8EE19,
        0xF5F61E16, 0x130915FA, 0x15FB15FD, 0xFAFBFAF5, 0x38E20604, 0x0E01FA1B, 0x09FE12F1, 0x10E3E21B, 0xFD0C1518, 0xDEC6E8EC, 0x021DFDF7, 0x1C0510FB, 0xECD5F2EB, 0xCC08EC0C, 0x0B0903F3, 0xCD27DD1D,
        0xF6F22010, 0xFC1408F4, 0x0802F4FC, 0xF506EDEF, 0x1CEBF9FA, 0xF4FA0310, 0x0A0AFEE9, 0x04E7EF07, 0xE209FCFD, 0xEAE0E4FB, 0xF608F8EC, 0x05040F0B, 0xFFF600C3, 0xF00E0DEF, 0x1B021000, 0xEA02EA11,
        0x0AD315F2, 0xE411F2F4, 0x09F0FFEE, 0x03F5F1F4, 0x0DFCFBFE, 0xFF0528FD, 0x051305F3, 0x12CEED08, 0xFFF7F6FC, 0xEE09FC22, 0xE925D9E7, 0x01F2070A, 0xEA03EDE5, 0xFD0C19C5, 0x0E0719F5, 0xF5F0E70A,
        0x07FB0EF8, 0xD7E7F61C, 0x001919EA, 0x01EE09DB, 0xEF020F32, 0xD3FE0D14, 0xF3EF030F, 0x110CFA0D, 0x1DFD09CB, 0xE3EE2910, 0x0CD5F90F, 0xCE062309, 0x00F121FF, 0x0F0F16EB, 0xFB1CFC11, 0xE30C00F0,
        0xFBFA26E2, 0x0A02F219, 0x0EF701FE, 0x200208EB, 0xFA07F02B, 0xEBE4DD15, 0xD5DFFA26, 0x00E50804, 0x130506CF, 0xDDF314F0, 0x24ED0107, 0x0E1E131B, 0x0DF81A02, 0x14FEFAF0, 0xDF10FD0D, 0x0AE911F3,
        0xE41027CE, 0x2502F90D, 0xEAF4EBF1, 0x1D1420CC, 0xDC07EB09, 0x0010D7F9, 0x04FFE000, 0x15E4F222, 0x0D12F20D, 0xF3DE100D, 0x12FDEEFB, 0x110AEC0C, 0xF9D1FEFE, 0x0E010217, 0xEE17FE08, 0xF7FED0BB,
        0xFEFC1B06, 0xF5FF05F8, 0xF90C17F6, 0x06DB1208, 0xFD0DE819, 0xD10CFC0D, 0x050C2715, 0x121D0F10, 0x1CFD0BFB, 0x0D0514FF, 0xFA011A06, 0xECFCF70C, 0xF8F20DFB, 0x051315F5, 0x0EFE0CF2, 0x011108F7,
        0xF4DFFC06, 0x04090007, 0x1FF71715, 0x161CFDF8, 0xFC07EDF1, 0xF1FAF204, 0x0DFCF411, 0x2A07FD09, 0xFE010E03, 0xF7ED010F, 0xF3D426E2, 0x1110F412, 0x06E6FEF5, 0x0D172CF9, 0xEC0AE810, 0x0C14F9EB,
        0x00D3E611, 0x1AF705FA, 0x0AFEFF1B, 0x1A0FF109, 0x15FDF6D6, 0xFF06FF12, 0xF7F3F827, 0x31EACBF8, 0xF411060E, 0xF3F1FAF2, 0xF9FB0DF8, 0x0107F5FE, 0xE802DF06, 0x000D15FF, 0x0C10F408, 0xE90CEBE3,
        0x0E0DEEE9, 0xEB0617B9, 0x12E716FE, 0xE6B91E0C, 0x011DEEDC, 0xFE2319F4, 0x0BF51F07, 0xEB202306, 0x1100EB0C, 0x31170B0C, 0xF2120306, 0xEA15DB17, 0x0AD6FE02, 0x0EFBE508, 0x19DBF1EF, 0x08E80AE5,
        0x16EFD118, 0x380C1181, 0x0FF81103, 0xF001F90B, 0x0C11ECDE, 0x02110112, 0x18E704EB, 0xF0F5FE0D, 0x09E9FA19, 0x000A0E09, 0x03F3FAF7, 0x0BF0E0FB, 0x0CE5F308, 0xF8EBFC09, 0x28F7E307, 0x2CF513E2,
        0xEFDB0017, 0x24D417B7, 0x04F5F40C, 0xFC1207F3, 0x16F2FA1C, 0x08E60108, 0x12C9F9E5, 0xDCE8CA05, 0xE5F0F829, 0x05F7FC07, 0xFBF7F112, 0xF6EA0001, 0x1C18DCFE, 0xE115E3FF, 0x0FE9E9F5, 0x0AD9FDF3,
        0x160508E9, 0xF21CFBFA, 0xD1CD040E, 0x00EAF70F, 0x12F3E012, 0xEBE3F1E8, 0x2F00E9F3, 0xFD130DF6, 0x06F12BDB, 0x0306E0F4, 0x050E0D10, 0xBFF3F3A9, 0x12000613, 0xD8DFFDE3, 0xF1F2E9FB, 0xF50B15D9,
        0x0507FE0F, 0x0110EDF7, 0xFC02F81A, 0xF704FD07, 0x01060CF4, 0xEAE806ED, 0x1BFB1406, 0xFF1CFFF3, 0xFD000F01, 0x1625EC0D, 0x04080008, 0xCB0FFCD7, 0x1A031111, 0x07E2ECCA, 0xD1F8F201, 0x20F615EE,
        0x001AD608, 0x1C19F502, 0xF211E723, 0xE40C1208, 0x0A020AE2, 0xFC1D1C0E, 0xFDEC1200, 0x140BF3E9, 0x0122162C, 0x0609EE1B, 0xF212FE02, 0xCCFA2923, 0xE8011009, 0x13EAEFEB, 0xE1F8F6FA, 0x33ED25FF,
        0x22EB18F2, 0xF40BF311, 0xE5AD11DD, 0xFEE5E50E, 0xFA00EB00, 0xEAFFF5F6, 0x0805F7F7, 0x0DE7F2FB, 0x05010BF0, 0xF304D7DF, 0x140513E5, 0x11F80AC4, 0x11D600EE, 0xE2E91BD5, 0x1DF31313, 0xD50C02E9,
        0x0DECFCF6, 0x1AFCF018, 0xEEEEF3EC, 0x06FCEAFE, 0xF00FF8F8, 0x0BFC0BF8, 0x00FD10F3, 0x01F6FD09, 0x010DEB0F, 0x040DD5FD, 0x03F41404, 0xFF06FA05, 0x11C802F6, 0xFAEEEFCC, 0x06FE1E04, 0x01FAFCEB,
        0x020AFAE5, 0x0909EC0C, 0xEE1AF5E5, 0xD91C07E9, 0xFA09FFF6, 0x14FF1FF1, 0xF6FF0CFC, 0xF0F7F8E3, 0xF304F715, 0x0200DF19, 0xE6F304FF, 0x06FB0019, 0xF8DDF6DA, 0x0DE501CA, 0xE2FB0A08, 0x15FFF30B,
        0x01EE0F23, 0xE40AFEF6, 0xCFCCF6DE, 0x31E0F301, 0xE1F903FD, 0xF0F507DD, 0xD3FB0BF3, 0x05CCEB05, 0xFB12F6EE, 0xF0F8FEE1, 0x1FF60C01, 0x21FA1804, 0xFDFD1A08, 0xB2E7EFE2, 0x180D0821, 0xC60AFAF1,
        0xFF0EFE0D, 0xF902F5FD, 0xFFF6F1FF, 0x1601FB02, 0xEB0401FB, 0x000410EC, 0xDFFEF5F6, 0x09D5F910, 0xDA1ACBF7, 0x00FFFBEA, 0x05000E06, 0x20EE0117, 0x0AE309EA, 0xE9F5E4FA, 0x10FEF415, 0xD501FDF6,
        0xFA1814F1, 0xE81EE908, 0xFC1F0608, 0xE3041102, 0x07080305, 0x07D002E9, 0x0DF40CE3, 0x09CE0311, 0xED1BD5EE, 0x0B15F80E, 0xD8FDEA08, 0x0AEAE0FB, 0xEFEBFEC5, 0xF3F2FDF6, 0xFEEFDB2F, 0xF0FF0003
    };

    static constexpr float conv3_bias_data[64] = {
        -0.0490609929f, -0.0349625684f, -0.0211923346f, 0.0401289463f,
        0.0717943758f, -0.0317530818f, -0.029797405f, 0.0100994045f,
        0.0199775007f, -0.00961634237f, -0.0691016614f, 0.0687732473f,
        -0.0393677168f, -0.0513511673f, 0.0596473441f, -0.0496905185f,
        0.00833127927f, -0.0207704753f, 0.039059706f, 0.091781415f,
        -0.037882138f, 0.074133493f, 0.0220754463f, 0.0333391018f,
        0.0270468388f, 0.0115257362f, -0.0151874758f, -0.0346237496f,
        0.0384379216f, 0.0462454706f, 0.0103464564f, 0.0309913941f,
        -0.0169617012f, 0.013716856f, -0.00938441046f, 0.00831411779f,
        -0.00817403197f, 0.0286121164f, 0.037503574f, -0.0662220195f,
        -0.00721396739f, 0.0354171954f, -0.0145758828f, -0.0410558805f,
        0.0609945543f, -0.0181091726f, 0.0291729998f, -0.0293448418f,
        0.0546077415f, -0.0586244352f, 0.00186865951f, -0.05705202f,
        0.0502482951f, 0.0372308865f, 0.100919671f, 0.0010483712f,
        -0.0462762564f, 0.0249894485f, -0.0229304377f, 0.0272355452f,
        -0.0468091592f, 0.046021793f, -0.0067362315f, -0.0131667331f
    };

    //////////////////////
    //   batchnorm3: BatchNorm2d
    //////////////////////

    static constexpr float batchnorm3_scale_data[64] = {
        0.497707158f, 0.362571806f, 0.505287528f, 0.513337791f,
        0.46387592f, 0.432042122f, 0.402728289f, 0.40499118f,
        0.413345903f, 0.581691682f, 0.434031099f, 0.427492172f,
        0.551142395f, 0.493890047f, 0.515971303f, 0.42583245f,
        0.405227751f, 0.362422615f, 0.3356601f, 0.361135751f,
        0.408783913f, 0.531020641f, 0.437653303f, 0.390290469f,
        0.458025873f, 0.428728849f, 0.630299568f, 0.402611047f,
        0.518387377f, 0.401544601f, 0.49661383f, 0.424679279f,
        0.431126028f, 0.460325092f, 0.433801353f, 0.493558794f,
        0.566638172f, 0.495105594f, 0.36851722f, 0.549201369f,
        0.486975729f, 0.386038154f, 0.439581484f, 0.420151621f,
        0.425699651f, 0.490196854f, 0.384367019f, 0.523627698f,
        0.403175741f, 0.476353407f, 0.432480335f, 0.393200666f,
        0.556214452f, 0.418132067f, 0.494920582f, 0.344957024f,
        0.536619902f, 0.361378789f, 0.528799891f, 0.3909536f,
        0.517099798f, 0.516186953f, 0.432148576f, 0.418044597f
    };

    static constexpr float batchnorm3_shift_data[64] = {
        -0.291150928f, 0.711760581f, 0.173040837f, -0.351301134f,
        0.453630567f, -0.311998278f, 0.230473697f, 0.588728428f,
        0.306370378f, 0.116893172f, 0.148822933f, 0.422264844f,
        0.741335034f, 0.121471345f, 0.434292972f, 0.15952301f,
        0.111570299f, 1.03364468f, 0.871528387f, 0.628736556f,
        0.0177399218f, 0.0417503119f, 0.334950298f, 0.0664201677f,
        0.239589512f, 0.434582442f, 0.00206142664f, -0.0582325459f,
        0.0119590759f, 0.518727422f, -0.52232486f, 0.847353339f,
        0.365169615f, -0.0984677374f, -0.193098724f, 0.331773728f,
        0.225193977f, 0.581469893f, 0.433630019f, 0.0355340838f,
        0.309275866f, 0.188077211f, 0.274311453f, 0.445804954f,
        0.393211693f, -0.169783249f, -0.154593885f, 0.178557813f,
        0.356997371f, -0.0221223533f, -0.137056559f, 0.629862785f,
        0.371533483f, -0.0962289572f, -0.260205328f, 0.446916372f,
        0.450062394f, -0.0549736619f, -0.0963830352f, 0.664645672f,
        -0.0732360482f, -0.442581981f, 0.20737347f, 0.306574464f
    };

    //////////////////////
    //   conv4: Conv2d
    //////////////////////

    static constexpr float conv4_kernel_weight_scale = 0.00581316976;

    static constexpr uint32_t conv4_kernel_weight_data[4608] = {
        0xFF1DE90C, 0x0300F60B, 0x26D5DD14, 0x3FF40D28, 0x1A27FAF1, 0xFA05EFFC, 0xD5061F17, 0xFF12F628,
        0x050AE11C, 0x0FF7F4F5, 0x17E6E711, 0x1EEB1B17, 0x0B0A0011, 0x150EF60C, 0xE6FEF4FE, 0xE003E83A,
        0xFB23EC0D, 0x140102F7, 0x0EC1EAFC, 0x11FA0C0D, 0x1CF6F426, 0x231B0319, 0xCD09F4FC, 0xF4F2FD30,
        0x0D0E050D, 0x001E11F8, 0x0EF9EC23, 0x2701E908, 0xF4F9DE1D, 0xEADB04F1, 0xEC0D1926, 0xFA0E110C,
        0xF701F80E, 0x0909FEFE, 0x05F1F317, 0x23F3FA01, 0xECE7F416, 0x0CFB07EE, 0x03F80613, 0xE928FEFA,
        0xEB12E103, 0x10140EF9, 0xF0F9E608, 0x1FF4F9F2, 0xFBEEF01B, 0x210E1314, 0xEA010708, 0xF8EF071C,
        0xFF1FE0E6, 0xF2F90710, 0x1EF5E80B, 0xFC24D5FF, 0xE9E8D216, 0x21D6DBFA, 0xE00D1318, 0x04FDF821,
        0xF109F509, 0xFBFCF104, 0x1FF50912, 0xFB07E708, 0xE5F2EA1C, 0x2AE9EFFE, 0x0117281D, 0xF210FB0F,
        0xF20A07EE, 0x08E9F5FF, 0x15FFFA1D, 0xF7F1E30B, 0xDCFDF200, 0x17F50D28, 0xDC091D1F, 0xE9DD1830,
        0xF208FFF3, 0x0B1321EC, 0xEA0001F1, 0xF4F4F7EE, 0xFE102C06, 0x060A0E0E, 0xF0F606CA, 0xF4F50414,
        0xECE813F0, 0xF8EB0108, 0xF004F2F1, 0x16E7F5ED, 0xF1070FFC, 0x0E04F601, 0x03F409E3, 0xF2F80E0D,
        0xF6062EEE, 0xFB0FD50A, 0xC70CDEF2, 0x23EBFBE6, 0x01162BED, 0x01D60BF0, 0x0E1024F3, 0x01111207,
        0xF003F2FD, 0xFB101AF8, 0xEE121A16, 0xF80BE7DB, 0xF80B16FE, 0xFD090717, 0xE50400DA, 0xF9EAFC0A,
        0x00F20506, 0xF2F8FB09, 0xD70402F8, 0x10FDE0F2, 0xEF11FBFA, 0xFF04E60F, 0xFE04FCE3, 0x0BF10802,
        0xFA17140F, 0xEE15D906, 0xD415DDF5, 0x2207FBEE, 0xE51106E6, 0xF4D6EE08, 0x031D03D9, 0x09FFFDF9,
        0xEC11ED13, 0xF2FC2526, 0xECFF1213, 0xF51AEE10, 0xEDEC070C, 0x0009EF0B, 0xD71407E6, 0xEAFC05FE,
        0x0401FF07, 0xFBE60828, 0xDA00EFF4, 0x2124E614, 0xF3F109F4, 0xD3F5D600, 0xE92010F2, 0xFAF502ED,
        0x121E0B1D, 0xFEFAE107, 0xCFF2C0DA, 0x360DFAF5, 0xFCFF1203, 0xD4F2F8E6, 0x023120E2, 0xFA0003F6,
        0xF00F00EF, 0x00DE0F17, 0x17FECC0D, 0xD3FA08F4, 0xEF12F71A, 0x11F308E9, 0x0B1DE9E1, 0x05F00C1C,
        0xE20617EF, 0x02ED0E06, 0x13F0E71D, 0xECFF0E00, 0x01F8D8FD, 0xFCF5FBE8, 0x2AF2E5D9, 0x1EFB1117,
        0xD5160FE6, 0x1EF8D613, 0x23DDE31D, 0xDCFE0003, 0x15FAEBF5, 0xE00FEDCC, 0x07F0D7DA, 0x1611F4F4,
        0xDC0404DA, 0x15F71208, 0xF5F0D5FE, 0x0009F50A, 0x040E06FB, 0x07EFFEEA, 0x2D0FECFA, 0x09EE0707,
        0xE8FA08FE, 0xFFF21607, 0xF6FF0C1A, 0x1D0E1602, 0x06FEF0FD, 0x1003E7F1, 0x2A01F200, 0x18E7000E,
        0xE3F6F002, 0xF90FED13, 0x11D7FE1F, 0xFA000F18, 0x06FF0319, 0xEA17D9DB, 0x05D4F1FD, 0x10F9F9EC,
        0xD100F3D4, 0x19060017, 0xF2D5DCFE, 0xCD08E90D, 0x1111D6EC, 0x0A030AF0, 0x1908A905, 0xEFFCE6F4,
        0xCCFEE4E1, 0xFA0C0502, 0xEAE0D905, 0xFC0C1E02, 0xE40BC108, 0xF01CE7E0, 0x230CCCF9, 0x07DDF30C,
        0xC70DC5E6, 0xCF30EEFC, 0x0EDBED1B, 0xFBEB2703, 0xE6160813, 0xD015B7E2, 0x1004BB12, 0x09EDF705,
        0xE00EC1FB, 0x24F7FBFC, 0x33DC0F30, 0x05FFFA13, 0x16BC1C00, 0xCB2615FA, 0x0415F9E4, 0x08FCC1EC,
        0xFF12BE06, 0x1402F5FF, 0x22C70724, 0x1DEEFF00, 0x09F50827, 0xF7FCF6F2, 0xFD2620D5, 0x1312E2F5,
        0x0501C917, 0xE61CECC8, 0x16DE0724, 0xFA00F4F1, 0xF1011744, 0x1704DCF4, 0xF5191D04, 0x0404F7D5,
        0xE8F0C4E4, 0x04FB00FC, 0xE4FFED17, 0xF6FC0C0D, 0x03D80204, 0xE501F4F4, 0x1719FFF9, 0x0BFEE7FA,
        0xF901F2FC, 0xF411D4E9, 0x04E7F819, 0x16E507F9, 0xF9FF0306, 0xE505E8EB, 0x101422FB, 0xFA02E000,
        0xFADF0F02, 0xE707D2F0, 0x19F70501, 0x09F0E4FD, 0xEA09160E, 0xEFE7EF07, 0x01092603, 0xDB00EDFA,
        0xFAE0DDEC, 0x0BF80010, 0xDCE90506, 0x0F00E6EC, 0x16FB0DE4, 0xE706FE07, 0x0015E403, 0xF4FBF5F0,
        0x0402E500, 0x0102E010, 0xF3F3FD09, 0x1AFFFAF2, 0x030E08F0, 0x0001FB04, 0x04F9E80B, 0xF8F4F202,
        0x04F7ED02, 0x0CF7EA14, 0x10F70911, 0xFA08D818, 0x042329F6, 0x07FBF624, 0x0DF3FF12, 0xF4EDF7E5,
        0xF7EE06E0, 0x27F2FFF4, 0x14070900, 0xED0EEE09, 0x33E442FE, 0x1DE60DDE, 0xE3DBF4D6, 0xEBE602E2,
        0xF5EEF9EC, 0x13FEEFF3, 0x140128E9, 0x05EA13FF, 0x2DE33428, 0xE1EF0FF5, 0xED22E3FA, 0xE5DE05E6,
        0xFA05F4FE, 0x17EF06F5, 0x0D142CEA, 0x24D5F217, 0x34D1191E, 0xC80E07F9, 0xF40EFBFB, 0xF2C706ED,
        0x07060BD2, 0x08EEE8ED, 0x19FFEA00, 0xEA08F3EC, 0x0CFB0A18, 0x1FFEFD0F, 0xE1D9F3B4, 0xFF00D0FD,
        0xFE13E8E2, 0xF5ED0607, 0x0C1807F0, 0xFD01EE02, 0x1809190A, 0x0201F913, 0xF5EEE5DC, 0x05F0D0E8,
        0x1112E3DF, 0xF4D91BF1, 0x0E061AFE, 0x1BEDEA06, 0x2400151B, 0x01140B1F, 0xE6F8F905, 0x0ED4F0E2,
        0x0AF603FE, 0xF3E2FAF4, 0xFBF1EC1C, 0xDF0FF0E6, 0xFA00EE0F, 0x42DC0020, 0xFADB13E9, 0x0425E216,
        0x0317DBFA, 0xDFDC1435, 0x151000F0, 0xECFCF605, 0x04FEE4FA, 0x2FE40922, 0x24FC0C07, 0x0310E0F7,
        0x0322CF01, 0xFADD2117, 0x100B16DF, 0x08FAF6F5, 0x0BFAF5EF, 0x19020421, 0x090A0F1B, 0x09FEF5EE,
        0x0C0423E5, 0x192C010F, 0xE111FBFF, 0xEEE0CEF0, 0x2CF022F2, 0x01FA0DFC, 0xFFED11FB, 0xDBFFFD06,
        0xF61017E7, 0xFD0BDDFF, 0xB81505F6, 0x05E5F8E4, 0x18020BEA, 0xF701FEFC, 0xE5F8FBF4, 0xE512090C,
        0x080215E5, 0xFD0F09EE, 0xB41C07ED, 0x10FB06DB, 0xF4060B0E, 0xE70C0702, 0xD71DE9E5, 0xEE0328F7,
        0x07DF1E0F, 0x1031FF1A, 0x19E901FB, 0xF9FDC0E5, 0x13F40B16, 0x1515EA15, 0x06FAFB01, 0xECFDFFFB,
        0xE60004EF, 0xF906DB0B, 0xF5F7F307, 0x09F4F5E5, 0x060A0DFC, 0x0FF6030A, 0x03EEF1F8, 0xF6020B0C,
        0xE91201F1, 0x10FBFDF2, 0x05F704E9, 0xEBFD00F1, 0xF10CF918, 0x061412FD, 0xF61BF7E1, 0xFF0D33F2,
        0x14D70EFC, 0x1F08EC1A, 0xF7EBEDE7, 0xDB24AFFA, 0x18F60DF4, 0xED0A0200, 0xF410F709, 0x1129FE00,
        0x04E2F6E1, 0x090BF31B, 0xF4F2EE01, 0xE919C002, 0x10EF08E4, 0xFAFC09FD, 0x0213DFF8, 0x1B17F309,
        0x0E0306D6, 0x14F30D07, 0xFE00FAEF, 0xE709EA00, 0x08040C0C, 0xF30324FE, 0xE92BF4DE, 0x010722F6,
        0x0006F3FE, 0x030F1719, 0x0B01D7F0, 0xE51DF504, 0x0CF5F7F1, 0x12041EF4, 0x02E7D9F8, 0xDEEDFE19,
        0xE607FFF2, 0x0A1D020E, 0xE80DDC00, 0x0710FDF8, 0xFE01F5DD, 0xF0FD140A, 0x04F8F4F2, 0xDDE9F013,
        0xD70217DE, 0x0A24E224, 0xD619E2DF, 0x070C15E5, 0x0A1D07C2, 0xCAF41601, 0x0AFD13F6, 0xE9FBFCF7,
        0x12EFFBF3, 0xEEF90EF8, 0x1107ED00, 0xF6FDF8FC, 0xFEEEF8ED, 0x13031D0C, 0x08E0E305, 0xDF131CF9,
        0x03D5F207, 0xF40401F9, 0xF507F209, 0x04FA08F7, 0xD7ECF4DC, 0x071A1617, 0x06F8E603, 0xEF10FDEE,
        0xF6EF05EE, 0x0819D010, 0xE2FFF1FE, 0x0BF20DE3, 0xDC1313CA, 0xD50217F9, 0xF618FDF5, 0x0A3E01F2,
        0x0F0FF2F7, 0xF9FA02EC, 0x130119EF, 0xFBE6DF1A, 0x090C18EC, 0x07D51F03, 0xFADEE90D, 0xE53504FF,
        0x16E3FAEB, 0x0207FAFC, 0x06020E06, 0x09E7E8F7, 0xDD12F5E7, 0x17FA0008, 0xFCF5F507, 0xFF230302,
        0x02E9F7D9, 0x0128DC03, 0xF001131C, 0x11DFFDEC, 0xD52B06EB, 0xFEE805F1, 0x000AF9FB, 0x13300407,
        0x0716F422, 0xED04EFD0, 0x26CF020E, 0xDEE0E7FC, 0x0BE1FB13, 0x0E0E0C15, 0xF9FBDA00, 0x0044E9F4,
        0x13120BF7, 0x0D04EEF6, 0x17DFF816, 0xDADFECE4, 0xFDDC0C05, 0xF60123FF, 0xF608EA11, 0xFA1CF604,
        0x010506FC, 0x21F7F601, 0x12D5F20C, 0xE9E7D802, 0xFB0215F5, 0x11E10F0B, 0xFE22EBF3, 0xFA1AFD08,
        0xD4F6EE22, 0xCD0B01EC, 0x18162014, 0xEFFBDBF8, 0xF0040109, 0x0A040722, 0x03F4FA1D, 0x0513DEFE,
        0xDBFFFB08, 0x0310F90D, 0x04FA030B, 0xF2F6D5F2, 0xF503150B, 0xF809000A, 0xFEF0030C, 0xF900FB06,
        0xE7150B0E, 0x18F8EF23, 0xF4F4F518, 0x0D0DE701, 0x0A071903, 0xED05F3FF, 0xF70517FB, 0x05071705,
        0x05F4C65A, 0xD6EC1806, 0xF3FE0EEE, 0xD833F2FB, 0xF70C0DF2, 0xF93A1516, 0x15130110, 0x1BDDD102,
        0xFC08D52C, 0xFAF1010D, 0xF3F8FFEB, 0xF31DFD00, 0xF9F62502, 0xF61BFA0E, 0x1A160804, 0x19FDD9FC,
        0x121AEC44, 0x09F50D10, 0xC0E6E5F4, 0x1E2CE818, 0x09F632E6, 0xF233F4FF, 0x0419191A, 0x251DF110,
        0xF2FAF9D9, 0x0ECFF6E9, 0x2DE9F002, 0x0EE10210, 0xD0170DED, 0x18E4EAF2, 0xE121DE1B, 0x04F30A2E,
        0x0DFEEDD9, 0xEDDCF2FB, 0x1DEDEFF1, 0x07F6F717, 0xF300EFF0, 0x0AF2F60A, 0x0509DF19, 0x15FBF3FD,
        0xFB01FAF6, 0xD7DFF6E4, 0xF4060301, 0xFDF4FAFD, 0xE40CF808, 0x0105E9EC, 0xF9EEF211, 0x00E5DCF8,
        0x040302F1, 0x0BD8F4F9, 0x29EDE1EF, 0x1B060104, 0xEC0319EB, 0x1DE7EBFC, 0xE014E51A, 0xF8FA030C,
        0x10FBF5F2, 0xF3E0F105, 0x12F2F9E0, 0x12FF0900, 0x020BFAFC, 0xF31E0606, 0x0004DEF9, 0x05E8F4EB,
        0xFAFB09F5, 0xF7EB02F8, 0xFEF510E4, 0xF9F309FF, 0xE810031D, 0xFD34FA19, 0xEDE0E9EE, 0xFEE2EFEF,
        0xE3E4F506, 0x0CF814D2, 0x0A08F5FC, 0x33FF14E2, 0xE6F611FC, 0x07DBC804, 0x0607FAF6, 0x05220213,
        0xE7E1F206, 0xEE021ACF, 0x06F403EB, 0x0ED628E1, 0xFDF60907, 0xF208D312, 0x00000FE3, 0x011D0408,
        0xEFE6E303, 0xEB1B0CF1, 0xFCFBFCE1, 0xFCD21BDB, 0xF0EFFF13, 0x0627DC35, 0x09F90A0C, 0x1A13FC02,
        0x04072EF3, 0x2ECBE605, 0x17EC3521, 0x100EDB14, 0xC10C22F0, 0xEE0EF1FA, 0xEAD5EE00, 0xE5D8001B,
        0xE3E624D7, 0x0DF2190E, 0x2CF706EF, 0x09080E13, 0x09060B05, 0xED0A0DFA, 0xF6E51004, 0xFACFF9F8,
        0xD9D20EF8, 0x0EE91100, 0x2AF716F0, 0x1C1511FF, 0xFDFA2220, 0xD00B07CE, 0xDEE016FA, 0x0F17FDE3,
        0x18E612F7, 0x1B0FDE09, 0x08E313E3, 0x26F0D6F6, 0xE4FE3905, 0x04FEE507, 0xFEF7FCE7, 0x00E8F403,
        0x04D6FDE7, 0xFD060C01, 0x03E809D6, 0x0FF50A00, 0x1BF92404, 0x0706FAF3, 0x0DEF12F9, 0x22D017CB,
        0x1FCAE9F6, 0x04D50817, 0x18F30BEB, 0x121406F4, 0x13122617, 0x171800DA, 0xFAFDF601, 0x0CFD03EC,
        0x3BC1FB14, 0x1AFCD60A, 0x0BF20FD5, 0x1C04BBE0, 0xEC142D00, 0x0A02D100, 0xFB0A0FF9, 0x12F9E7E8,
        0x28CDF6FD, 0x0CE8E8EC, 0xEBE20FE9, 0xFF00E204, 0x29ED1D0C, 0x06E6DAF2, 0x10E40C04, 0x38E108CE,
        0x2AE7F1EF, 0xFEC507ED, 0xF9D817DE, 0xED1512F7, 0x06FA1A17, 0x25E2EAFD, 0x2806F409, 0x1FE516CE,
        0xFDFC0309, 0x192A0DF3, 0x0405DBFC, 0xE917EFFF, 0xE61B0609, 0xF1F7F2D3, 0xC4F311C2, 0xEA1C3212,
        0xEFF80A07, 0xFC1DEEF6, 0x06EA1109, 0xE50504F8, 0xEC040B0B, 0x06EEF3E9, 0xF0EC05D2, 0xE4221AFA,
        0xEE05FB1E, 0xF410DBF8, 0x02C707F5, 0x020110EB, 0xFFEDF836, 0x2115F001, 0xD9EA02DD, 0xFBF9E8F8,
        0x07EFFFF8, 0xFF0E12F7, 0x0F15CD03, 0x0C30FCFC, 0xF80E0A0C, 0xEFE707EF, 0xF3161FE1, 0x080A1F16,
        0xFDF009F6, 0xE30308F8, 0x16F7FDFE, 0x070EF5FA, 0x061111F7, 0xF7E40D00, 0x18FF02CD, 0x06090908,
        0xFA170607, 0xEE0BF807, 0x13061EF0, 0x0300F2F8, 0x12030A1B, 0xF4EE111A, 0xECF604CE, 0x0CF2F101,
        0x0A04EDEF, 0xF1002109, 0x2405D1F0, 0x031DF7EF, 0xF201FE0A, 0xCFF12420, 0x091C28EA, 0xF7210414,
        0x00FF01FE, 0xEAFF0FF7, 0xF705E803, 0x0FF1030A, 0x030AF9E6, 0xE3E30F26, 0x27150EED, 0xE902FE17,
        0xF405FA0A, 0xECF408F3, 0xF4FE1D17, 0xF2D40308, 0xF804DC03, 0xE4EA0434, 0x11F90AFB, 0xEEF90224,
        0x09191215, 0x14EC1902, 0x1700F0E4, 0xE6D9E608, 0x35E029EC, 0x0EF21DF2, 0x2FC5EFE7, 0xEDF5F709,
        0xEB04FE01, 0x07E20E08, 0x01F1F416, 0xFAE6E608, 0x2AF51DFB, 0xF3ECF908, 0x22DEE1CA, 0xECEFFF18,
        0xDFFB0ED9, 0x11E91901, 0xE1DEFE13, 0x10F9FB0A, 0x14FC20E8, 0xEFDDFB10, 0x37E1FDD5, 0xF1EAFF34,
        0xF3E5EB07, 0x01F600D3, 0x1E110301, 0x03EEE400, 0x22DEEFE1, 0xE8070B03, 0xF6DBFAF9, 0x2223F407,
        0xE9F601FB, 0xFCECFA03, 0x05161413, 0xF812EB0C, 0x1AEF09EB, 0xF00CFF04, 0xF7FAF8E9, 0x0121F9F9,
        0xF8EA10DF, 0x0AEBFC08, 0xE81E231B, 0xF124031B, 0x05DE15DA, 0xF7F7110F, 0xFE0C05D5, 0xFF050E0D,
        0xEEFAEB16, 0xFDDBEBD4, 0x0728170A, 0xF5C5D327, 0x07F0EDF6, 0xDA1A1DFB, 0xFDC6FE0A, 0x0B1AD727,
        0xEC05F6EE, 0xE5ECFAD9, 0x04130F1B, 0xF4CAEA2D, 0x06E813EF, 0x0212FA02, 0x09E20705, 0xFB15E50D,
        0xEA1F00DE, 0xEAF60CFC, 0xF208201C, 0xF8FBEF24, 0xFDED19E0, 0x0611F902, 0x051F0401, 0xEA21E81B,
        0x04ED11FF, 0x0F04012F, 0xF4FE0EDC, 0xF52CF00C, 0x06BE27E0, 0xEEF3F7D6, 0x05F227F6, 0x1109EBF3,
        0x27F9FA0D, 0xF318080F, 0x09F718E7, 0xFE130220, 0xF1EB39ED, 0xCAF10CE3, 0xFFFC00E4, 0x0706E2EE,
        0x2CF7F3FF, 0xE5F6ECF7, 0x290F37F9, 0x0EED0011, 0xFC0211F0, 0xD203FBE2, 0xECE602F5, 0x0EF1FCFF,
        0xFFFE08EC, 0x140DEEFF, 0xF8EDF2F2, 0xE32AF2F8, 0x0DEB0CF8, 0x06F2F5E1, 0x15C512C0, 0x18E206E8,
        0x0501E7FE, 0x1814F601, 0x00F7F6E9, 0xEB13F816, 0xF3060EFA, 0xFCFC06F5, 0x07E0E8D6, 0x06E505ED,
        0x04F8E500, 0xFDFC04F3, 0xFE1131E7, 0x130000F9, 0x00FAE0F1, 0xEC0F0C0C, 0x01F0EDFC, 0x11EB14F8,
        0x030801ED, 0x2B1E0E00, 0xFCE3FFFF, 0xE50001A9, 0x00E40C01, 0x37F3E2FD, 0x12D93103, 0x150112E1,
        0x14F7F3F2, 0x1F0B0A2D, 0x0EEB12F8, 0xEC060ACC, 0xF1F408F7, 0x2FEDF709, 0x09D80A14, 0x0D1022F7,
        0x04F0F0E9, 0x12D41B0F, 0xF60E28EE, 0x150CE8D0, 0x10FBF800, 0x10080822, 0x05E0FB31, 0x15122006,
        0xF61C1C05, 0xFDEA0BED, 0x000D0226, 0x210BFFF4, 0x35F406DD, 0xFBE91AF8, 0x14DBEB05, 0xF60E12F4,
        0xF105150F, 0xF4ECDEE4, 0xEEF1FD07, 0x12E90BE7, 0x34DF0EE9, 0xE9F60AF5, 0x0215E408, 0xF217F210,
        0xFF1E02FF, 0x10E3EBE2, 0xE605030A, 0x1706FBFB, 0x2AC0E1F5, 0xE204010F, 0x19F6FF18, 0xD9FC081C,
        0xF4FD0627, 0xFFF8EFE5, 0x0ADB0126, 0xE61702FF, 0x100513FA, 0xF8E50C21, 0x1ADDE2E9, 0x0AE40305,
        0xEC020019, 0x04F1FFFD, 0x08EF0205, 0xCA0F0702, 0x04081AF9, 0x03EB0016, 0xF805DA0F, 0x0002000D,
        0xED1AFC0E, 0x15F90EEB, 0xE8FB060E, 0x082314F9, 0x02F2FF0D, 0x1EF6FB1C, 0x06FFD805, 0xE2DE0E06,
        0x0BFE0A36, 0x0AED0AFF, 0xEEDDD836, 0xE51AD617, 0x05FD0418, 0x141618F9, 0x0BFD17EB, 0x18E70AFC,
        0x002B0026, 0xF9E92F26, 0x08DEE318, 0xC72ADD22, 0x03FC1509, 0x28ED14FE, 0x0CEA2309, 0x09F6FBFA,
        0xED24E809, 0x09EA320F, 0xF8FBEA2F, 0x0241C01F, 0x07F50E18, 0x33EE140C, 0x09331900, 0xE6DF00D8,
        0x03E1FAFF, 0x1BDDE902, 0x17DD2BF5, 0xE822FBFE, 0xCDD80BDE, 0xF50410FA, 0x02EEF7F3, 0xD715E6EB,
        0x0EEC08FD, 0x03CB0C00, 0x12F803CC, 0xEA09F40D, 0xBEEBF4EA, 0x10172E10, 0xF0FDF501, 0xE909020B,
        0x13DBF519, 0x0E05D50A, 0x02C922BD, 0xED06FE17, 0xD4D800F8, 0x02241B28, 0xCD17070C, 0xE1FE1507,
        0x05FFE8F7, 0xFDED1211, 0x1DEE1E0A, 0xF6F905D4, 0xE8DAFDF3, 0x09DD1A08, 0xF7F8EFF2, 0xD6F80208,
        0xF70FEA09, 0xFCDD2A00, 0x1C150E0A, 0xFEFAF8E6, 0xE8DFF5E7, 0x11FF170C, 0xFD09E500, 0xE4E41716,
        0xFD140106, 0x0AF4EF1A, 0xFB0108F0, 0x06EE13FF, 0x05E1EA0C, 0xFF14151A, 0xE329F7F5, 0xE4F517FE,
        0x080CD2E5, 0xF0E613FF, 0x0EF01F11, 0x11F21AFA, 0xED05ECF3, 0x0BE206ED, 0xF4FB0807, 0x0EF2DDDA,
        0x0114EFEA, 0xF0ED30FF, 0x1FFB1DF6, 0x14DD0DFD, 0xFFF6F1F7, 0xF1F2FA00, 0xF90BFB11, 0x09F411E6,
        0x002223EA, 0xEBF11011, 0x171505F3, 0x17DA13EB, 0x2AF8F612, 0xE1FCFBF6, 0xE03004F9, 0xFCF70BE8,
        0x16E701E5, 0xF111FA11, 0xED02F501, 0xD8EB0316, 0x0AE3EC10, 0xEFD0E6F7, 0x0027FD1D, 0x09F7F204,
        0x0AFAF9EF, 0xE50AFE16, 0xF817EF01, 0xFA13F312, 0xED07F202, 0xFDE0EEF3, 0xFE231BFF, 0x0100E624,
        0x03ECDEEA, 0xE10FFD1F, 0xFEFEE5F9, 0xE026F012, 0xD40B0203, 0x1FEDE40D, 0xEF1129FA, 0xEE02F4EF,
        0xFDCAFBE7, 0xFCFB042C, 0xE311FDF5, 0xCDDE0500, 0x0DEF0E0B, 0xE0D7050D, 0xF6150318, 0x16F8F1DB,
        0xF2DB0FFD, 0x0FE8F305, 0xEE170D00, 0xF5F4FBFB, 0xFA0617E6, 0xE2E3F3EA, 0x07130FFE, 0x0A08E7E6,
        0xF3CC0507, 0x0FF1C5F3, 0x0106F9F7, 0xFBFEFD18, 0xD50416D5, 0xEFEFDAEF, 0xFEFE0EF0, 0x060FEEDD,
        0xEDE10D09, 0xF4F20814, 0xF306E5D5, 0xE60C11F6, 0xFD12F811, 0xED09EA28, 0xE523ED0A, 0x150BF8D9,
        0xEFFA231C, 0x14F20906, 0xFCF7EAF6, 0xF7E209E9, 0xF80EFEF8, 0xF5FBDF11, 0xF216FEFE, 0xFD0EF9EC,
        0xE8C41016, 0x18FFDDDE, 0x11E2EC0C, 0xE9F2FB11, 0xE405F8DF, 0x0C10CAF5, 0xE30717E6, 0xF61516FE,
        0xED02D6F8, 0xFBFF0D0C, 0xF90B04EE, 0xF10302F0, 0xF901E401, 0x08D9070E, 0xFACFD4E7, 0xF222E6DF,
        0xE2E7F5ED, 0x00FFF102, 0xEAFDEDF5, 0xFCFB00F2, 0xF50EF40D, 0xF6F80C09, 0xFFDFF1FC, 0x0C0DE101,
        0xE8FC1AF2, 0xFD06D401, 0xFB04E5FE, 0x19E8FEEE, 0xEA2408FF, 0x11FD1316, 0xFCE80AF4, 0x0904EA04,
        0xEBF9FAFE, 0x0607F6F3, 0x0F0007F4, 0x0B0901F1, 0xFBE2F306, 0x16F12604, 0xFCE0E4F7, 0xEA0805F9,
        0xEBF1FE10, 0x14FBECFD, 0x11FEDFEB, 0xFEDCF8F5, 0xF1F8ECF6, 0x01F31EF0, 0xFF0EF407, 0x0002E908,
        0xE6F31B09, 0x0D09D4FD, 0x0BECEBEB, 0x14CADFFA, 0xE606F7F5, 0x01F90DF9, 0xE7F8FAF1, 0xFFF0D109,
        0xF21DE91D, 0x0EF2EBF1, 0x111628FF, 0xFEFFE8F5, 0xE7F3F2F5, 0x02D7FEFC, 0x05C5F0FC, 0xDE05F200,
        0xE1FCFF16, 0x18F3E404, 0x000AFBF5, 0x0CEDFCF8, 0xEEFBE9E6, 0xE6F90BF6, 0x06F6FEF8, 0xD9F4F300,
        0xD4011A09, 0x0412DDE4, 0x0CFCF112, 0x04CBF000, 0xDF11F5D8, 0xDC000A07, 0xDFEAE6FB, 0xE3EAED11,
        0xDDF71814, 0x2710F0FE, 0xEEEE1FF2, 0xFD00010A, 0xDEF63BFE, 0x030EDE0B, 0x1CE4FC07, 0xF0DAFC1E,
        0xF7FC1712, 0xF3E90704, 0xF0FE19F3, 0xD8040614, 0xF9ED26EA, 0xE3030D17, 0x0EF00110, 0x0CF4EB0F,
        0xFE0616F9, 0xFDE7F718, 0x110B2CE7, 0xDAFB12F6, 0x09F012DB, 0xCCFD2E0B, 0xF4FA032B, 0xEEEEE4FC,
        0xEBFC021B, 0x26020DF0, 0xF300F9DC, 0x13F9F902, 0xF0EE2406, 0x0A11D3EF, 0x1DF4F7F9, 0xF4E3F5E7,
        0x04FFF50B, 0x02E415F9, 0xEDF1F6DE, 0xF201020B, 0x09E805E9, 0xFF0EF7E4, 0x0D05FEFC, 0xFDEC06F9,
        0x0AFDE9E3, 0x02EA110A, 0x0CEF0AC6, 0xE2E902FB, 0x02F9EEE5, 0xFB0813E8, 0xF312010E, 0xF3EA06EE,
        0xF2DDFD12, 0x041109D9, 0xEB04E9D6, 0x14E50ADF, 0x06081115, 0x00FBC2EC, 0x11FE08D3, 0x03F80BD8,
        0xFFEEF501, 0xE4F51CD4, 0x050703DA, 0x02DB10E4, 0x090601F3, 0x15F5DBDF, 0x01F60EE0, 0x06F406E6,
        0xE2F8F8DA, 0xEC071DD8, 0x140501CB, 0xDCB50BCC, 0x1510F4FA, 0x1003FDF1, 0x0105FFF3, 0xF8F40EE9,
        0xF212FDFB, 0xEBF0FBE2, 0xDD21F9FA, 0xF2E61207, 0x0B0FFB38, 0xEC09F2ED, 0x0A02FEDC, 0x1117FEF4,
        0xFA0607F0, 0xCDF8F6F6, 0xFB19E907, 0x0CEF0005, 0xFC0EFE2D, 0xFDFC04F0, 0x0AD600E5, 0x0807EBFA,
        0xF30925FC, 0xDA13DFF2, 0x091BC813, 0x15F110F4, 0xFD1F03F9, 0xDEE3F9E4, 0x18BC1603, 0x1B03EDE2,
        0xF3080707, 0x00F700F5, 0xED241EF7, 0xF9F7F8E8, 0x051CFF1B, 0xFBFBFCFB, 0x0EFF01F5, 0x090F06F7,
        0x1FEC02FE, 0xF4F10504, 0xF60E0701, 0x0312F5F7, 0xFA140011, 0x03080508, 0x0AEE0BE6, 0x0CFAFE07,
        0x0BEA1BF7, 0xF21FE100, 0xE509E8FD, 0x0A1805FE, 0xE21010F9, 0xDF02F5EB, 0x16EC10F3, 0x1CFBF2F3,
        0xE0250B37, 0xF5F626EA, 0x0E171C0A, 0xF5F102E0, 0x020C14FE, 0xFFE1E8F0, 0x1BF722DA, 0xFE070EF5,
        0xE907001F, 0xF8EC10FE, 0xFE0713E8, 0x0C0B01E5, 0xF9EE07F8, 0xE4090002, 0x18FE23E3, 0x11020106,
        0xF704EE0E, 0xE70DFB0D, 0xE0FBEFDA, 0x1F0C02F4, 0xE4E21DE8, 0xC40FF9F0, 0x29041AF6, 0x05FFF10E,
        0x21F1F114, 0x01DC27F8, 0x0608E1FC, 0xE402E5F6, 0x1606EDEC, 0x08122011, 0xCF13BBFB, 0xF828D515,
        0x0CF004FD, 0x01E709EC, 0x09F1DBFF, 0x130FF4FF, 0x021E14DB, 0xEA190405, 0xCE03E505, 0xF412DF16,
        0xF5FE0304, 0x05DEEAE6, 0x0FE7CF0A, 0x19060801, 0xF31026CC, 0xEAE9ECEB, 0xE7FAF711, 0x0F130A08,
        0xE4FD130D, 0x00E1260E, 0x0A0CFFFA, 0xE6FAF80C, 0xECFCFC1C, 0x20FC2CFE, 0xF205D51E, 0xE708DC11,
        0xF5EE1A07, 0xF9D506FF, 0x021100FB, 0x0107F31D, 0xFD150AFD, 0xFD0CEEF1, 0xD8FFF014, 0xE7FDE403,
        0xE8EE0F0D, 0xF9E8E5E2, 0x030EDB02, 0x180D0C0D, 0xFD271BF4, 0xE4EADCE6, 0xDB04F024, 0x0708F6F0,
        0xE11A1534, 0xFAD92806, 0x05F60607, 0xCD17F50D, 0xF6EFEE06, 0x1B113AFA, 0xF8FAF12C, 0xD0F3D8FA,
