// DO NOT EDIT. File generated automatically, your changes will be lost when regenerated.
#pragma once

#include <stdint.h>

class ModelParameters {
public:
    //////////////////////
    //   conv1: Conv2d
    //////////////////////

    static constexpr float conv1_kernel_weight_scale = 0.0038967682;

    static constexpr uint32_t conv1_kernel_weight_data[300] = {
        0xDAEC0A0F, 0x060D1D1D, 0xE1080604, 0xE0CDD5DC,
        0xF71AE6E0, 0xE72046F1, 0x29BBD61F, 0x0CE02CD4,
        0x002E11BE, 0x0FFDFFFA, 0x28C0F9FE, 0x14196D26,
        0x0DEC3503, 0x1EFC19F9, 0x1AF8D1F9, 0xF9294842,
        0x0AF9041C, 0xE8331A01, 0x30D8D4F1, 0x211CF4EE,
        0xEBF9F6F5, 0x22E23617, 0xCC030440, 0x18CC22D3,
        0xD5E905D4, 0x150B181A, 0xEDDDD922, 0xD0FC18CF,
        0x1F0221C1, 0x33F62F39, 0xE801F250, 0xC33734E1,
        0x21091E0F, 0xF71B2BD6, 0xD915C3F6, 0xF9394CDD,
        0x1CF3CF4B, 0x11181BF6, 0x0C11D7D7, 0x1200FCF7,
        0xCFF11807, 0xF7EC09FE, 0xD41A050D, 0x0BFA1707,
        0x0D6105AE, 0xF3140851, 0xB8111C28, 0xADBF1304,
        0x7FD1E2E0, 0x11FE2A10, 0xAB76DF06, 0x1AEC37CF,
        0x5404CBE4, 0xEACDE0B3, 0xBD54B51C, 0xDCFE25DD,
        0xF21CE312, 0x26DAF8E5, 0xE7EA05EB, 0x11141A03,
        0xD6E33001, 0x1CDBE408, 0x260839F7, 0x1502EF2A,
        0xE9181613, 0x0EFAE1FC, 0x2D02303E, 0x2FABC7CA,
        0xECECC0D9, 0xD80208BB, 0xF747F3FB, 0x56D6E10F,
        0xF4029F02, 0xD5F526C2, 0x103912E0, 0xDE0CCC0B,
        0x28E5AA33, 0x2CE704F4, 0x11E635C7, 0x2243C722,
        0xF9043632, 0xD7E2E925, 0x092030FB, 0xE9E1E0FE,
        0x10F64114, 0xF2CDDBEA, 0x10E131F8, 0xD7C8CDF0,
        0xC21A3DF8, 0x02DEFAEC, 0x152143F8, 0x24F7A105,
        0xF1E5F0D7, 0xCFD5170B, 0x121209EB, 0x0902B82F,
        0xDFF1E91F, 0xE90BCC05, 0x0DF010CA, 0xEDF2D8E0,
        0x0D22E8F0, 0x1BE5D50F, 0x0D152F1E, 0x15FCC90F,
        0x1BECDEEC, 0x09FCD8E2, 0x22BB1320, 0x0A080107,
        0xE3EA03D0, 0xF1FEADE0, 0x1AD3FAF9, 0x05F43321,
        0xF0D23AE8, 0xE6ECCE2F, 0x0E1A0AF5, 0xD1170A40,
        0x102A08FD, 0x01F5ED30, 0x0E09100F, 0x2214F1C8,
        0xFE0509F9, 0x17DDD2DD, 0xE44D11DC, 0x2CF8FC25,
        0xECCAE9F3, 0xEEFCD82E, 0xDF1113C6, 0xCAFCD91A,
        0xD1D8E7DC, 0xE1DCE51E, 0xE6060027, 0xE642FB00,
        0xD5341823, 0xC5D4F214, 0xE91EF107, 0xEB16FA2A,
        0xDFF6EF2B, 0x01DCE213, 0xE613E8F3, 0x161310E8,
        0x2015260C, 0x08DEF7D2, 0xFE0022F8, 0x0F231F5A,
        0x317120D1, 0xF041CF50, 0xD913EFE3, 0xC7DE0A59,
        0x3C8CE4E7, 0x042DF402, 0xAF30EDC1, 0x370B0815,
        0x2803D11B, 0xD3F6BBDA, 0xAEF5C71B, 0xC6DF18ED,
        0xB91DF2ED, 0x25F20BDE, 0xD9C3030E, 0xE92B2600,
        0x07E639F7, 0x2CEF05CA, 0x31E011F3, 0xF8300D49,
        0x31350E25, 0x2E2BB506, 0x0EEBF50C, 0x29E9D233,
        0xA3C0B311, 0xD0121FE9, 0xDF15DDD6, 0x70E2FF1F,
        0xE9238B0C, 0xBBCF13F8, 0xF5E80D1C, 0xCBEF0747,
        0xF0E6CA12, 0x31F736F6, 0x04B50D09, 0x1039FAED,
        0x1C351A1C, 0x4614060E, 0x2E01F6FE, 0xFB030B1E,
        0x2C07204B, 0x2FE7D209, 0x37BC0AF7, 0xC8D1E9E5,
        0xF0EB3003, 0xE5CF24FF, 0x3AFAF327, 0x470CEAEC,
        0x0A03EA00, 0xE4D52E41, 0x2109D4EE, 0xE71CDA24,
        0x2B0FD316, 0xF7102011, 0xE7EFF1F7, 0xFFE3EBF5,
        0x1302C9F4, 0x2D190527, 0xFCDAE5F9, 0xF22FF6FC,
        0x2715DCF1, 0xFAFF370B, 0xEFB313D9, 0x13F800E0,
        0xF914EDDC, 0xFFFAF8F2, 0x0CF0F7ED, 0x2EF71DFF,
        0x0EE40A15, 0x05EEE5F0, 0xF7272200, 0xE0E507F9,
        0x0A0F02F4, 0xDFFF161B, 0xE9FC480D, 0x0BF709CD,
        0x140C1000, 0x1EE714DE, 0x0F2A1ACB, 0x28EA02E0,
        0xF1CBEBC5, 0x070EFB02, 0x08130097, 0xEEDDD21A,
        0xC90EFFBA, 0xD7F00603, 0xF81B1EF7, 0xFF0BCCE6,
        0xF6202FFE, 0xC8FD04BE, 0xDFE8422E, 0x14DFE7D0,
        0xFEFAE712, 0xD0FDF7FD, 0xE6FE2A22, 0x15EEECFB,
        0x03D6FCE5, 0x3CF638C6, 0x032DE3D5, 0x0B401E0E,
        0x1B4108AD, 0x1B6F0C3E, 0xE321DFC2, 0xA9F61819,
        0x36B0F3C9, 0xF65C3232, 0xB4321FCE, 0x02DBED15,
        0xF8071D22, 0xCA03C6DF, 0xE60D2B4A, 0xF5B811D2,
        0xDB073CFC, 0xFF12F6ED, 0xFFCF3B29, 0xFFD7FAEC,
        0x17DF2D07, 0x310213B1, 0x1BF2F1D4, 0xEF5709D1,
        0x2949E4F5, 0x2766D61C, 0x3F1DDDFA, 0xE505EAE9,
        0xB0D3E412, 0xF2673DF5, 0x2C24DDF4, 0x340AE604,
        0xDA1FDA18, 0xE31D33FC, 0x25F81C39, 0xD0161BFC,
        0x12F40E37, 0xDF1714FE, 0x00E3323B, 0x3D012A0A,
        0xDEE41136, 0x52FBF9E1, 0x1019D112, 0xD5402BD3,
        0x100AF34B, 0x3714D4E2, 0x32F2BB12, 0xD90D12C3,
        0xC9F2011C, 0x191DFE11, 0x39FCC824, 0x3B310905,
        0xEB06F4FC, 0xBEFF1C32, 0x370BD41B, 0x05FF03E4,
        0x361A0330, 0xE220BD41, 0x2CFCE82F, 0xEDAD1EF5
    };

    static constexpr float conv1_bias_data[16] = {
        0.348176807f, 0.110825963f, 0.0226878598f, 0.0425149836f,
        -0.0633272082f, -0.207505688f, 0.0554860905f, 0.140940174f,
        -0.070858106f, 0.0336302072f, 0.0550779589f, 0.13286297f,
        -0.195966676f, -0.103885211f, 0.0367248431f, 0.145121142f
    };

    //////////////////////
    //   batchnorm1: BatchNorm2d
    //////////////////////

    static constexpr float batchnorm1_scale_data[16] = {
        1.78936553f, 3.23626971f, 0.587763369f, 0.424503058f,
        0.675739706f, 0.640498638f, 1.28929079f, 1.28056693f,
        0.456902474f, 0.671132147f, 1.13514674f, 1.26964152f,
        1.63724732f, 1.19580162f, 0.624705255f, 0.694267154f
    };

    static constexpr float batchnorm1_shift_data[16] = {
        -0.0311198831f, 0.677351892f, -0.352341831f, 0.0514011309f,
        -0.0705632195f, -0.040929392f, -0.120529324f, -0.0147534311f,
        -0.273354709f, -0.0427844264f, -0.122490987f, 0.00458197296f,
        0.81486237f, 0.0319521502f, -0.386445403f, 0.0438506007f
    };

    //////////////////////
    //   conv2: Conv2d
    //////////////////////

    static constexpr float conv2_kernel_weight_scale = 0.00527690724;

    static constexpr uint32_t conv2_kernel_weight_data[864] = {
        0xE2FBDF0B, 0xF8F0E804, 0xFA1E281F, 0xF6001915, 0xCD05110D, 0xB418F9D6,
        0x37F3D7F6, 0x0EF4FADA, 0xF9A6FBEF, 0xFFF71F00, 0x3AF2FA12, 0xF5D000F5,
        0x120A04F1, 0x050A2D05, 0xE3F4EDE2, 0x1BF9C912, 0x0B100D13, 0x15B80902,
        0xF4F8090E, 0xC9DE192B, 0x1030FFCD, 0x07EC182E, 0xEEF3FEEB, 0x020104FF,
        0xFFEDDA06, 0xDA242813, 0x2847D80F, 0x0509E126, 0xEF0CE3EF, 0x0AF116DC,
        0xEF11E3DB, 0x11FF03F1, 0x0419DE17, 0x1AF1E30C, 0xF90BE4DC, 0xFDF2CBD6,
        0xF218060B, 0x2BE7F2EA, 0xC3FA1FDE, 0xFB11E329, 0xE7F2FF01, 0x1AFFD307,
        0xF2E9F409, 0x3C021A1D, 0x49EBFB14, 0x0A01E5F2, 0xE5F50617, 0x060BD2F0,
        0xF41B10F9, 0x0FE5DBF3, 0x02FAF519, 0x030A10F4, 0x1DF3F42C, 0xEF0C4EF7,
        0x0816FE23, 0xEA0DFFDF, 0x17FDFDF4, 0x3AF20BEF, 0x2500ED1C, 0x08D42508,
        0xFDCCF40F, 0x0612080B, 0x14FD2420, 0xD312EE00, 0xCC110B14, 0x3224D911,
        0x0D1E0FD3, 0x10FDF90C, 0xFAE526F3, 0x080903EF, 0xFEF2F916, 0xD5FA281D,
        0x052E1526, 0x0600EB00, 0x05EAF211, 0x38F9DEC0, 0xE8F710DB, 0xB5FDDBDC,
        0xE887FB36, 0x02F4F5C5, 0x2225F0DF, 0xD3F2F4EF, 0x5010F2DD, 0x2AB317E0,
        0xF328FFBB, 0x120CF1EC, 0x2A1CFCF3, 0x0DE41026, 0xE9FF01D9, 0x1919F6F6,
        0x0336FBF8, 0x00E90E28, 0x233004F2, 0xF107F4CC, 0xF50113E8, 0x39071601,
        0xFFA4081B, 0xD9F52124, 0xF40FE916, 0x08120D14, 0xCEFBEE1C, 0xC7FB1EF1,
        0xF6180BD4, 0x18F720F7, 0xC4E9010C, 0xF8F11844, 0xFEF8DE0F, 0xFFE5B4F5,
        0xDFFF1A20, 0xBF16FCD2, 0xC11EF415, 0x2AE720EB, 0x28E8F9FB, 0x3BE9F0F4,
        0xD5E61F20, 0xFD0710CD, 0xF1D2170F, 0xE711242B, 0x13F8F914, 0x15F5FE04,
        0xFE061ADF, 0x2C071FDB, 0x28DC2DE2, 0xF7F00EFF, 0x0ECE2B02, 0x06CF00E5,
        0x2D05080C, 0xC42A221A, 0xFA1B0601, 0x29FD1ABF, 0x0F0524EE, 0xEADAF9F9,
        0xF7EEFE27, 0xE9171BE3, 0xDCED2EE3, 0xD7E20722, 0xE819E8D1, 0x1FE3160A,
        0x0F16E4DE, 0xF61D10D6, 0x142A170E, 0xECCCCAF5, 0xF6041DF1, 0x09E5EEEF,
        0x1D0A02EA, 0x28240437, 0xC618F207, 0x350F04C9, 0xFFF9F606, 0x0AE1E2E3,
        0xD8DA0008, 0x1AFCFB3D, 0xC405EED7, 0xE9E3EA09, 0x080EFF05, 0x09AAF115,
        0xDB1EFBE2, 0x0CDFCD03, 0xF713E124, 0xFA96F808, 0x0EFAD91D, 0x09FA0110,
        0xEC02EDF3, 0xBEE638C5, 0xF202CCFE, 0xEE08F6ED, 0xF3CC1315, 0x060DE9F0,
        0x1DFAF8F8, 0xEBE2F4F4, 0xEAFD01FF, 0xF320F61D, 0x06D4060E, 0x2314FBDB,
        0x38F2EC0B, 0xD7EE8124, 0x18BE2515, 0x1D1FF708, 0xFCD8EA18, 0x40FBD3EC,
        0xEC1E04F9, 0xF8FA0DE9, 0x0318E20D, 0xF7EAF6F6, 0xFD0304F8, 0x04F4F3F6,
        0x04F303F5, 0x01DED4F9, 0x23F4EF29, 0xE103EA04, 0xF007E403, 0x0607F6DF,
        0x1BE0D3F9, 0x09DBA913, 0x24EF1904, 0x021E25F5, 0x041CDD00, 0x181B08D7,
        0xDF300D27, 0xFB06C5FF, 0xEE19E700, 0x0F0012F2, 0xDFF825CE, 0xFAEC12F7,
        0xE9FEF413, 0xC8BED1EC, 0xFD31E5FC, 0x13112105, 0x0D0B10F1, 0x1509F3F0,
        0x0518E60D, 0x05F0EB0B, 0xCA1409DB, 0x273322EF, 0x0410E2F5, 0x063219D7,
        0x00DFB30E, 0xDBFD0DE8, 0x11F82BE7, 0xFFFBF7FC, 0xFF0BF509, 0x1E1FD6B6,
        0xF0FDF7FC, 0xEF090305, 0xEC110DD4, 0xF31C270A, 0x1DDADFFD, 0xF408E3E4,
        0xFBF5DFDA, 0xF5F7E908, 0x22FD28EA, 0x3D391BE5, 0xF0161C13, 0xF0EDDF98,
        0x0DDAC800, 0xFC1320FE, 0x0B07FD0C, 0xFADCE3E3, 0xED1802F0, 0x232CCECA,
        0x0401FF15, 0x100600EC, 0xF40F0C03, 0xFDEE101A, 0x02ECDDF3, 0xF1120DEB,
        0xF1E4F7C8, 0xF9EFEBFF, 0x16F7100F, 0x2420E1DC, 0xDB263BE7, 0xF3FFDCA0,
        0xE401E80A, 0x1D111BF2, 0xE109FA1C, 0xEFC9D3DF, 0xF534F7E5, 0xF104049E,
        0xE0F4FC1D, 0x25E4FBFB, 0xD9EAFEFC, 0xDECEF225, 0xFBD7CAE6, 0x020E16BE,
        0xE3EC18A0, 0xC7E50E10, 0x340AFC2C, 0xF036C2FA, 0xE312E5CC, 0xF922F0A8,
        0xFAFC0CF7, 0x0FDE16FE, 0x08F202CE, 0xEB0D130C, 0x1EF2EFE3, 0xE5CEFAF5,
        0x1B14E407, 0x0FFE0810, 0x12F6E5FC, 0xD507FFFA, 0x331EDFBC, 0xE0DEF901,
        0x1D0C0508, 0x01FF0D0A, 0xEAFFCA17, 0x0DFAEEFF, 0x143AF6C3, 0xBBF219FD,
        0x091700F5, 0x18DCFDF1, 0xD02407ED, 0x1E120DF0, 0xEDDDEE16, 0xD11212FB,
        0xFF0CD3F0, 0x20F4F607, 0xF9210BD4, 0x0103DEF6, 0x18E9FCF9, 0xC40302FF,
        0x0208E2F6, 0x0E13F511, 0x141FE301, 0x14EBE4E3, 0x1601FFFA, 0xE2E810FF,
        0xF3E7FBFD, 0xFCE0FF06, 0xE00B250F, 0x0D0C00F6, 0xD1F4D61B, 0xCC3C01F5,
        0x01D8F803, 0xEF030200, 0x03002012, 0x1AE90EFD, 0xCAC7D718, 0xB423FC07,
        0xFADAEDFC, 0xCE18F601, 0x2BF40435, 0x0DC717F9, 0xCADEF12E, 0xD204EF02,
        0x4003E8E0, 0x0F1C0E06, 0xF9210215, 0x0E09F523, 0x0EF7F8EF, 0x0627E1E0,
        0x03F423F6, 0xE4FBEC1A, 0x1D01F91E, 0x1924FF06, 0xD4F01A08, 0xFC1809BF,
        0xE808F410, 0xF5C3F501, 0xEFD51926, 0x083301D2, 0xDFFB03FA, 0x0AF30013,
        0x0AF8D7E5, 0x27EB11CF, 0xFBFC0B12, 0x08D4273E, 0xCC04E724, 0x081C0008,
        0xCC0DDAF9, 0xF0EBE029, 0xFE10EF94, 0x1BC7F7EB, 0x0B031306, 0x030D16D9,
        0xED11DC16, 0x02DDFE19, 0xF20EF70E, 0x04E5EAD5, 0xD704210D, 0xFA04D8DD,
        0xE4F01EF5, 0x03D418DB, 0xE80C04E1, 0xE0DFC506, 0xD30AE5D8, 0xFA0003FE,
        0xBA030D03, 0xF6CA04EB, 0xF70A03C9, 0xE3CECACC, 0xEC0AFDFA, 0xEFF7BFF2,
        0xB1FF0E0C, 0x13B91016, 0x1C04F8EE, 0xDEBB04D1, 0xF2181101, 0xEEF71CD0,
        0x2B12DFFA, 0xFD10E30A, 0xF206F902, 0x22F1F7EC, 0x07080123, 0x2BE70203,
        0x03E41425, 0xFB210825, 0x2F15F7FE, 0xD6E12EF5, 0x1007EFFD, 0xEAFBE5D7,
        0x2111FB2F, 0x1533FF0B, 0xF5FB1C1C, 0x04F8F813, 0xEB020A13, 0x03FB0F1C,
        0xCD24EACF, 0xF5F413C2, 0x121916F9, 0x1710F6F9, 0xDC04E812, 0x0A17EDE9,
        0xE4C52AF7, 0xD9F60E01, 0x40B60704, 0x06FA11E7, 0x0A34FFDD, 0xF2F105BF,
        0xFA10F804, 0xFB0F350D, 0xDF1E0A08, 0xF6F39EF6, 0xF21017D4, 0x24EE07ED,
        0x1420E4CC, 0x1EF4D4DF, 0xEEE7E2EB, 0x0206FDF2, 0xE9D6F2F4, 0xF612F325,
        0xEFEE0008, 0x0E04E1B8, 0x0B1510E7, 0x1DFFBDEE, 0xFFE30304, 0x131E2202,
        0xE213EEFF, 0x1DE24CC5, 0x13F2F90A, 0x13D5FF0D, 0x1DE922E5, 0xE80FDFF6,
        0xE504F5CE, 0xD1D717C7, 0x1CD4F21A, 0xF60BF9F8, 0xF5DB1B1D, 0xD0F20BF1,
        0x0405EFD6, 0xDAC9FAF3, 0x2BD820E5, 0xF201FD09, 0xE3C41824, 0xD3DAEE20,
        0x0DF924FA, 0xDAF3E401, 0x05D829AE, 0x07E9FE16, 0x0BD01522, 0xFCBB070C,
        0xE0EEE2CC, 0xDAF9EC01, 0xF9DEE2BD, 0xCEF6F921, 0x11F5E7DA, 0xF30813E9,
        0x0D05DFDA, 0xE8F9DBEC, 0xEE0AF6C6, 0xDCEE190A, 0x06FEC4F9, 0xD60F13F8,
        0x040F09F7, 0x09451907, 0x16F81FF8, 0x22EBF404, 0x081BDB0A, 0xE5EBE70F,
        0xEAFFF8EC, 0x0AD9DD1F, 0xDBFFF0B5, 0xF4112607, 0xFCEFF706, 0x10170819,
        0x1A040BFD, 0x050FF520, 0xE9E50BC8, 0x080AF80B, 0x07F1F919, 0xF5190023,
        0x141E0AFD, 0x12322315, 0xD8D404F8, 0x0BEBD60E, 0x1004E53B, 0xE629021D,
        0xE0DE2009, 0xE0CFF9EE, 0xDBEA1ADC, 0xE005F1F4, 0xE70CDE03, 0xE80D060F,
        0xBEF51417, 0xEA0F0BFF, 0xF8121CE9, 0xCBF11003, 0xDF0F09EC, 0x10DD0201,
        0xBDE3172A, 0xCC200021, 0xE8150405, 0xC413160E, 0x010222F4, 0x170101F3,
        0xF20CDC0C, 0xEC210DF4, 0xF70423E1, 0x00FB07FF, 0x11D8E400, 0x211AF2FD,
        0x200DBB11, 0xE32B0DED, 0x04271DF5, 0xEDF5F7EC, 0x1D2DF40C, 0xF9FBD3E9,
        0x220FE707, 0xE5260FF1, 0x0003F9EC, 0xEFE4EEF8, 0x200F0A12, 0x11F1F9F5,
        0x04EEDF00, 0x1A0C262D, 0xE62BF1EA, 0xFA0E1DEB, 0xEFB5FDE4, 0x1826170A,
        0x120DCBF0, 0x0E1AF4E1, 0x241EEF0D, 0xEAFD02E5, 0xFE04E8E4, 0x071F19FA,
        0x3300DAE2, 0xE5F6D3F2, 0x2CE020ED, 0xE6DF12E0, 0x06B000FE, 0xE3EE1F21,
        0xDB000418, 0xEDC4DD22, 0x1A10F6EB, 0x0ADFF310, 0x1550F3E0, 0xF6C6C816,
        0x090DFF1C, 0xEEF60E15, 0x1811280A, 0x00092107, 0xF104DDF7, 0xFDD4EEDD,
        0x16EA1305, 0xFD151301, 0x17E5EDFA, 0xFEEA0F04, 0x0A0CEEEC, 0x07CC0A01,
        0xD5F604DB, 0x2ED9F222, 0x120D07EB, 0x17E122FC, 0xF3FA1E24, 0xDBCEDB00,
        0x020F0AE5, 0x1FDD1306, 0x040B2605, 0x052F1511, 0xFBDEE620, 0xFBCC1FF1,
        0x1B0131DA, 0x1115F2F3, 0x0CE5EE09, 0xFD1AE00B, 0x17D5E1F4, 0xF3E2E808,
        0xEFE1F203, 0x27EE07DE, 0xE1F9ECF9, 0xDC9B0EFF, 0xD20F0600, 0xE6F10FEA,
        0x001CF507, 0x11F6FBF6, 0x06030B28, 0xF1C2E91F, 0xE5ECB604, 0x07FCF4C7,
        0x15F82816, 0xF5F3ECF4, 0x12FBDA07, 0xE9B3D403, 0xF4D684F2, 0xFFFB01D4,
        0x20F3FDE5, 0xE61C1D0A, 0xCBFF01FA, 0x31E60314, 0xEAF9281A, 0xEAFBDFD7,
        0x03F4F419, 0x0A1DCB05, 0xF7F5D4EE, 0xCA17FF29, 0xF9280C28, 0x11EACC1B,
        0xECFEDC0A, 0xFE10B504, 0xF9CA002A, 0xED0B1A09, 0x0229C732, 0xFCEE2FCE,
        0x05072BEF, 0x2108EE10, 0xF417112C, 0x32FA090F, 0xB3F012FB, 0xED11ECDE,
        0xDB022A08, 0x0F17CBFD, 0x11D5CFFD, 0xE7111C1D, 0x07122203, 0xEBDF11FE,
        0xBA16F8FE, 0x10FECF06, 0x1409DFF1, 0xF3DA0CF2, 0xF100D2E9, 0x09EBF1E6,
        0x0BF9F4DA, 0xF1CFE2E1, 0x1EFC250B, 0xF4CAF62C, 0x31ED13CA, 0x03F9F4EC,
        0xFCF930F0, 0xF9E403ED, 0x022DEA0B, 0x04FDF2F5, 0xF5E02EBF, 0x001316FE,
        0xF5EA10E1, 0x00E42A00, 0xEA23FE0C, 0x0607E0EC, 0x2DE6E3CA, 0xCB27E8EF,
        0xEED60306, 0x280D12ED, 0xE6E5D4F7, 0xCBEEF508, 0xDCECE5FC, 0xDF17F2FF,
        0xFD2BF7EA, 0x0B07E831, 0x071D06F4, 0x2CE9E60D, 0xF1F2F822, 0x25EC04DA,
        0xE7DD231E, 0xE9ECCFF9, 0x2E13FF0A, 0xFBE5F8EC, 0x101417B8, 0x11F818FA,
        0x08C81611, 0x05F9FBD4, 0xFBDBF4F1, 0x000BF530, 0xF1E116F0, 0xFBDD2414,
        0x0347F8DF, 0xF909F1DA, 0xF1FEE10A, 0x1611DBE5, 0xF9C5F613, 0x14F0EF0C,
        0x1CD810F2, 0xEBEBDE0E, 0xF903D7F8, 0x05E618B8, 0x01E61CFF, 0x0A08CD22,
        0xFFD60307, 0xE5FBE524, 0x2EF411FD, 0x0909F410, 0x0C2415E2, 0x1CE1C0F9,
        0x0334E2FB, 0xE9EDD8E7, 0x0A0C11F9, 0xF91F18B9, 0xF2FCEA08, 0xF70C03D3,
        0x0AD120FA, 0xC4ED0FCB, 0xEA0AE7F7, 0x0A0714F8, 0x132304E4, 0x01FC48AF,
        0xFBD80F2F, 0xF10CFFE3, 0x18DE26EC, 0xF0FBF802, 0x322FFAE0, 0xDD16FF25,
        0x05011517, 0x14D908DC, 0xE91620EC, 0x3EFC03FD, 0xE1E7DA18, 0xECF9F210,
        0xE01E4804, 0x350001EA, 0x12E20BD3, 0xF6032503, 0xD515EFFC, 0x01F91EF0,
        0x0AE7F00A, 0x1B01F83B, 0x0AF30FF2, 0xE913F112, 0x1C2F25FB, 0x080CFBFE,
        0x0C1304E5, 0x0AD600EF, 0xF00515FB, 0x3AF74109, 0x00D919F7, 0xF901E6FF,
        0xCE103D02, 0x1016E6E8, 0x2D1EF5E9, 0xED14DCEE, 0xFAEC0702, 0xFD19FEEB,
        0x03E0DDFD, 0x06C0EE2B, 0xF01C0822, 0xEC0CD31D, 0xF0FAEFD2, 0x0AF6FDF4,
        0x05FDF0DF, 0xEACDDFFE, 0xE20C1718, 0xF8EEE313, 0x10EC04EB, 0x04FFF8DD,
        0xC71810D2, 0xDA19D7F7, 0x28FDE912, 0xDB11D1DC, 0x090ADAFB, 0xFE17CBEB,
        0x16F0E1E0, 0xC212D81F, 0xD80DEDF3, 0xD02B00F3, 0xF7E20D21, 0x1EDEE6F7,
        0x2AE5EBF1, 0xD41FED0B, 0xE6D10403, 0x0C02FE03, 0xF0040F1D, 0x1BE3F225,
        0x29F60525, 0xED270FF6, 0xF1C81CF1, 0xF7FED9F5, 0xF4F0FA04, 0xE8F82206,
        0xE7F0DA96, 0xF6FFE815, 0x0DEFAD1F, 0xD21E19F1, 0x04F1FCF0, 0xF032E6C2,
        0x1FFCEAC9, 0xF417F319, 0x15E3C907, 0xD8E013EC, 0x0FF4F2F3, 0xFBF3DBFD,
        0x03FC0F20, 0xE223DE00, 0x0AFCF0F7, 0x14D015FC, 0x0403DEE4, 0xF4FCF81B,
        0x090EF098, 0x1AFEFEE1, 0x06FEA50E, 0xF00816E5, 0xE702D802, 0x12EFF9DE,
        0x1C02FECC, 0x25FB07F1, 0x0CFDBEEC, 0xE3EC04F9, 0x0BFFBB17, 0xF7E4FADE,
        0x01243C08, 0x19F9F6DE, 0xF20A9EC5, 0xE7DAFCF9, 0x3D0DB407, 0x04BFC4EE,
        0xE8F600FF, 0x12CFEAE8, 0xD3E8400F, 0xFFF71A02, 0x07E107E7, 0x1CD9F9E8,
        0xE0F0FD03, 0x09D3F11E, 0xDB20241B, 0xDDE3EB11, 0xF004F301, 0xFBE3F5F6,
        0xDF09F30E, 0x290A1033, 0xD807EB17, 0xE6FDFAE7, 0x17E51CFB, 0xFF23FDFF,
        0xF60013FD, 0x10BB0CEC, 0x11E217ED, 0xEE0A01FE, 0x20E61419, 0x0BE9F803,
        0x15FDE6D5, 0xFECD03FF, 0x10F01AEC, 0xEFECF303, 0xF3F9ECFB, 0x01FD170B,
        0x0FFF0ADB, 0x041D0125, 0x0315EFE8, 0xFBE8E1E2, 0xFDCB15F1, 0x0E141D1B,
        0x03FCFF08, 0xDBEB36F2, 0x0F0B0E01, 0xFBF8E5F2, 0xE32A1EF4, 0xC8F401F7,
        0x1C0BDAFA, 0xD316FFE3, 0x012217D9, 0x07E0EA0B, 0x143314D4, 0xFEF3EF02,
        0x3013EDCC, 0xE5F719C4, 0xF730ED14, 0x09DBD9F4, 0x281939E4, 0x1502DB18
    };

    static constexpr float conv2_bias_data[24] = {
        0.0359246694f, -0.068326883f, -0.0950998813f, -0.0867926925f,
        0.0798732266f, 0.00984911621f, 0.0389276929f, 0.0298118256f,
        -0.0108054057f, 0.0383022092f, 0.0028727185f, -0.0963792056f,
        -0.00396830449f, 0.111359686f, -0.051598262f, -0.10324689f,
        -0.0908662528f, -0.115693599f, -0.0984960794f, -0.114817671f,
        0.0751611292f, -0.0170148946f, 0.0397427343f, 0.0420376435f
    };

    //////////////////////
    //   batchnorm2: BatchNorm2d
    //////////////////////

    static constexpr float batchnorm2_scale_data[24] = {
        0.798178256f, 0.578048706f, 0.828059375f, 0.509235859f,
        0.684438705f, 0.646215796f, 0.527517974f, 0.706991851f,
        0.715512872f, 0.827137113f, 0.506356418f, 0.88454628f,
        0.734592557f, 0.706432998f, 0.835246205f, 0.63527f,
        0.890453041f, 0.759335518f, 0.507698238f, 0.725883484f,
        0.606059074f, 0.708776295f, 0.891384661f, 0.438624978f
    };

    static constexpr float batchnorm2_shift_data[24] = {
        0.484052867f, 0.42372328f, 0.329238713f, 0.448114038f,
        -0.362169802f, 0.780881643f, 0.180105746f, 0.576349676f,
        -1.04973388f, -1.15003979f, 0.0798186883f, 0.304333925f,
        -0.80474335f, 0.896149695f, 0.868124843f, 0.194307059f,
        0.813589394f, 0.385512859f, 0.510880828f, 0.548825264f,
        0.0038985908f, 0.827676833f, 0.725338161f, 1.22403932f
    };

    //////////////////////
    //   conv3: Conv2d
    //////////////////////

    static constexpr float conv3_kernel_weight_scale = 0.00559323374;

    static constexpr uint32_t conv3_kernel_weight_data[768] = {
        0x32FAF7F2, 0xD7120000,
        0x21010113, 0xE71D0000,
        0x210C0E0A, 0x08130000,
        0x4812F9EF, 0x0EE50000,
        0x02F116C7, 0xE2FF0000,
        0xFDE5F2F8, 0xF9F00000,
        0x160F0BEF, 0x0AFE0000,
        0x1F1A0EE2, 0x02ED0000,
        0x05020CF6, 0xEEF30000,
        0x15EC0A15, 0xFBC60000,
        0x0C061E07, 0xF7E70000,
        0x13131F07, 0x000C0000,
        0x0207EFE2, 0xDF300000,
        0xF6E915FE, 0xE1F50000,
        0x1B1127F8, 0xDB0E0000,
        0x2C31F202, 0xFF1E0000,
        0x02131EEC, 0xDCE20000,
        0xF10B28F3, 0xD2ED0000,
        0xDFFC14FC, 0xDFE40000,
        0xEB041111, 0xDAE40000,
        0x1F041BFE, 0xE40E0000,
        0x0D1C0CFE, 0xBD190000,
        0xFD1909F8, 0xDC0D0000,
        0x040A1C09, 0xE9250000,
        0x040A1702, 0xEF130000,
        0x03042607, 0xE50B0000,
        0xEEFE2218, 0x091B0000,
        0x07122710, 0x05190000,
        0x0943ECEB, 0x04CB0000,
        0x0A32EEFC, 0xFDE90000,
        0x052FCAF6, 0xEDFF0000,
        0xFB48DEF3, 0xF0EF0000,
        0xFEEBF0FD, 0xF1F50000,
        0xEED20D07, 0xE5140000,
        0xF7E213F8, 0xFD2D0000,
        0x1FF02114, 0xFB480000,
        0xF514ED12, 0x10010000,
        0xFEEA02F5, 0xFCF00000,
        0xF6DF11F4, 0xF3060000,
        0x09C00B1D, 0x122A0000,
        0x0D231841, 0x18FD0000,
        0x19E81E06, 0x05D40000,
        0xEDFA0FF7, 0xF3FE0000,
        0x1BFA2C0B, 0x0B2D0000,
        0xF3131112, 0xE3450000,
        0x130A0009, 0xE8020000,
        0xF018FCF7, 0xEEF40000,
        0xF41BF9D0, 0xF9100000,
        0x1623DBD6, 0xE5120000,
        0x0D1508F2, 0xC2E80000,
        0x0409F9E3, 0xC4DD0000,
        0x0602FEFF, 0xC8030000,
        0x042711F7, 0x07070000,
        0x0A0D19FF, 0xB8F10000,
        0x0B131404, 0xDD080000,
        0xF9F20928, 0xF22F0000,
        0xF4211226, 0x120A0000,
        0xF4FE1701, 0xC7FA0000,
        0x0BFF2807, 0xD9270000,
        0x04071A08, 0x052A0000,
        0x1A02DF17, 0x00E80000,
        0x030CEE05, 0xDEFA0000,
        0x0CF7EF09, 0xED150000,
        0x150F0EF1, 0xFCF40000,
        0xFA18E834, 0xE73A0000,
        0xF31AF411, 0xF30E0000,
        0xF712FA1B, 0x0BEB0000,
        0x1B1B01F6, 0x0BE90000,
        0xDCE9FF04, 0x04040000,
        0xF7FB03FE, 0xDFD80000,
        0xE91A0101, 0xEECF0000,
        0xF5030CF2, 0xE2DC0000,
        0xEEDEFD13, 0x05FF0000,
        0xFAF6F31C, 0xFAE10000,
        0xFA10FCFB, 0xFEF70000,
        0x030B1B07, 0xF1F10000,
        0xF1FC232C, 0x16160000,
        0x05003229, 0xDE010000,
        0xE90C4C3C, 0xDFEA0000,
        0x001D5D20, 0xE1FC0000,
        0xC5CE1516, 0xFCF50000,
        0xD70C0EEC, 0x0F180000,
        0xD50908D2, 0x152C0000,
        0xED03E5DC, 0xEE2C0000,
        0x14E31401, 0xE6020000,
        0x010EFDF8, 0xDC110000,
        0x002DFD04, 0xF0150000,
        0xE20D0400, 0xEC1F0000,
        0xFDCD0B0E, 0xE0030000,
        0xF9F9ED0D, 0xF6160000,
        0x030EFA05, 0x07130000,
        0xDDFC1FE4, 0xFC270000,
        0x4CB72611, 0xFBEE0000,
        0x10EC0F03, 0x09FB0000,
        0xFA05F309, 0xF4160000,
        0xD1011E0F, 0xFF150000,
        0x25F50910, 0xFA440000,
        0x131112FD, 0xF9050000,
        0xFD1412E6, 0x190B0000,
        0x1CFB00F3, 0x13150000,
        0x23F6091D, 0xE41E0000,
        0x1C031103, 0x06170000,
        0x15170C10, 0x05110000,
        0xF8FC1519, 0x19260000,
        0xFE03F5F9, 0xE51C0000,
        0x1316FA13, 0xF60C0000,
        0x04F80E25, 0x1E170000,
        0xCFD72139, 0x1C080000,
        0xFF20E0EA, 0xC9EB0000,
        0x0106E1FC, 0xFCFD0000,
        0xE8F6F219, 0x0D100000,
        0xE6E92964, 0x1F130000,
        0x031615E5, 0x3FE60000,
        0x0BF20707, 0x07070000,
        0x0AF3F9FB, 0xED290000,
        0x23E8F704, 0xE72E0000,
        0x0B2A2305, 0x22F80000,
        0x03010A08, 0x080F0000,
        0x1310FE0E, 0xDB1A0000,
        0x0EEBFAFC, 0xD3180000,
        0xF705211F, 0x1EF50000,
        0x11E9FD10, 0xF80C0000,
        0x0811FA0A, 0xF3020000,
        0x18ECEC04, 0xC6060000,
        0xEFDE3462, 0x05FD0000,
        0x0300E424, 0xE7040000,
        0x10F7E203, 0xFAF60000,
        0xFBF3EA0D, 0xD7FE0000,
        0x16E8F7DE, 0x30FB0000,
        0xFEFFF7E3, 0x20F30000,
        0xF709FEE1, 0x15010000,
        0x12F9F8C1, 0x1E020000,
        0xE8F8D0E1, 0x10E70000,
        0xE413EAF0, 0xF4EE0000,
        0xFA16E5EB, 0xF6F10000,
        0xF717EDD9, 0x1CFC0000,
        0x01EDDAC7, 0x03140000,
        0xFC0BF8EA, 0x01DF0000,
        0x0307F1EB, 0x000A0000,
        0xFAECE3D6, 0x10FE0000,
        0xEBF1E1CF, 0x0E090000,
        0xE7EEF6F9, 0xFDF20000,
        0xECDDE3F5, 0x12160000,
        0xE7E2DDDE, 0x18050000,
        0xF0EBFF09, 0x11180000,
        0xEAF7200B, 0xE0F40000,
        0x02E50F0A, 0xE2F40000,
        0xFD0EF915, 0x1CF20000,
        0xEBF0FA04, 0x18F40000,
        0xDBFC1FFD, 0xFCEB0000,
        0x0610FD10, 0xDEE90000,
        0xF9FDEE17, 0x1CE60000,
        0xF7E9FBE0, 0x0CF50000,
        0xE9F508E4, 0x09E70000,
        0xF1D00DF9, 0xDCD90000,
        0xF3E911E6, 0x26E20000,
        0xDF0910DC, 0x08080000,
        0xF9E702EE, 0x19030000,
        0xF4DC22F4, 0xF7F90000,
        0xD6F614FC, 0x190B0000,
        0xFE11E0F4, 0xD8200000,
        0xF5E5FDFF, 0x070F0000,
        0xF9F0E70F, 0x0B230000,
        0x05D9FE10, 0xEB2D0000,
        0xFE23F1EE, 0xF8FA0000,
        0xE102F7F4, 0xF3F30000,
        0xDA0C0303, 0xF7F20000,
        0x08D80900, 0xE8110000,
        0x0B1BFAFB, 0x04160000,
        0x02000EF5, 0x05F60000,
        0xF5F50BE5, 0xFDEA0000,
        0x31E1FEEB, 0xDDFD0000,
        0xDA061022, 0x09270000,
        0xEF10FF02, 0x1F050000,
        0xFA1EEEF3, 0x29E00000,
        0x07FFEFE2, 0xFD090000,
        0xF3E9DE3B, 0x22DF0000,
        0xF8FFE70A, 0x1FEB0000,
        0xD1FAEE07, 0x27D10000,
        0xF31AED18, 0x36D30000,
        0x01EFF2FD, 0x0AF70000,
        0xF8F0E306, 0x0F070000,
        0x00FAE90F, 0x02010000,
        0x0000D705, 0xF8130000,
        0xDBF5F50E, 0x07D90000,
        0x2DF6E2F6, 0x14FD0000,
        0xF5E6F4E1, 0x0D080000,
        0xFBE5E9F4, 0x0E090000,
        0xC40F0F07, 0x17EF0000,
        0xDB11E8F4, 0x2A0D0000,
        0xEFDFDBD7, 0x23080000,
        0x8109E705, 0x0D030000,
        0x14D9EB13, 0xFBEE0000,
        0xDEE8EDFC, 0xE3F20000,
        0xF1EFEFEC, 0xD5E40000,
        0x14E3CE1B, 0xFAFF0000,
        0x13E6EE23, 0x2C170000,
        0x01F9F0F5, 0xC80A0000,
        0x0CF4F7F9, 0xE5FC0000,
        0x18DEF105, 0x24200000,
        0x12F1000C, 0x2F170000,
        0xFE12F0EA, 0xF3EA0000,
        0x0BFA09F7, 0xE8FD0000,
        0x0DE6FCFF, 0x1F130000,
        0x37B91F39, 0x0A270000,
        0x22CA260C, 0xF5EF0000,
        0x30B81B10, 0xD5010000,
        0x2D851E2B, 0x261B0000,
        0xE7101D11, 0xF90B0000,
        0xE3F80EFD, 0xFF1C0000,
        0xDEEE01FD, 0xF1080000,
        0x08DAE220, 0xDA3B0000,
        0xE31F0CFA, 0x06230000,
        0x001D0BFB, 0xF20F0000,
        0xFD04FCE9, 0x05040000,
        0x1BEB0B0D, 0x182B0000,
        0xED0E02FE, 0xED190000,
        0xF5FFF70C, 0xFA080000,
        0xE40B05FA, 0x05060000,
        0x0CF31415, 0x252A0000,
        0xEA403EE4, 0x090D0000,
        0xF03D20FE, 0x0D1F0000,
        0xF6002807, 0x09200000,
        0x0AE7372E, 0x271B0000,
        0x1EE2EE0D, 0xF81D0000,
        0x020DF2F9, 0xF80E0000,
        0xFBF7F8DC, 0x04070000,
        0xF601E6DE, 0x04D10000,
        0x34E9FAF2, 0xD3FE0000,
        0x100210F6, 0xFB160000,
        0x03FA02F1, 0x02020000,
        0xF9FC150C, 0x0BF00000,
        0x22E5E8EC, 0xEF000000,
        0x010B0009, 0xF3F90000,
        0xF501FC02, 0x0EF70000,
        0xF5FE380C, 0x15F50000,
        0x2FDEF413, 0xFCFC0000,
        0x0CF8F913, 0xE5070000,
        0xF1D7FA1F, 0xEE170000,
        0xE9EC3B4D, 0x09FA0000,
        0x2315D3FF, 0xFF030000,
        0xEF02FCF2, 0xDBFE0000,
        0xEE00F7D1, 0xEEF80000,
        0xFD08F4E6, 0x0AF70000,
        0x270BFB15, 0x180E0000,
        0x1A180101, 0xAA0F0000,
        0xF00F07F0, 0xD00A0000,
        0x0B010706, 0x220D0000,
        0x1AFF1504, 0x34FD0000,
        0x0D1EFE0F, 0xF30B0000,
        0x0711F108, 0xF3F00000,
        0x0401FC11, 0x20FC0000,
        0xFB1BE40B, 0xF90C0000,
        0x2702E4ED, 0x03040000,
        0x3808CDE5, 0xFD090000,
        0x1B1BE9F4, 0xFF000000,
        0xEE0FD9E2, 0xDCFD0000,
        0x0BD814F6, 0xDFE90000,
        0xFEF00314, 0x12F00000,
        0x1BF10519, 0x08EF0000,
        0x0617FFEF, 0x14CF0000,
        0xFDE1FE19, 0x07E30000,
        0xFCEE0F0D, 0x07E30000,
        0xF9FD130D, 0x14E90000,
        0x030A1C09, 0x18C70000,
        0x11E8FF1B, 0xFAD60000,
        0xF7E5F709, 0x08E10000,
        0xEDF70602, 0xFDEA0000,
        0xF01C3B16, 0x16DB0000,
        0x06F81616, 0x2D0D0000,
        0xF6090A0F, 0x20ED0000,
        0xF018CFF7, 0x0BFA0000,
        0x39E90F07, 0xE6F30000,
        0x00FA1CE8, 0x01120000,
        0x0007FDF0, 0x13E10000,
        0x34FA09EA, 0x11EB0000,
        0x16F51D02, 0x30FD0000,
        0x0DF90707, 0x05FA0000,
        0xF8040DEB, 0x0CCF0000,
        0x1DFE0FFA, 0xEBD20000,
        0x1C04111A, 0x1CD80000,
        0x1EF80514, 0xE50A0000,
        0x0A1A1300, 0xF7F40000,
        0x1A1F1F15, 0x0EF40000,
        0x2002110D, 0x22FF0000,
        0x0EF72AF4, 0xFB1C0000,
        0x1124FE0F, 0x0BF10000,
        0x372D1600, 0x07F40000,
        0xF010EAF2, 0xEE260000,
        0xED030BF0, 0xEE2A0000,
        0xF00E0B03, 0x02110000,
        0x10F10429, 0x02140000,
        0x03EDF1F8, 0xC8280000,
        0x03000BF4, 0xC8180000,
        0x17041011, 0xEB000000,
        0x1BF4FA23, 0x15FF0000,
        0xF4E80B02, 0xD9150000,
        0x05E80D11, 0xE11B0000,
        0xF806160A, 0xFAFF0000,
        0x07F11422, 0x18F20000,
        0x180BEC00, 0xE4190000,
        0x2A1BE10A, 0xE7220000,
        0x272BF519, 0x0F190000,
        0x19010F1F, 0x0D270000,
        0xE7BAFA07, 0x0FFC0000,
        0xF2DC0611, 0x070F0000,
        0xECF314F7, 0xFEFB0000,
        0x1AD40900, 0xF8D90000,
        0x04BD0A0A, 0x23FF0000,
        0x01D2FD0C, 0xED140000,
        0xF52E02E0, 0x04D60000,
        0x140E0AE9, 0x01DA0000,
        0x16D419E5, 0x100B0000,
        0xF6EBF70C, 0xF9030000,
        0xF814F1F4, 0xEEE20000,
        0x08F411D3, 0xF1C70000,
        0x05EC11E8, 0x0FFA0000,
        0xF1FB1CFF, 0x1DEA0000,
        0xE510FBF9, 0x15DF0000,
        0x2313F4ED, 0xFAD80000,
        0xEE21DE10, 0x0EE30000,
        0xD9F5E60D, 0xE6FA0000,
        0xE4FFE4F9, 0xE2FB0000,
        0x0B04C602, 0x02F10000,
        0xF3F0FB0A, 0x1FF70000,
        0x0BF8FE1D, 0xFCFD0000,
        0xFC07FA17, 0xEE0A0000,
        0x1606E40A, 0xE9F80000,
        0xFBFDFEF2, 0x08D70000,
        0xFAFCE311, 0x08FD0000,
        0xF3F3FF0E, 0x0B020000,
        0x11FBEC1C, 0xF8E70000,
        0x00ECF4FF, 0x10D30000,
        0x0A03D503, 0x11EC0000,
        0x0D03E2F1, 0x0AF20000,
        0x250CEB11, 0xFAE40000,
        0xF914E03E, 0xF6070000,
        0xF414DD24, 0xF5F20000,
        0xE4F4F80D, 0xFB1D0000,
        0xF8DCE42C, 0x1A120000,
        0x2BFB0328, 0x00050000,
        0x2EF20DF7, 0x0AF10000,
        0x251EFDF0, 0xE6F40000,
        0xF4F4FF04, 0x0D090000,
        0x211BF53F, 0x250B0000,
        0x1EF3E1E8, 0x0AE60000,
        0x2314E7F8, 0xE3E60000,
        0xE7F9EEFE, 0xF90D0000,
        0xDB03F830, 0x0C000000,
        0xF3EBDCF1, 0x0EEA0000,
        0xDF17E6EA, 0xE3FF0000,
        0xD0E2D926, 0xEEF80000,
        0xD11902F8, 0x17ED0000,
        0xE4F41810, 0x36E20000,
        0xE7FA0AFC, 0x04E90000,
        0xF5F20718, 0x15D40000,
        0xFAFEF5FF, 0xD3FF0000,
        0xFCFCEF1D, 0x14DE0000,
        0xFE01FC0E, 0x1DEF0000,
        0xD221131E, 0x0CEE0000,
        0x0311D3EA, 0x00E40000,
        0xF4E6EBF8, 0x08130000,
        0xFB05F606, 0x00EA0000,
        0xD9000324, 0x01EA0000,
        0x121FA5D4, 0x1DC80000,
        0x08F7B8E8, 0x0FDC0000,
        0xE104C5E3, 0x02F00000,
        0xEAFFFD33, 0x02C10000,
        0xD008E0B9, 0xFF110000,
        0x2AFAF7F5, 0x18F00000,
        0x3B18E90C, 0x1DF60000,
        0x2E30CEF9, 0x13F10000,
        0xC1FFEED4, 0xEFF00000,
        0xF5FF0C0C, 0x06EB0000,
        0x0B040912, 0x15F70000,
        0x1816E2F9, 0x00F50000,
        0xDB22D5D3, 0xE9F20000,
        0xFA0B0706, 0x17060000,
        0xF1121A0D, 0x18080000,
        0x2517C704, 0x0CF10000,
        0x28E6DAC1, 0xF20B0000,
        0x22E202DC, 0xFB110000,
        0x22EF0FF9, 0x05060000,
        0x5CFCD5F7, 0x24E30000
    };

    static constexpr float conv3_bias_data[6] = {
        0.031015398f, 0.00102714705f, -0.0600154698f, 0.054478731f,
        -0.0180874988f, -0.100705132f
    };

    //////////////////////
    //   batchnorm3: BatchNorm2d
    //////////////////////

    static constexpr float batchnorm3_scale_data[6] = {
        0.604744911f, 0.430059671f, 0.67540729f, 0.499010175f,
        0.446279734f, 0.437711447f
    };

    static constexpr float batchnorm3_shift_data[6] = {
        -0.782607734f, 0.223387539f, -0.0798146129f, -0.720472097f,
        1.1847285f, 0.0670242757f
    };

    //////////////////////
    //   fc1: Linear
    //////////////////////

    static constexpr float fc1_weight_scale = 0.00419825129;

    static constexpr uint32_t fc1_weight_data[882] = {
        0xF5E9E105, 0xFD22E740, 0xBF0A0000,
        0xDB0E08FA, 0xEE0F0B0C, 0xDA240000,
        0xF015E8F8, 0xE11CFBF2, 0xFC200000,
        0xEB0BDCF4, 0xE91DF9F4, 0xFC180000,
        0xE80FEF0C, 0xE22CDF11, 0x06240000,
        0xE9FB0700, 0xF71ADC26, 0x00080000,
        0x0EF80203, 0xEC07D733, 0x0DF00000,
        0x02EEC0F7, 0xF408143C, 0xEF190000,
        0xFAF3E2FE, 0xF3F90312, 0x1A0B0000,
        0xE90DD3F4, 0xF91B0B0F, 0xFB190000,
        0xFD25EC00, 0xEE12EEFC, 0xF7100000,
        0x140B00F3, 0xFB0ECE08, 0x14140000,
        0xFEDF0B03, 0xE20FD20E, 0xFAFE0000,
        0xF0E408EE, 0xFC0ECC2B, 0x05020000,
        0xF526D00F, 0xFC0CFC35, 0xC8150000,
        0xE80AE004, 0xE7F40A17, 0xFD180000,
        0x1202EBF1, 0xF9FEF41D, 0xFDF70000,
        0xFE1C00EE, 0xFF0EECFC, 0xF4FC0000,
        0xF919F8F0, 0xFE04C60E, 0x0A060000,
        0x05FC0EFB, 0xF515AC2D, 0xFCF60000,
        0xE9E70901, 0xFC15F639, 0xD8000000,
        0x021CC7F4, 0xFFE9EC36, 0xCB200000,
        0xFF1BE9E6, 0xF5F4E92B, 0xFC000000,
        0x0926F0E9, 0xFBDFCD22, 0x0A080000,
        0x0418F9F1, 0x0200E817, 0xDCFA0000,
        0x0A050AE2, 0xFDF5E51D, 0x03FB0000,
        0xFE0610EC, 0x0703BE22, 0xECE50000,
        0xFB0103F1, 0xF808D440, 0xC5FD0000,
        0xFA1CC1F5, 0x08CBDA23, 0xDA170000,
        0x0619F6EA, 0x0502FB29, 0xEE000000,
        0x191AFBE4, 0x0AE5EB2D, 0xD1110000,
        0x170908CD, 0x0AEFE521, 0xD0FB0000,
        0x180CFFDA, 0x12F4DB28, 0xDB000000,
        0x00FF08E6, 0x15DFEA20, 0xD4FE0000,
        0xFF01F0E5, 0x0EF1E03B, 0xA80F0000,
        0xFC10D3E0, 0x1FEEF61F, 0xB0170000,
        0xFF09F0E5, 0x0BF6D91E, 0xD6140000,
        0x1919F1E2, 0x0AFADA1D, 0xCD210000,
        0x0DFCEDED, 0x17F6032A, 0xCA030000,
        0x0E0802E8, 0x20F6F017, 0xCAFB0000,
        0x19FF0FF6, 0x23E5CE2C, 0xD0F10000,
        0xFF03FCE9, 0x1800FA29, 0x9C080000,
        0xDF0FE0EE, 0x1EFADF36, 0xB8170000,
        0x2316ECE2, 0x08DAC12F, 0xBA0F0000,
        0x2317F8DD, 0xFEEDE431, 0xBB120000,
        0x2200FFE5, 0x1602EB1C, 0xB0000000,
        0x170509DC, 0x1CEAE42B, 0xA5170000,
        0x1D0E09DF, 0x13ECE41A, 0xA7190000,
        0x1B040BDE, 0x1AEFD531, 0x8B0F0000,
        0x1BE012FC, 0x1011F3BB, 0x09F70000,
        0x1EDF0605, 0x0803FFD6, 0x22F40000,
        0x18D3F814, 0x0CF4F2DD, 0x2FE70000,
        0x1FD108FA, 0x1AEBF6EB, 0x30E80000,
        0x24C9FEFE, 0x11E2EF08, 0x3ACE0000,
        0x0DBB0902, 0x0EECE2F7, 0x38E70000,
        0x2EB91A0D, 0xFDEBDCDB, 0x44E90000,
        0x0ED01301, 0x1112F5DA, 0x08ED0000,
        0x0AD70B06, 0x19F50BE8, 0x0FF80000,
        0xF5DAFD04, 0x0DF60AEC, 0x0BF20000,
        0x00C1F303, 0x12F600EE, 0x15080000,
        0x0DBBF302, 0x0C000908, 0x1E010000,
        0x02CF1601, 0x1AE7F709, 0x270A0000,
        0xFAC1270E, 0x09F3DDE3, 0x21E60000,
        0xEDD00802, 0x071403E9, 0x05E50000,
        0xF9D600FE, 0x14FB110C, 0x09FC0000,
        0xEBAEEE0F, 0x12F524F6, 0x0AFA0000,
        0x0192F2FB, 0x17F718FB, 0x0FFC0000,
        0xF8A0EB00, 0x24FB0507, 0x28080000,
        0xFDC1ED02, 0x17EBF4F3, 0x34160000,
        0xF6B112FB, 0x0FF6F2F2, 0x3F060000,
        0xF0C50D01, 0x091211F8, 0x04E00000,
        0xE9CCF9FA, 0x0702210F, 0xF0D40000,
        0xD4CFF103, 0x20001F19, 0xE6F90000,
        0x06C4EC04, 0x0F04FC08, 0x0BFE0000,
        0x13D4E1FE, 0x19EDF807, 0x0DF90000,
        0xF8F6F7FF, 0x140204FB, 0x1BF90000,
        0xEDA20C03, 0x110AFCF1, 0x19E00000,
        0xC4AA0400, 0x191A1805, 0xF0CF0000,
        0xD1D2EB08, 0x0500130E, 0xF9E60000,
        0xD0DEF8FA, 0x110A1F1B, 0xDCE20000,
        0xCFB30D0D, 0x1AF11009, 0xE8E40000,
        0xFAD407FF, 0x1EF70FFD, 0xFCEE0000,
        0xFCE8FBF2, 0x16F6FB13, 0xF7FB0000,
        0xEBC30B0B, 0x17070E08, 0xFDF20000,
        0xB2BFFD0C, 0x1E142713, 0x04CF0000,
        0xD7EBF607, 0x0F080113, 0xF1F60000,
        0xCEE60DFD, 0x0C13FB16, 0xE0F80000,
        0xD3DC2303, 0x21020017, 0xE8F30000,
        0xE3D70E00, 0x1FED0D02, 0xE1E20000,
        0xE31D14F3, 0x25FDF90D, 0xD0F90000,
        0x00BDFAFD, 0x1E090015, 0xDFC70000,
        0xC2B10CEE, 0x38FA1808, 0x11B30000,
        0xC8CC22F8, 0x27F4FA0C, 0xFEAA0000,
        0xC4D725FF, 0x1F01EC0C, 0xFCC70000,
        0xBBB737E5, 0x3102FA12, 0xDBC90000,
        0xEDB639E8, 0x3BFDFFFB, 0xDEBA0000,
        0xD6B92AEB, 0x2BFE0703, 0xE4A50000,
        0xFDBA2EE7, 0x29050A0F, 0xC6950000,
        0x1D07D208, 0xFBE3CADC, 0x11360000,
        0x190CE113, 0xE9D9F8D4, 0x0B230000,
        0x1A0FF9FD, 0xE8D5E3E7, 0x062D0000,
        0x1E00FD02, 0xFBD9D5DB, 0x180F0000,
        0x16FB04FB, 0x08E4D8F2, 0x14120000,
        0x1903F7FB, 0x03ECC5FB, 0x0F190000,
        0x1C04DC09, 0xF5D2B2E6, 0x11340000,
        0x0F02E5F8, 0xE6EABDE7, 0x151C0000,
        0x0F05E6F9, 0xFAF709E5, 0x15120000,
        0x0602FDE2, 0xFDDA05E0, 0x14180000,
        0x09FA00E6, 0xEBFCE5E4, 0x1B110000,
        0x0FFF00F1, 0xF90107E4, 0x121D0000,
        0x04FBE8F2, 0x00F7D7E4, 0x11100000,
        0x07F6F4FF, 0xDBF9E5E9, 0x14250000,
        0x1504F9D6, 0xE0EAB5EE, 0x152E0000,
        0x0B07F8E9, 0xFADBF7D9, 0x1B180000,
        0x0508F2EB, 0xF9DBF9E0, 0x15190000,
        0x0C0300DE, 0xE3E003E5, 0x17140000,
        0x14FBEBE5, 0xFEDC09D7, 0x09130000,
        0x1304DEE9, 0xEAD204DB, 0x11200000,
        0x0311D8E9, 0xF3EBFEE4, 0x0F310000,
        0xEF13DFD5, 0xE2D1C4DA, 0x25260000,
        0xFF11DAD0, 0xECEFF4D2, 0x1E150000,
        0x0712ECF7, 0xF6FBF4E4, 0x1C0D0000,
        0x0712FCED, 0xE9D604F3, 0x180D0000,
        0x050AF2E8, 0x00EF0EE9, 0x130B0000,
        0x040ADCDC, 0x07F6E2EC, 0x0D180000,
        0x061BC300, 0xDFF7F2E5, 0x1C250000,
        0xEF26B6E4, 0xE4D5D6E2, 0x2A2B0000,
        0xFB27E0F2, 0xE2E5D8DF, 0x22170000,
        0x052AE0E9, 0xDEEDD4D9, 0x2D150000,
        0xFA15E8E2, 0xC8ECF5EE, 0x1B070000,
        0x0229DFE3, 0xE1DB0CE7, 0x11140000,
        0xF923E5D4, 0xCEDDE4E7, 0x0B190000,
        0xF52EBB06, 0xC6D2F5E3, 0x23260000,
        0x002ED7D4, 0xCFD0E6F9, 0x2C2D0000,
        0xFE29EBDF, 0xD6E9EBDE, 0x270C0000,
        0xF626F5DD, 0xD8D7DDF8, 0x23110000,
        0xF922E0E5, 0xE4EEFEEA, 0x1D030000,
        0xFB1FCEF7, 0xEDE6F3DF, 0x1B040000,
        0xFE2EBBD7, 0xE2F002FD, 0x1F150000,
        0xF426BFDA, 0xD6D2DEEB, 0x21200000,
        0xFC30C9E1, 0xD6CCADE1, 0x211D0000,
        0xF637C5E4, 0xE7EDF1D3, 0x1F1D0000,
        0xED31C5E5, 0xB9F3D2D1, 0x1D130000,
        0xEC3CD7EE, 0xBAF1DCCC, 0x221E0000,
        0xEB30CC01, 0xD9E3DFC5, 0x2B1E0000,
        0xF229B4F2, 0xC3F4D4DE, 0x17180000,
        0xED37C2F3, 0xCCD79EC5, 0x212D0000,
        0xFEF2EC12, 0x1F1A18DA, 0xDCCA0000,
        0x1BF9030A, 0x171509D7, 0xDDC00000,
        0x11F912FF, 0x1C12FFE5, 0xDBAB0000,
        0x020A0A0C, 0x1C14FFE4, 0xE0B60000,
        0xF6F91708, 0x241101EA, 0xD5AD0000,
        0x03E720F8, 0x140C0AE7, 0xD0DA0000,
        0xF60E20F7, 0x09102BDE, 0xD2CA0000,
        0xFCFCE708, 0x071119EE, 0xE4F90000,
        0xF9EAFB18, 0x06021EDF, 0xECDF0000,
        0xF6000B14, 0x050B16F4, 0xF1CE0000,
        0xF8FAF809, 0x08160EF6, 0xE4BF0000,
        0xFAE80C08, 0x0E1F0BF3, 0xE5E50000,
        0xF5FF0EF9, 0xFF0C13F9, 0xCDDF0000,
        0xFC061CF6, 0xFA092CEA, 0xCCE30000,
        0xEA19F129, 0xE9061BE8, 0xE9FC0000,
        0xF6F00414, 0xF9011EEA, 0xE9E60000,
        0xFACA050F, 0x0AFC17EA, 0xE6F00000,
        0xDFF2FF07, 0xF6FF1EF7, 0xD6CD0000,
        0xE0E50E0A, 0x00052406, 0xF2C00000,
        0xE9F80E0C, 0x01090800, 0xE3EE0000,
        0xDF0D1900, 0xEAF714EB, 0xF8070000,
        0xD721D00D, 0xE9F932CD, 0x011A0000,
        0xED10F31D, 0xEE0736C9, 0xE7060000,
        0x00E4011F, 0xF5FC2BEE, 0xDDEA0000,
        0xEF03F714, 0xFB022CED, 0xDDF80000,
        0xE3090B14, 0xF90125EB, 0xE4FD0000,
        0xDE010C01, 0xFB0715FB, 0xDBF70000,
        0xD7221905, 0xFCF91003, 0xCA1A0000,
        0xB518DE1D, 0xE4FB37CF, 0xD4180000,
        0xF4FEF317, 0xE7FA3AE6, 0xE2150000,
        0xED0BF113, 0xDE0B30E3, 0xD8020000,
        0xDE03FB06, 0xFAFD2EDF, 0xDC020000,
        0xEF150A08, 0xFAFD31D6, 0xE8070000,
        0xE3050604, 0x0EF11BDC, 0xE1110000,
        0xC716F804, 0xF90024F2, 0xDA230000,
        0xB10BD216, 0xE9EF2CD2, 0xE71E0000,
        0xE301EA18, 0xE20337F3, 0xF31C0000,
        0xEF03ED07, 0xEC0323D2, 0xDD0B0000,
        0xF707F7FF, 0xF2031BEB, 0xE8070000,
        0xD8FD070A, 0x020228FE, 0xCC090000,
        0xCBFB0B0E, 0x040029FD, 0xC4150000,
        0xD701FAE8, 0xFDFF20F5, 0xD3160000,
        0xA12BDFF5, 0xE9E21EFB, 0xE12C0000,
        0xD315E106, 0xE2FE17FC, 0xDC310000,
        0xDC2AEE0A, 0xEAEF0DE2, 0xE62F0000,
        0xF23CFDFE, 0xEEF814EA, 0xD2190000,
        0xD63304F7, 0xE2EE17F4, 0xBE240000,
        0xC60E0204, 0xEEF517F7, 0xAC300000,
        0xA62E0CDF, 0x01F624FF, 0xA13A0000,
        0x3FDD0ECC, 0xD4D5DCFD, 0x29090000,
        0x25E30BE7, 0xE0EEEE0C, 0x030C0000,
        0x2CDB0EF4, 0xCBE8F314, 0xFB120000,
        0x33E617F1, 0xD9F50C0C, 0xF4FB0000,
        0x3FC91CE9, 0xCCED0EFB, 0xFFF50000,
        0x3CED1BF5, 0xD2EDEFF7, 0x11E60000,
        0x3FE015E6, 0xC7EDF6CF, 0x1C020000,
        0x34EC1BEE, 0xE6EEE8EB, 0x1F010000,
        0x0FE918FF, 0xFAE9E6F8, 0xF0FA0000,
        0x29020BF6, 0xF0E405CD, 0xEC0F0000,
        0x2DFE09E7, 0xEDF1F9DF, 0xFF0B0000,
        0x300320E4, 0x00D602F5, 0xF1010000,
        0x27F327F4, 0x04D2EDE9, 0xF9F10000,
        0x28E327E9, 0xE9EDDBCC, 0x1AFB0000,
        0x2D0412F8, 0xF9E6DDE6, 0x10D20000,
        0x1E1D04F7, 0x08EAFCE2, 0xF3F70000,
        0x1A140DFB, 0x14EA15CE, 0xE4F70000,
        0x150612F0, 0x03E00FCF, 0xEFF50000,
        0x1B0914E6, 0x08DD07EC, 0xDF010000,
        0xFE0108FC, 0xFA0107F4, 0xF7020000,
        0x11E51EEA, 0x0CF3D6DC, 0x0EEF0000,
        0x1C0A21F6, 0x08ECE0C7, 0x02E60000,
        0x111DF5EA, 0x0DE10CEA, 0xFBE00000,
        0x1A1E03DE, 0x01D9FBD2, 0x06D50000,
        0x190B24F4, 0x09D6FAED, 0x14E60000,
        0x1F0A1AF1, 0xF4DB05F5, 0xF8F10000,
        0x10F416F9, 0x0FF007EF, 0xF2F00000,
        0x18102E04, 0xFEF2CAC7, 0x08D80000,
        0x1E0C110D, 0x05F3F6B7, 0x0ECA0000,
        0x052612F5, 0x1AE8FEF5, 0x0FDD0000,
        0x0C0E0BEB, 0xECF50AEE, 0x04E10000,
        0xFE070FE2, 0xF0EFFD0C, 0x24C30000,
        0xF9070CF3, 0xF4F9FC06, 0x06F00000,
        0xFD0F0B06, 0xF7FF0402, 0xF6D20000,
        0x171619EE, 0xECE2E0F0, 0x1FD00000,
        0x120A15F8, 0xF9EDF9F7, 0x16B40000,
        0xFA220508, 0x07E50A03, 0x0FC20000,
        0x001606EE, 0xF9E6FD21, 0x0EA40000,
        0xF2120BF9, 0xDEF5F8E5, 0x2AD60000,
        0xFA0708EF, 0xF0F2EAF9, 0x2FD60000,
        0xF5FD02FA, 0x01EFF317, 0x36CB0000,
        0x1A0F100A, 0xF501DEC0, 0x26A00000,
        0x120415ED, 0x00D810EF, 0x18810000,
        0xED0EFA0E, 0x04ECFE20, 0x20C00000,
        0xEE1AF9FD, 0xECF70304, 0x2CB70000,
        0xE019EEFA, 0xEFF703F0, 0x3EDA0000,
        0xED1A0413, 0xEEF616E7, 0x38B50000,
        0x0E1E01F9, 0xECEE02FE, 0x3AB90000,
        0x291A1016, 0xE4FFD2B2, 0x34B00000,
        0x06F30C38, 0xC31BCC09, 0xCB020000,
        0xFAFBF726, 0xC71ECD0C, 0xD51A0000,
        0xF9F90A11, 0xC40FB5EE, 0xD8290000,
        0x2C061505, 0xDB09C8EC, 0x0E1B0000,
        0xF21E1A05, 0xD419EFF4, 0xC3290000,
        0xE3EF0F0D, 0xD71CE1F6, 0xD1110000,
        0xDBD21030, 0xCF42D5F7, 0xB4000000,
        0x0AC71123, 0xCF1BC018, 0xE3000000,
        0xFFE20C03, 0xD00ED111, 0xD8110000,
        0x10D50C0B, 0xCD03E81E, 0xCC0D0000,
        0x05CB1204, 0xC310FA0F, 0xEA1C0000,
        0xE5DB2009, 0xC01AE713, 0xE3F80000,
        0xE3DB11FC, 0xD40EFA22, 0xE2F40000,
        0xDED31219, 0xE826ED22, 0xD4FE0000,
        0xF8BA1122, 0xDF17D118, 0xED0D0000,
        0xF9C10514, 0xCE15C51B, 0xE8140000,
        0xE8CC0F18, 0xD413E223, 0xDE1B0000,
        0x03D3120C, 0xE311FA0B, 0x09F50000,
        0xF2C0180A, 0xE112F218, 0xDE050000,
        0xD8D61709, 0xD625FE22, 0xC8080000,
        0xCBE00422, 0xEE20ED1F, 0xCCFB0000,
        0xF8F1FB24, 0xF228E80E, 0xDEF30000,
        0xF4EEF20E, 0xE71DE511, 0xE6090000,
        0xEDE6F811, 0xFE17EE0E, 0xF4E80000,
        0xE3D00B0F, 0x0A12F609, 0xE8D30000,
        0xDDBF0EFD, 0xFE1C030E, 0xF2F10000,
        0xE5C60A07, 0xF31D0314, 0xE8040000,
        0xC0F5EE15, 0xFE18FA10, 0xF1F40000,
        0xF2F2DB17, 0xF224E9FF, 0xFDD60000,
        0xF7F7E608, 0xF71CF7F7, 0x07EE0000,
        0xF0EFFF18, 0x130DF2F4, 0xE1E80000,
        0xE9DDFD16, 0x121803F0, 0xEAE40000,
        0xEFE0FFFE, 0x1022FE09, 0xE1E20000,
        0xE9D90906, 0x011DF40D, 0xF2D70000,
        0xD8E3DB11, 0x14211705, 0xF9CA0000,
        0xE5F8E212, 0x011F0018, 0xF2D40000,
        0x0805EA0F, 0x131DF5FF, 0x07CF0000,
        0x0A04F217, 0x1A0FF3F7, 0xE2CE0000,
        0xDA0BF519, 0x121A0CE5, 0xE3F40000,
        0xF902E203, 0x1714ECFD, 0xFED80000,
        0xCEF4FE1A, 0x0827EF10, 0xE2D80000,
        0xC9E0E31D, 0x10230313, 0xF9D50000,
        0x0908F70D, 0xF61EE307, 0x0BD80000,
        0x0E03F0FB, 0x170FEC02, 0x0ADF0000,
        0x0704F105, 0x040EED00, 0xEEEC0000,
        0x01E30A0A, 0x1115F1F0, 0xEBFC0000,
        0xF2F1F5FF, 0x0E24EBF7, 0xEBFC0000,
        0xE3D70415, 0x0521E6FD, 0xF7E80000,
        0xBDDAE420, 0x012AFE1C, 0x18E90000
    };

    static constexpr float fc1_bias_data[10] = {
        0.392554134f, -0.285635799f, -0.00556017039f, 0.251716107f,
        0.229203522f, -0.413539648f, 0.12928091f, -0.173630118f,
        0.0416958034f, -0.303781152f
    };
};